<pad>	0
<s>	0
</s>	0
<unk>	0
an	-0
ku	-1
va	-2
▁ku	-3
ka	-4
ra	-5
▁m	-6
ri	-7
▁n	-8
wa	-9
ch	-10
ti	-11
dz	-12
in	-13
zv	-14
we	-15
re	-16
▁a	-17
▁va	-18
▁mu	-19
ta	-20
mb	-21
ana	-22
ro	-23
si	-24
▁ne	-25
pa	-26
ya	-27
da	-28
on	-29
ga	-30
en	-31
chi	-32
sa	-33
ma	-34
hu	-35
ha	-36
ye	-37
dzi	-38
▁zv	-39
ano	-40
▁i	-41
ru	-42
▁v	-43
di	-44
▁u	-45
mu	-46
▁k	-47
▁ma	-48
▁pa	-49
ko	-50
ino	-51
▁kuti	-52
▁M	-53
se	-54
dza	-55
te	-56
mi	-57
un	-58
ang	-59
sh	-60
vi	-61
mwe	-62
ba	-63
▁ch	-64
mba	-65
zi	-66
zva	-67
rwa	-68
ani	-69
yo	-70
yi	-71
▁ya	-72
no	-73
ve	-74
ge	-75
▁zvi	-76
zvi	-77
▁aka	-78
de	-79
▁zva	-80
▁V	-81
to	-82
▁ye	-83
▁uye	-84
▁p	-85
vo	-86
ita	-87
wo	-88
ke	-89
hi	-90
▁N	-91
▁A	-92
▁wa	-93
▁we	-94
gu	-95
▁C	-96
▁vano	-97
anga	-98
ho	-99
ona	-100
go	-101
▁re	-102
▁vaka	-103
▁K	-104
mbo	-105
ura	-106
ki	-107
▁na	-108
▁ano	-109
▁Va	-110
po	-111
▁chi	-112
▁kun	-113
▁S	-114
so	-115
zvo	-116
▁kana	-117
shan	-118
do	-119
he	-120
▁ha	-121
dze	-122
kuti	-123
me	-124
wi	-125
▁kwe	-126
▁mun	-127
mbi	-128
ts	-129
▁ndi	-130
cha	-131
anhu	-132
▁ra	-133
kuru	-134
ane	-135
▁kwa	-136
fa	-137
ina	-138
yu	-139
▁ri	-140
▁Z	-141
▁I	-142
▁che	-143
dzo	-144
tu	-145
kwa	-146
▁Mu	-147
yika	-148
pe	-149
fu	-150
sha	-151
▁se	-152
▁P	-153
pi	-154
gwa	-155
▁T	-156
du	-157
tsi	-158
▁e	-159
wana	-160
enge	-161
▁Ma	-162
▁no	-163
▁ino	-164
zo	-165
▁“	-166
▁zvaka	-167
▁zvino	-168
mo	-169
kana	-170
angu	-171
bva	-172
▁h	-173
ine	-174
rira	-175
ende	-176
swa	-177
anda	-178
▁yaka	-179
bu	-180
▁neku	-181
be	-182
▁zve	-183
▁ve	-184
▁vachi	-185
▁dza	-186
za	-187
▁ti	-188
▁hu	-189
▁H	-190
shandi	-191
gi	-192
▁cha	-193
▁D	-194
sang	-195
▁asi	-196
svi	-197
enda	-198
▁vari	-199
le	-200
▁dze	-201
iti	-202
▁2	-203
kan	-204
▁1	-205
▁iri	-206
soro	-207
▁Ku	-208
mbe	-209
ze	-210
gadzi	-211
▁vanhu	-212
▁(	-213
▁nema	-214
▁mi	-215
▁B	-216
daro	-217
ose	-218
kun	-219
dzwa	-220
▁pamu	-221
unga	-222
▁achi	-223
che	-224
it	-225
▁R	-226
▁J	-227
zu	-228
rwe	-229
yaya	-230
ron	-231
viri	-232
▁iyi	-233
kati	-234
▁in	-235
imba	-236
sho	-237
ca	-238
mai	-239
hin	-240
basa	-241
ji	-242
wani	-243
fani	-244
or	-245
▁rino	-246
▁pe	-247
tanga	-248
▁ari	-249
shu	-250
▁dzi	-251
la	-252
gona	-253
pfu	-254
inhu	-255
bv	-256
▁ru	-257
guva	-258
▁uyu	-259
cho	-260
▁G	-261
▁U	-262
sina	-263
rume	-264
su	-265
zve	-266
ange	-267
one	-268
sira	-269
inga	-270
▁vanoti	-271
bwe	-272
li	-273
wanda	-274
▁Chi	-275
tsva	-276
miri	-277
▁ichi	-278
kore	-279
ce	-280
and	-281
pu	-282
svika	-283
▁mari	-284
▁dz	-285
pin	-286
vha	-287
▁uno	-288
mbu	-289
▁ane	-290
▁yeku	-291
kanga	-292
wari	-293
▁t	-294
imbabwe	-295
aka	-296
yan	-297
▁kubva	-298
vanhu	-299
▁o	-300
tari	-301
taura	-302
st	-303
enyu	-304
▁nemu	-305
gara	-306
▁F	-307
,”	-308
zuva	-309
▁nen	-310
..	-311
▁pamwe	-312
batsi	-313
00	-314
andi	-315
dino	-316
kanaka	-317
▁E	-318
▁b	-319
▁nda	-320
▁vana	-321
▁nekuti	-322
rum	-323
onzi	-324
tsa	-325
ton	-326
▁W	-327
tunga	-328
▁noku	-329
▁pamusoro	-330
ondo	-331
iri	-332
kadzi	-333
▁chete	-334
kwi	-335
chin	-336
zvimbo	-337
▁sa	-338
rati	-339
▁Pa	-340
dzira	-341
▁kuno	-342
ou	-343
▁ta	-344
sangano	-345
ten	-346
zhin	-347
▁Zv	-348
rera	-349
zhinji	-350
itwa	-351
▁neva	-352
▁Je	-353
▁L	-354
teve	-355
Ma	-356
▁s	-357
vana	-358
dha	-359
han	-360
ne	-361
▁Asi	-362
rumende	-363
fanira	-364
oni	-365
▁makore	-366
▁ka	-367
''	-368
▁mwana	-369
▁yo	-370
ni	-371
hovha	-372
▁avo	-373
▁munhu	-374
bvu	-375
▁Ndi	-376
mana	-377
▁ava	-378
yana	-379
▁nha	-380
bha	-381
▁f	-382
koro	-383
ing	-384
▁waka	-385
singa	-386
hen	-387
▁zviri	-388
simba	-389
na	-390
dya	-391
je	-392
ongo	-393
kwani	-394
▁w	-395
▁ro	-396
dhi	-397
komana	-398
tora	-399
she	-400
zwa	-401
uya	-402
kura	-403
▁hwe	-404
▁an	-405
rica	-406
fun	-407
▁apo	-408
▁3	-409
▁kuita	-410
▁gu	-411
▁-	-412
shandisa	-413
shoko	-414
▁me	-415
zira	-416
vura	-417
▁kune	-418
▁y	-419
ziva	-420
tion	-421
vaka	-422
ter	-423
gore	-424
▁sezvo	-425
risa	-426
shanda	-427
siyana	-428
▁pasi	-429
▁dzaka	-430
▁nguva	-431
▁nde	-432
▁ndo	-433
tau	-434
▁Zvino	-435
lo	-436
sun	-437
rwere	-438
▁kumu	-439
th	-440
▁nyaya	-441
mbira	-442
Zimbabwe	-443
onga	-444
▁mumwe	-445
▁vai	-446
▁kuma	-447
bat	-448
▁nezvi	-449
tungamiri	-450
kumi	-451
ren	-452
▁ai	-453
Mu	-454
▁pan	-455
shure	-456
dzimai	-457
▁ndino	-458
mira	-459
ramba	-460
chenge	-461
▁iyo	-462
ara	-463
▁hwa	-464
mun	-465
▁zvinhu	-466
▁zvikuru	-467
▁nyika	-468
bere	-469
rongwa	-470
dai	-471
▁wake	-472
▁raka	-473
fe	-474
▁basa	-475
bata	-476
▁munyika	-477
rwi	-478
dzera	-479
▁vamwe	-480
rs	-481
▁kuva	-482
ira	-483
mbudzi	-484
▁dzino	-485
▁20	-486
kira	-487
famba	-488
▁van	-489
batsira	-490
para	-491
▁akati	-492
hwa	-493
zivi	-494
ar	-495
tambo	-496
▁muma	-497
▁Kana	-498
ari	-499
tenge	-500
ini	-501
▁paku	-502
pera	-503
kwata	-504
▁c	-505
rika	-506
pinda	-507
vhu	-508
al	-509
saru	-510
▁Co	-511
temo	-512
▁kuna	-513
▁izvi	-514
rana	-515
▁nokuti	-516
chen	-517
▁mo	-518
isa	-519
▁anoti	-520
▁izvo	-521
▁wen	-522
zana	-523
tatu	-524
▁Y	-525
mwa	-526
==	-527
▁Zvi	-528
▁iwe	-529
unhu	-530
udza	-531
▁chino	-532
kamu	-533
dzidzi	-534
wan	-535
zita	-536
▁he	-537
▁kuda	-538
▁zvichi	-539
fi	-540
bvi	-541
▁murume	-542
Chi	-543
izvo	-544
▁musi	-545
▁O	-546
Je	-547
▁kusvika	-548
zwi	-549
▁vati	-550
▁No	-551
▁nechi	-552
tsvaga	-553
kon	-554
▁wo	-555
▁wangu	-556
tevera	-557
mbudziko	-558
buda	-559
▁Ha	-560
▁Mwari	-561
buri	-562
▁vachiti	-563
▁zvakanaka	-564
rt	-565
bhu	-566
ll	-567
▁pane	-568
rara	-569
bi	-570
▁pakati	-571
penyu	-572
▁vake	-573
yanya	-574
sangani	-575
kidza	-576
ango	-577
baba	-578
eri	-579
▁4	-580
fan	-581
▁Vano	-582
den	-583
▁"	-584
budi	-585
van	-586
▁Jehovha	-587
ng	-588
▁tino	-589
▁muna	-590
shandiswa	-591
vano	-592
kosha	-593
kwanisa	-594
sva	-595
▁iye	-596
huri	-597
▁weku	-598
▁In	-599
▁nga	-600
kwe	-601
vhi	-602
tan	-603
▁yavo	-604
ung	-605
Va	-606
▁kwema	-607
▁Ne	-608
▁imwe	-609
▁nem	-610
shanu	-611
uru	-612
mirira	-613
bvun	-614
ci	-615
▁ndoku	-616
▁mukuru	-617
piri	-618
▁zvakare	-619
ry	-620
▁mbe	-621
▁vane	-622
ol	-623
▁r	-624
▁Se	-625
▁zvose	-626
shonga	-627
men	-628
itika	-629
▁rwa	-630
▁da	-631
ck	-632
bhi	-633
arare	-634
ongoro	-635
ss	-636
tambi	-637
uro	-638
▁nama	-639
sati	-640
gadzirwa	-641
▁uyo	-642
ja	-643
▁the	-644
pfuura	-645
kwadi	-646
▁here	-647
▁7	-648
▁zvin	-649
▁of	-650
▁eku	-651
▁Ta	-652
▁rwe	-653
▁zveku	-654
▁chaka	-655
▁Zimbabwe	-656
▁nezve	-657
onal	-658
ungu	-659
hosva	-660
▁vose	-661
shi	-662
diki	-663
▁muku	-664
▁aya	-665
enyika	-666
▁5	-667
▁Na	-668
musoro	-669
misa	-670
sanganisira	-671
bo	-672
▁Kun	-673
tsigi	-674
ratidza	-675
oku	-676
...	-677
▁makumi	-678
▁ndaka	-679
▁maviri	-680
▁dzo	-681
Harare	-682
mberi	-683
simu	-684
vondo	-685
konze	-686
bato	-687
▁kwen	-688
▁ndiri	-689
darika	-690
▁201	-691
chengete	-692
▁to	-693
▁mukadzi	-694
frica	-695
▁kuenda	-696
▁vacha	-697
sana	-698
mbani	-699
▁mvura	-700
▁mwe	-701
▁Re	-702
▁kwaka	-703
ven	-704
.”	-705
mhan	-706
▁vanodaro	-707
gadziri	-708
▁un	-709
▁saka	-710
▁d	-711
▁mushure	-712
itira	-713
yore	-714
co	-715
gh	-716
sika	-717
fambi	-718
reva	-719
el	-720
wanikwa	-721
chena	-722
anguva	-723
▁yake	-724
oko	-725
▁nzvimbo	-726
er	-727
purisa	-728
▁pano	-729
siti	-730
fanirwa	-731
qu	-732
▁pama	-733
▁sei	-734
▁hava	-735
▁kuny	-736
vu	-737
bhadha	-738
tano	-739
man	-740
ly	-741
▁–	-742
▁Mo	-743
▁Ano	-744
tende	-745
▁gore	-746
hau	-747
▁Sa	-748
▁==	-749
▁vo	-750
▁kuta	-751
hurumende	-752
▁nemi	-753
zvino	-754
▁wavo	-755
ur	-756
guru	-757
shoma	-758
▁reku	-759
▁muchi	-760
▁ravo	-761
▁vakati	-762
▁nekuda	-763
▁acha	-764
ipa	-765
▁kuzvi	-766
▁nomu	-767
vari	-768
kang	-769
▁kuchi	-770
▁uchi	-771
uno	-772
▁ko	-773
pana	-774
▁kuzo	-775
papo	-776
merica	-777
ris	-778
▁Ch	-779
▁mashoko	-780
guta	-781
▁mumu	-782
'''	-783
yanzvi	-784
19	-785
dura	-786
▁cheku	-787
inge	-788
roo	-789
▁Ndiri	-790
▁mberi	-791
▁achiti	-792
▁The	-793
es	-794
▁riri	-795
▁ini	-796
▁kuri	-797
gari	-798
Jehovha	-799
▁vave	-800
▁pachi	-801
▁uri	-802
▁ine	-803
sangana	-804
▁pamberi	-805
tya	-806
anu	-807
kurudzira	-808
dho	-809
fungwa	-810
sisa	-811
wedzera	-812
20	-813
▁chin	-814
Mwari	-815
tso	-816
funga	-817
hengo	-818
rwo	-819
▁yako	-820
▁chai	-821
mbwa	-822
ted	-823
yora	-824
kari	-825
rama	-826
▁panguva	-827
um	-828
▁hurumende	-829
▁Izvi	-830
▁nava	-831
▁Cha	-832
▁mune	-833
▁naye	-834
▁haa	-835
il	-836
▁mabasa	-837
izvozvo	-838
▁nd	-839
▁guru	-840
yorwa	-841
▁wenyika	-842
edza	-843
garo	-844
tenga	-845
▁dzimwe	-846
▁nzira	-847
▁Ka	-848
tengesa	-849
ran	-850
▁vavo	-851
dzana	-852
▁ose	-853
rai	-854
siraeri	-855
07	-856
▁kwete	-857
dio	-858
pihwa	-859
▁Aka	-860
siri	-861
▁anodaro	-862
kanwa	-863
gadzira	-864
diwa	-865
▁kutaura	-866
▁Amai	-867
sunungu	-868
▁chinhu	-869
),	-870
).	-871
tenda	-872
yama	-873
▁Ba	-874
sikana	-875
▁simba	-876
dare	-877
▁...	-878
▁po	-879
▁dzavo	-880
▁zvimwe	-881
tse	-882
us	-883
▁dzeku	-884
▁and	-885
▁6	-886
▁muno	-887
▁idzi	-888
▁Nda	-889
▁ucha	-890
pamusoro	-891
eni	-892
▁Ndino	-893
simbi	-894
dan	-895
dzero	-896
iva	-897
tor	-898
▁ndiye	-899
sv	-900
ive	-901
▁Mun	-902
▁kunze	-903
▁hapana	-904
rege	-905
▁kudzi	-906
▁wako	-907
▁Nokuti	-908
▁zuva	-909
▁kw	-910
▁chiri	-911
kota	-912
outh	-913
▁so	-914
shaya	-915
pata	-916
china	-917
ondi	-918
tional	-919
▁nhasi	-920
▁yose	-921
▁dziri	-922
kwana	-923
▁yangu	-924
▁mhosva	-925
▁kusvi	-926
tsika	-927
ot	-928
rin	-929
▁matatu	-930
sarudzo	-931
rudzi	-932
chokwadi	-933
▁kuwana	-934
kandi	-935
▁kuona	-936
batwa	-937
tori	-938
Co	-939
gwaro	-940
pedza	-941
▁gumi	-942
zani	-943
▁kufamba	-944
▁te	-945
tudio	-946
DC	-947
▁An	-948
uri	-949
yira	-950
▁rimwe	-951
▁yekuti	-952
▁tichi	-953
hiri	-954
▁Africa	-955
igh	-956
rof	-957
dunhu	-958
▁kuitira	-959
mwari	-960
hatu	-961
fanana	-962
munhu	-963
vara	-964
▁VaM	-965
▁mudzimai	-966
▁tiri	-967
tauri	-968
▁yema	-969
America	-970
kunda	-971
kambani	-972
▁ndichi	-973
▁Vanoti	-974
▁rezve	-975
▁vakawanda	-976
sara	-977
swe	-978
▁kuburi	-979
ono	-980
kisa	-981
▁paka	-982
▁mwanakomana	-983
▁mita	-984
angagwa	-985
▁nevamwe	-986
▁De	-987
▁ts	-988
inda	-989
pfumi	-990
▁ho	-991
bereki	-992
Isiraeri	-993
▁kupa	-994
▁kura	-995
▁be	-996
lu	-997
nangagwa	-998
▁pasina	-999
ble	-1000
▁nokuda	-1001
▁ivo	-1002
fara	-1003
siya	-1004
▁yemu	-1005
▁yedu	-1006
kera	-1007
dzirwa	-1008
bho	-1009
dzidzo	-1010
tarisa	-1011
zvinhu	-1012
▁Vaka	-1013
ld	-1014
kwikwi	-1015
bhe	-1016
▁rake	-1017
▁--	-1018
▁Da	-1019
▁Mi	-1020
▁19	-1021
et	-1022
ruzhinji	-1023
hw	-1024
▁zvakawanda	-1025
▁kunyange	-1026
tanhatu	-1027
rova	-1028
▁dzose	-1029
vid	-1030
▁handi	-1031
ea	-1032
zvarwa	-1033
▁kusvikira	-1034
▁kure	-1035
▁de	-1036
▁kumba	-1037
veren	-1038
▁kushanda	-1039
tivi	-1040
Ku	-1041
▁mazuva	-1042
▁g	-1043
▁for	-1044
yoni	-1045
rofita	-1046
▁$	-1047
tima	-1048
▁&	-1049
onekwa	-1050
sirwa	-1051
▁Hu	-1052
Ch	-1053
uraya	-1054
tokari	-1055
▁ndiyo	-1056
▁akadaro	-1057
▁dambudziko	-1058
▁akanga	-1059
▁zvakan	-1060
fanani	-1061
▁wemu	-1062
gadzirisa	-1063
ite	-1064
sine	-1065
▁ema	-1066
zivo	-1067
oma	-1068
bati	-1069
kange	-1070
▁taka	-1071
▁ndicha	-1072
enzani	-1073
▁vanenge	-1074
iwa	-1075
▁8	-1076
waka	-1077
▁muri	-1078
virira	-1079
▁baba	-1080
midza	-1081
▁We	-1082
▁di	-1083
▁isu	-1084
anisa	-1085
angwe	-1086
ent	-1087
angwa	-1088
▁kweku	-1089
▁kuitwa	-1090
▁kwazvo	-1091
yedza	-1092
▁mukati	-1093
pedzi	-1094
patara	-1095
porofita	-1096
▁vangu	-1097
▁Jesu	-1098
▁mambo	-1099
▁icha	-1100
▁kwake	-1101
dyi	-1102
▁Ru	-1103
▁Studio	-1104
hutano	-1105
▁Vanhu	-1106
unda	-1107
up	-1108
▁vakanga	-1109
▁asina	-1110
▁kushandisa	-1111
▁svondo	-1112
▁ven	-1113
▁sezva	-1114
oo	-1115
kunge	-1116
gare	-1117
id	-1118
▁anoda	-1119
▁kuburikidza	-1120
hara	-1121
zara	-1122
dzoka	-1123
land	-1124
kwira	-1125
shun	-1126
▁uko	-1127
bhuku	-1128
▁yoku	-1129
torwa	-1130
▁navo	-1131
000	-1132
▁chikwata	-1133
pan	-1134
▁ave	-1135
▁Saka	-1136
▁vechi	-1137
▁kwavo	-1138
▁nhengo	-1139
▁ndivo	-1140
▁zita	-1141
kuna	-1142
misi	-1143
enderera	-1144
▁kwaari	-1145
bvunzo	-1146
▁yechi	-1147
▁Jo	-1148
pisa	-1149
dwa	-1150
yoka	-1151
bvisa	-1152
yara	-1153
▁rose	-1154
▁kunge	-1155
zivikanwa	-1156
mvura	-1157
▁go	-1158
rima	-1159
▁mumba	-1160
▁wechi	-1161
▁mukana	-1162
denga	-1163
bhadhara	-1164
shamwari	-1165
tengo	-1166
der	-1167
▁9	-1168
▁anonzi	-1169
ric	-1170
tamba	-1171
ment	-1172
▁mana	-1173
▁mamwe	-1174
bazi	-1175
roora	-1176
▁akaita	-1177
tswa	-1178
ere	-1179
▁nyore	-1180
▁Si	-1181
fananidzo	-1182
▁munyaya	-1183
▁Com	-1184
▁chirwere	-1185
▁mutungamiri	-1186
zive	-1187
tin	-1188
ongorora	-1189
▁pfungwa	-1190
tino	-1191
▁vakadaro	-1192
mera	-1193
▁vazhinji	-1194
-19	-1195
▁musikana	-1196
zivisa	-1197
▁Mai	-1198
gwe	-1199
▁zvekuti	-1200
▁nehu	-1201
wandu	-1202
ingo	-1203
kirwa	-1204
▁cho	-1205
chema	-1206
▁mashanu	-1207
pfe	-1208
▁zvoku	-1209
sere	-1210
mhuri	-1211
futa	-1212
▁haana	-1213
▁Tino	-1214
ssi	-1215
hona	-1216
Zanu	-1217
piwa	-1218
▁muZimbabwe	-1219
▁vemu	-1220
▁nho	-1221
▁rin	-1222
ity	-1223
▁Ra	-1224
zvina	-1225
▁Ipapo	-1226
zha	-1227
rano	-1228
taurwa	-1229
▁kuku	-1230
pwa	-1231
▁Vamwe	-1232
▁Pro	-1233
▁do	-1234
▁Mumwe	-1235
▁vanoda	-1236
▁mutambo	-1237
dzika	-1238
ir	-1239
▁enyika	-1240
▁unogona	-1241
chengeta	-1242
▁nevana	-1243
▁iro	-1244
▁pachena	-1245
wira	-1246
mari	-1247
▁kugara	-1248
▁vaviri	-1249
rei	-1250
▁nezva	-1251
▁mwedzi	-1252
the	-1253
zuru	-1254
tonge	-1255
▁kupinda	-1256
In	-1257
wayedza	-1258
sungwa	-1259
▁ndizvo	-1260
sinei	-1261
kare	-1262
▁hai	-1263
ristu	-1264
0.	-1265
▁Uye	-1266
▁rapera	-1267
andiri	-1268
▁mamiri	-1269
▁mishonga	-1270
▁Ca	-1271
▁hazvi	-1272
pedzisira	-1273
▁kuramba	-1274
lic	-1275
kombe	-1276
redza	-1277
tsan	-1278
mambo	-1279
▁man	-1280
▁muzvi	-1281
mani	-1282
South	-1283
▁richi	-1284
▁mazana	-1285
tarisira	-1286
▁Zvaka	-1287
▁kuru	-1288
angwana	-1289
▁vasina	-1290
▁Uni	-1291
▁meku	-1292
▁muHarare	-1293
▁anenge	-1294
mbiro	-1295
▁huru	-1296
▁anogona	-1297
▁Ti	-1298
▁chaizvo	-1299
romo	-1300
▁kutora	-1301
fungi	-1302
▁zvavo	-1303
▁havana	-1304
▁vashandi	-1305
▁zvo	-1306
▁Uno	-1307
yatso	-1308
▁vakuru	-1309
dia	-1310
fo	-1311
merwa	-1312
iswa	-1313
kutanga	-1314
▁Ini	-1315
mwana	-1316
▁kodzero	-1317
ty	-1318
▁chimwe	-1319
wane	-1320
ct	-1321
▁Ko	-1322
urope	-1323
▁nevanhu	-1324
▁kutanga	-1325
ste	-1326
twa	-1327
▁pfu	-1328
▁pari	-1329
batana	-1330
bvumi	-1331
gove	-1332
rirwa	-1333
zvin	-1334
remba	-1335
vho	-1336
yori	-1337
▁dzake	-1338
▁La	-1339
▁varume	-1340
tsvagawo	-1341
vhidhi	-1342
▁kwo	-1343
batani	-1344
▁is	-1345
▁mhuri	-1346
▁amai	-1347
ting	-1348
Jo	-1349
▁ca	-1350
vandu	-1351
▁nezvimwe	-1352
muchi	-1353
▁vaudza	-1354
▁PF	-1355
yisa	-1356
tarisirwa	-1357
▁VaT	-1358
rd	-1359
iridzi	-1360
son	-1361
ul	-1362
tiri	-1363
▁imba	-1364
kwanise	-1365
▁ruzivo	-1366
▁mitambo	-1367
gwagwa	-1368
▁kushandiswa	-1369
▁uka	-1370
tambudziko	-1371
▁zviuru	-1372
zvare	-1373
mende	-1374
Covid	-1375
tions	-1376
tongi	-1377
toro	-1378
▁maka	-1379
▁ake	-1380
MDC	-1381
▁Di	-1382
onde	-1383
huka	-1384
pen	-1385
rema	-1386
▁ren	-1387
dziyo	-1388
▁'''	-1389
siku	-1390
konzera	-1391
bate	-1392
▁zvicha	-1393
hondo	-1394
▁Sta	-1395
▁zvine	-1396
bvunza	-1397
sarudza	-1398
▁imi	-1399
budirira	-1400
▁Dr	-1401
duku	-1402
shandu	-1403
lli	-1404
farira	-1405
tadza	-1406
ctor	-1407
▁naVa	-1408
tare	-1409
kurumidza	-1410
▁wema	-1411
run	-1412
uka	-1413
Pa	-1414
change	-1415
▁ndika	-1416
randa	-1417
▁mukomana	-1418
yiwa	-1419
chete	-1420
IV	-1421
ria	-1422
getsi	-1423
Ju	-1424
Sa	-1425
nhu	-1426
▁kusa	-1427
ver	-1428
▁varimi	-1429
pindura	-1430
rudzo	-1431
ene	-1432
▁apa	-1433
chengetedza	-1434
wu	-1435
hwe	-1436
tonga	-1437
▁kuziva	-1438
▁Me	-1439
wayo	-1440
dyo	-1441
▁co	-1442
rwira	-1443
dzokera	-1444
▁vatambi	-1445
tsin	-1446
kunze	-1447
biri	-1448
dzin	-1449
zano	-1450
vene	-1451
▁Ro	-1452
ronga	-1453
▁rema	-1454
andina	-1455
shamisa	-1456
rea	-1457
▁Tra	-1458
▁achin	-1459
uto	-1460
▁Wa	-1461
onzwa	-1462
quot	-1463
tsigira	-1464
▁kare	-1465
▁mekunge	-1466
mitambo	-1467
▁venhau	-1468
▁kwavari	-1469
dira	-1470
tongo	-1471
▁uku	-1472
ranga	-1473
riro	-1474
▁iko	-1475
tunhu	-1476
muri	-1477
▁Che	-1478
▁kusanganisira	-1479
▁10	-1480
pasi	-1481
▁uyewo	-1482
shunguru	-1483
▁So	-1484
▁zvema	-1485
dzivirira	-1486
▁chero	-1487
tes	-1488
▁Ho	-1489
ance	-1490
hando	-1491
mp	-1492
jo	-1493
▁vadzidzi	-1494
▁huno	-1495
▁pamba	-1496
rurama	-1497
remu	-1498
▁inonzi	-1499
sununguka	-1500
▁ipapo	-1501
Re	-1502
dzimwe	-1503
▁yakawanda	-1504
tema	-1505
tero	-1506
▁VaMa	-1507
▁mweya	-1508
vimbi	-1509
▁Ndaka	-1510
▁ayo	-1511
▁akamu	-1512
dhora	-1513
kodzera	-1514
pira	-1515
▁mano	-1516
imwe	-1517
▁zvakanyanya	-1518
▁akan	-1519
gadzirira	-1520
gamuchi	-1521
tongerwo	-1522
simudzira	-1523
gira	-1524
▁kudya	-1525
▁kunzwa	-1526
tic	-1527
▁Do	-1528
▁vanga	-1529
ropa	-1530
kumbira	-1531
tauriri	-1532
▁dzichi	-1533
▁inogona	-1534
▁nezveku	-1535
mbidza	-1536
50	-1537
▁Ino	-1538
hepo	-1539
pura	-1540
▁vachin	-1541
rere	-1542
dzidzisa	-1543
▁musangano	-1544
077	-1545
rarama	-1546
tambira	-1547
honga	-1548
▁hwaka	-1549
▁inoti	-1550
don	-1551
▁vasinga	-1552
kanganisa	-1553
▁panzvimbo	-1554
▁ngaa	-1555
andaka	-1556
▁zvakaita	-1557
▁'	-1558
gere	-1559
itiko	-1560
tevedze	-1561
▁asinga	-1562
tera	-1563
bhizi	-1564
▁kuto	-1565
pota	-1566
▁kundi	-1567
▁kunyanya	-1568
▁nemakumi	-1569
▁musarudzo	-1570
tsvaka	-1571
vai	-1572
▁Ga	-1573
berekwa	-1574
▁kumusha	-1575
▁Vana	-1576
▁18	-1577
tengi	-1578
▁He	-1579
roni	-1580
▁Nd	-1581
bh	-1582
gabe	-1583
orld	-1584
ral	-1585
chine	-1586
▁yai	-1587
Cha	-1588
▁en	-1589
▁Fa	-1590
pikisa	-1591
▁Vati	-1592
gen	-1593
ed	-1594
▁sen	-1595
▁tin	-1596
fadza	-1597
▁anofanira	-1598
Africa	-1599
mme	-1600
▁Nha	-1601
kidzwa	-1602
▁Muzvare	-1603
kango	-1604
kwere	-1605
▁wi	-1606
▁kupara	-1607
▁veku	-1608
▁nenguva	-1609
▁veruzhinji	-1610
Judha	-1611
tachi	-1612
▁ika	-1613
▁nemusi	-1614
cu	-1615
ster	-1616
tumira	-1617
tungamirira	-1618
▁vanofanira	-1619
Ha	-1620
Mo	-1621
▁sarudzo	-1622
▁VaE	-1623
▁roku	-1624
peri	-1625
ridza	-1626
rk	-1627
▁Bo	-1628
rairidzi	-1629
kafu	-1630
itiro	-1631
batsiro	-1632
▁hurongwa	-1633
bvira	-1634
dzisa	-1635
andino	-1636
Na	-1637
ruka	-1638
▁ropa	-1639
▁motokari	-1640
pp	-1641
▁Go	-1642
reke	-1643
svingo	-1644
zere	-1645
▁_	-1646
▁Ja	-1647
▁vanonzi	-1648
mire	-1649
ena	-1650
▁hati	-1651
ungani	-1652
▁Anoti	-1653
▁kuuya	-1654
▁zvakakosha	-1655
▁akazvi	-1656
▁0	-1657
▁neve	-1658
▁Naizvozvo	-1659
▁Vachi	-1660
▁tsika	-1661
muka	-1662
endesa	-1663
▁akazo	-1664
sia	-1665
una	-1666
▁As	-1667
▁Kuti	-1668
▁yacho	-1669
▁chii	-1670
▁vema	-1671
sta	-1672
▁akawanda	-1673
▁hazvo	-1674
▁kubata	-1675
▁To	-1676
▁chake	-1677
tani	-1678
▁zvinoita	-1679
▁VaMu	-1680
faro	-1681
pfumba	-1682
▁vange	-1683
▁kupfuura	-1684
▁munzvimbo	-1685
ong	-1686
enzaniso	-1687
▁oku	-1688
havhidhi	-1689
shai	-1690
rwisa	-1691
▁yava	-1692
▁kungo	-1693
▁mudunhu	-1694
▁nechirwere	-1695
▁wedu	-1696
goni	-1697
enzi	-1698
uni	-1699
rwara	-1700
▁ke	-1701
roro	-1702
▁panyaya	-1703
▁panyika	-1704
▁Kuny	-1705
rn	-1706
tee	-1707
▁Iye	-1708
▁China	-1709
▁ndeche	-1710
▁sangano	-1711
▁vedu	-1712
▁Po	-1713
tsigiri	-1714
tarisana	-1715
▁Ye	-1716
▁dzevanhu	-1717
dzimba	-1718
zhonga	-1719
hwina	-1720
tauro	-1721
▁rinoti	-1722
▁Mutungamiri	-1723
▁zvai	-1724
▁munguva	-1725
▁Gu	-1726
▁vabereki	-1727
hirizhonga	-1728
▁Nya	-1729
▁yepamusoro	-1730
san	-1731
▁Zva	-1732
yenge	-1733
ungano	-1734
Bu	-1735
bereka	-1736
dzibaba	-1737
▁kwenyika	-1738
▁chirongwa	-1739
▁kukwanisa	-1740
woyo	-1741
▁mugore	-1742
sango	-1743
▁kwechi	-1744
▁kwandiri	-1745
▁dzemu	-1746
pfumbamwe	-1747
haraunda	-1748
▁vava	-1749
▁shoko	-1750
▁nedzimwe	-1751
kundi	-1752
per	-1753
▁hama	-1754
tuma	-1755
konzero	-1756
miti	-1757
▁mbiri	-1758
▁matanhatu	-1759
ser	-1760
sera	-1761
▁dare	-1762
▁fo	-1763
reche	-1764
takura	-1765
▁Europe	-1766
▁nomumwe	-1767
tevedzeri	-1768
les	-1769
▁zvakasiyana	-1770
dhu	-1771
rson	-1772
miswa	-1773
rohwa	-1774
▁Chin	-1775
▁nyanzvi	-1776
▁vakaita	-1777
inzi	-1778
▁vako	-1779
mwedzi	-1780
▁anga	-1781
handa	-1782
▁Te	-1783
moyo	-1784
▁Ishe	-1785
rura	-1786
roondo	-1787
moni	-1788
ai	-1789
too	-1790
shandira	-1791
paramende	-1792
tore	-1793
chechi	-1794
verenga	-1795
▁kuitika	-1796
kwikwidza	-1797
kuva	-1798
▁nenzira	-1799
▁wakanga	-1800
▁kubatsira	-1801
win	-1802
▁Kune	-1803
▁dzin	-1804
▁ndinoda	-1805
▁nhe	-1806
▁Yaka	-1807
▁kwangu	-1808
▁manomwe	-1809
▁nemwana	-1810
▁30	-1811
▁mudare	-1812
▁madzimai	-1813
▁pedyo	-1814
wiri	-1815
▁bato	-1816
▁itsva	-1817
mata	-1818
Kwayedza	-1819
▁ana	-1820
▁Hurumende	-1821
ndo	-1822
▁edu	-1823
▁rangu	-1824
▁yenyu	-1825
▁zvinoreva	-1826
rirai	-1827
nga	-1828
dzidza	-1829
▁kumbo	-1830
▁neni	-1831
▁chikamu	-1832
rimi	-1833
Zi	-1834
tive	-1835
-1	-1836
pone	-1837
▁vanogona	-1838
▁zhinji	-1839
unza	-1840
▁muviri	-1841
Nda	-1842
▁bo	-1843
▁dzangu	-1844
▁kupo	-1845
▁Mwana	-1846
▁vaIsiraeri	-1847
▁‘	-1848
rusa	-1849
▁pacha	-1850
bvuma	-1851
▁dzakawanda	-1852
rg	-1853
▁Iwe	-1854
▁Cou	-1855
upenyu	-1856
batsirwa	-1857
▁vakan	-1858
yanga	-1859
hupfumi	-1860
cal	-1861
▁icho	-1862
▁rubatsiro	-1863
▁nemari	-1864
▁Mnangagwa	-1865
SA	-1866
ms	-1867
tanda	-1868
▁mutemo	-1869
tachiona	-1870
▁akasiyana	-1871
▁fa	-1872
▁kufa	-1873
▁nayo	-1874
▁kucha	-1875
▁nesimba	-1876
▁VaD	-1877
miro	-1878
▁kambani	-1879
▁navana	-1880
wisa	-1881
for	-1882
▁vasa	-1883
▁kutsvaga	-1884
ut	-1885
▁kudare	-1886
▁emu	-1887
▁nani	-1888
ratidzo	-1889
▁wenyu	-1890
▁akava	-1891
▁musha	-1892
▁nehurumende	-1893
cy	-1894
gun	-1895
zera	-1896
mon	-1897
habvu	-1898
▁haina	-1899
▁kuchikoro	-1900
piti	-1901
▁Pre	-1902
vandudza	-1903
hama	-1904
ration	-1905
anzi	-1906
▁kukuru	-1907
▁naJehovha	-1908
▁200	-1909
▁ga	-1910
kuro	-1911
▁mhando	-1912
▁nhu	-1913
▁pamutemo	-1914
Ka	-1915
▁zvichitevera	-1916
pote	-1917
gumi	-1918
▁ticha	-1919
ls	-1920
ttoo	-1921
▁Dzi	-1922
ds	-1923
ring	-1924
▁upenyu	-1925
▁wakati	-1926
▁25	-1927
▁kunyika	-1928
▁zvisina	-1929
▁yave	-1930
▁.	-1931
▁dzema	-1932
▁zvakaipa	-1933
yiro	-1934
▁semu	-1935
▁ndeye	-1936
▁VaN	-1937
buritsa	-1938
▁chekuti	-1939
sp	-1940
▁pro	-1941
rokwa	-1942
▁muka	-1943
▁zvinogona	-1944
▁rw	-1945
wedze	-1946
Ja	-1947
gadziriswa	-1948
▁nepa	-1949
sikirwa	-1950
pfeka	-1951
erman	-1952
▁musoro	-1953
▁nemumwe	-1954
▁su	-1955
▁ndechekuti	-1956
▁mafuta	-1957
▁mapurisa	-1958
▁bha	-1959
ction	-1960
▁pava	-1961
2.	-1962
angira	-1963
201	-1964
ronge	-1965
▁nemurume	-1966
▁kuwedzera	-1967
▁Pla	-1968
komba	-1969
▁Maka	-1970
tungamira	-1971
anho	-1972
reme	-1973
kisisa	-1974
She	-1975
China	-1976
mhanya	-1977
▁(3	-1978
kisi	-1979
▁on	-1980
bert	-1981
royi	-1982
mmerson	-1983
tuka	-1984
danana	-1985
▁kwemu	-1986
uye	-1987
kanzuru	-1988
paradza	-1989
tanho	-1990
▁mbeu	-1991
▁mitemo	-1992
▁Vi	-1993
kwereti	-1994
▁kunyangwe	-1995
▁ndiko	-1996
chereche	-1997
▁rine	-1998
zwisisa	-1999
umba	-2000
▁Man	-2001
rimwe	-2002
▁hakuna	-2003
tsinhi	-2004
▁ako	-2005
shanyira	-2006
▁si	-2007
▁Mambo	-2008
▁Fo	-2009
▁rwaka	-2010
▁zvishoma	-2011
mati	-2012
▁gwaro	-2013
kanakisisa	-2014
iro	-2015
hora	-2016
▁l	-2017
bviswa	-2018
▁Nga	-2019
▁chokwadi	-2020
saka	-2021
piriso	-2022
▁Commi	-2023
hare	-2024
kwirira	-2025
singaperi	-2026
▁kwamuri	-2027
moto	-2028
ziso	-2029
dh	-2030
▁Kwe	-2031
▁kuve	-2032
enderana	-2033
cia	-2034
▁vaine	-2035
▁nhabvu	-2036
miriri	-2037
svondo	-2038
▁zvisinei	-2039
dane	-2040
amai	-2041
jeri	-2042
▁ngava	-2043
▁havasi	-2044
pfungwa	-2045
▁wose	-2046
▁Con	-2047
tsvene	-2048
▁nazvo	-2049
rokwazvo	-2050
kano	-2051
▁guta	-2052
▁kukura	-2053
bhizimisi	-2054
vina	-2055
▁hau	-2056
▁yakanaka	-2057
▁mumi	-2058
komo	-2059
dziro	-2060
wanzo	-2061
▁handina	-2062
fura	-2063
mhosva	-2064
▁choku	-2065
▁dzezve	-2066
▁zvese	-2067
chigaro	-2068
chan	-2069
fambisa	-2070
▁vakazo	-2071
chiremba	-2072
taka	-2073
buritswa	-2074
▁kubhadhara	-2075
▁===	-2076
rango	-2077
▁con	-2078
lawayo	-2079
▁hweku	-2080
▁Mukuru	-2081
▁remu	-2082
dhe	-2083
jodzi	-2084
▁bu	-2085
▁aine	-2086
chango	-2087
▁mombe	-2088
sing	-2089
▁Nyaya	-2090
▁mwaka	-2091
▁VaMnangagwa	-2092
▁matambudziko	-2093
Uni	-2094
pato	-2095
▁izvozvo	-2096
▁Chitima	-2097
▁nekun	-2098
▁chechi	-2099
Ca	-2100
mbere	-2101
▁ndinotsvagawo	-2102
Ba	-2103
Se	-2104
mm	-2105
dzwe	-2106
▁redu	-2107
▁isina	-2108
▁vechidiki	-2109
▁pfupi	-2110
▁kutenga	-2111
musi	-2112
▁pavo	-2113
▁rechi	-2114
▁zvake	-2115
▁zvigadzirwa	-2116
▁Court	-2117
▁hwavo	-2118
▁nhomba	-2119
▁mang	-2120
Hu	-2121
▁Bi	-2122
itirwa	-2123
▁wacho	-2124
▁nenyaya	-2125
batanidzwa	-2126
gura	-2127
▁kutamba	-2128
▁if	-2129
▁dzakasiyana	-2130
▁simbi	-2131
▁huwandu	-2132
sti	-2133
vel	-2134
▁hari	-2135
ad	-2136
▁muzana	-2137
enga	-2138
▁moyo	-2139
daneti	-2140
lia	-2141
und	-2142
▁Pe	-2143
mhando	-2144
gamuchira	-2145
ratidzira	-2146
▁yen	-2147
vimba	-2148
▁vakadzi	-2149
pupu	-2150
▁siyana	-2151
pirisiti	-2152
▁rwo	-2153
Ne	-2154
▁Ve	-2155
mini	-2156
▁vakamu	-2157
▁Zi	-2158
▁or	-2159
kita	-2160
▁nyama	-2161
▁Li	-2162
▁100	-2163
▁15	-2164
▁kubudi	-2165
res	-2166
zuro	-2167
cheka	-2168
▁1.	-2169
woko	-2170
▁VaS	-2171
▁kubuda	-2172
haka	-2173
chinja	-2174
▁mukombe	-2175
▁kugadzirisa	-2176
▁Be	-2177
our	-2178
tumbi	-2179
▁mazita	-2180
▁mumutambo	-2181
gra	-2182
▁Pane	-2183
▁Mar	-2184
terna	-2185
lan	-2186
▁seku	-2187
▁nezuva	-2188
▁nenyika	-2189
ongororwa	-2190
▁Lo	-2191
▁kupi	-2192
▁naA	-2193
▁muguta	-2194
▁akanaka	-2195
▁zana	-2196
▁chema	-2197
▁sh	-2198
▁aiva	-2199
▁kudarika	-2200
heni	-2201
▁nyoka	-2202
reba	-2203
▁Union	-2204
▁Dhavhidhi	-2205
ces	-2206
gai	-2207
ssion	-2208
United	-2209
▁inenge	-2210
▁zvikwata	-2211
4.	-2212
▁dzine	-2213
CC	-2214
angano	-2215
▁hazvina	-2216
▁Kunyange	-2217
bonde	-2218
▁make	-2219
sitiri	-2220
▁wesangano	-2221
1.	-2222
ree	-2223
tombo	-2224
▁kuMa	-2225
▁muhu	-2226
vira	-2227
▁ndiwo	-2228
▁rinonzi	-2229
▁VaEmmerson	-2230
fisi	-2231
kiri	-2232
▁aive	-2233
tengeswa	-2234
▁idzo	-2235
▁America	-2236
mirwa	-2237
Kristu	-2238
▁sha	-2239
udzwa	-2240
zambi	-2241
yararo	-2242
▁zvika	-2243
▁gurukota	-2244
▁Vachitaura	-2245
▁matanho	-2246
▁nekudaro	-2247
▁Cup	-2248
▁Mbu	-2249
▁Kristu	-2250
▁(4	-2251
simuka	-2252
▁vaive	-2253
simbisa	-2254
▁mamiriyoni	-2255
konzerwa	-2256
9.	-2257
▁mutengo	-2258
▁unofanira	-2259
yoro	-2260
▁HIV	-2261
▁kan	-2262
▁kwako	-2263
▁chikafu	-2264
dambudziko	-2265
rambe	-2266
zisi	-2267
mitemo	-2268
▁dzimba	-2269
3.	-2270
refu	-2271
awa	-2272
zvadzi	-2273
▁ndipo	-2274
▁han	-2275
▁neS	-2276
▁run	-2277
▁ndiro	-2278
mangwana	-2279
▁12	-2280
dana	-2281
rire	-2282
▁VaG	-2283
▁vagari	-2284
xi	-2285
▁ba	-2286
▁divi	-2287
▁Akati	-2288
▁pazvi	-2289
▁zvikamu	-2290
▁kwezvi	-2291
▁vasati	-2292
chino	-2293
▁vachida	-2294
huku	-2295
▁dai	-2296
▁hun	-2297
tyisa	-2298
▁zvikoro	-2299
vhe	-2300
tun	-2301
duro	-2302
tina	-2303
mbura	-2304
ererano	-2305
▁kwenguva	-2306
▁mamiriro	-2307
▁ndine	-2308
▁vaiva	-2309
▁chikoro	-2310
▁peku	-2311
▁chavo	-2312
motokari	-2313
▁vachiri	-2314
his	-2315
▁makuru	-2316
▁(2	-2317
mombe	-2318
ph	-2319
ori	-2320
30	-2321
muno	-2322
jipiti	-2323
rone	-2324
turn	-2325
chose	-2326
angura	-2327
▁Ndicha	-2328
▁dzinoti	-2329
▁reZimbabwe	-2330
▁nhare	-2331
▁kufara	-2332
▁mucha	-2333
xt	-2334
▁Zvo	-2335
▁neru	-2336
mweya	-2337
▁paru	-2338
faniri	-2339
kangan	-2340
6.	-2341
matongerwo	-2342
▁(1	-2343
resa	-2344
▁achida	-2345
unganidza	-2346
vakwa	-2347
dii	-2348
log	-2349
▁Su	-2350
rance	-2351
dy	-2352
vimbo	-2353
▁paine	-2354
5.	-2355
pon	-2356
▁High	-2357
▁ekuti	-2358
▁zvinodiwa	-2359
▁muko	-2360
Ta	-2361
musha	-2362
▁,	-2363
siro	-2364
▁Mwe	-2365
▁tsa	-2366
dzora	-2367
gn	-2368
▁tika	-2369
yoresa	-2370
▁vatatu	-2371
▁kugadzira	-2372
hat	-2373
gone	-2374
guma	-2375
▁000	-2376
▁richa	-2377
line	-2378
▁zvachose	-2379
kupa	-2380
koshe	-2381
Bo	-2382
▁rudo	-2383
▁Sangano	-2384
▁midziyo	-2385
▁nesu	-2386
Indaneti	-2387
▁yakanga	-2388
yaka	-2389
▁inofanira	-2390
kiti	-2391
▁anoita	-2392
▁Nyanzvi	-2393
▁kusangana	-2394
▁pamwechete	-2395
PS	-2396
zvaka	-2397
ongororo	-2398
▁Ya	-2399
Bulawayo	-2400
chengetedzwa	-2401
mhu	-2402
lliance	-2403
AN	-2404
▁akaenda	-2405
ternational	-2406
tal	-2407
▁dhi	-2408
▁pema	-2409
▁Shona	-2410
▁zvakadaro	-2411
zwe	-2412
shora	-2413
▁tine	-2414
roorwa	-2415
▁pazuva	-2416
▁vatengi	-2417
▁mushonga	-2418
ress	-2419
▁hwen	-2420
wanani	-2421
kumbiro	-2422
-2	-2423
mura	-2424
fundi	-2425
▁refu	-2426
▁pachokwadi	-2427
▁Moyo	-2428
▁wava	-2429
bereko	-2430
▁rwake	-2431
deredza	-2432
▁michina	-2433
▁Wi	-2434
wiza	-2435
▁woku	-2436
dhin	-2437
teerera	-2438
▁vainge	-2439
rusaremu	-2440
▁angu	-2441
endeswa	-2442
▁nhamba	-2443
▁haisi	-2444
▁ndege	-2445
▁masere	-2446
▁zvinonzi	-2447
▁kunzi	-2448
▁nezuro	-2449
▁11	-2450
▁rekuti	-2451
wandi	-2452
ungana	-2453
munyika	-2454
sunga	-2455
▁South	-2456
▁kuisa	-2457
wirirana	-2458
▁hwake	-2459
hinduro	-2460
ps	-2461
▁2018	-2462
▁noru	-2463
▁Munhu	-2464
▁kwedu	-2465
▁venyu	-2466
▁zvinenge	-2467
▁On	-2468
tere	-2469
rus	-2470
EC	-2471
PF	-2472
▁En	-2473
▁ainge	-2474
▁Doctor	-2475
wn	-2476
▁VaR	-2477
▁napa	-2478
kundikana	-2479
lle	-2480
zukuru	-2481
miriro	-2482
▁Alliance	-2483
hene	-2484
indura	-2485
andibate	-2486
▁vakazvi	-2487
:1	-2488
pere	-2489
▁kui	-2490
▁pake	-2491
onyanya	-2492
▁dzidzo	-2493
▁zvokudya	-2494
▁Sha	-2495
▁izita	-2496
▁hupenyu	-2497
con	-2498
dzai	-2499
▁newe	-2500
Ndino	-2501
govera	-2502
▁US	-2503
▁chedu	-2504
▁rezvehutano	-2505
ding	-2506
sikati	-2507
dzingwa	-2508
▁chikuru	-2509
ruwa	-2510
▁are	-2511
▁kut	-2512
▁Cent	-2513
▁Mugabe	-2514
7.	-2515
▁akafa	-2516
▁zvave	-2517
▁zvavano	-2518
dzidzisi	-2519
▁United	-2520
▁by	-2521
chidiki	-2522
tsiva	-2523
▁maitiro	-2524
▁shamwari	-2525
▁rinowanikwa	-2526
mhe	-2527
indi	-2528
▁rako	-2529
tai	-2530
sarudzwa	-2531
Bha	-2532
▁24	-2533
▁kwenyu	-2534
com	-2535
rove	-2536
▁webato	-2537
tsigiro	-2538
▁chichi	-2539
dro	-2540
▁Lea	-2541
gue	-2542
ors	-2543
World	-2544
▁asati	-2545
mber	-2546
rane	-2547
socia	-2548
onge	-2549
ju	-2550
▁zvava	-2551
dyidzana	-2552
▁chitima	-2553
uchi	-2554
dzinga	-2555
▁bedzi	-2556
▁shoma	-2557
▁kutarisa	-2558
▁akandi	-2559
remeke	-2560
tongwa	-2561
chera	-2562
riyoni	-2563
▁hwevanhu	-2564
vuku	-2565
shami	-2566
▁Noku	-2567
▁Mashoko	-2568
▁senzira	-2569
ther	-2570
tsau	-2571
vhara	-2572
▁chemu	-2573
▁nemamwe	-2574
▁ngo	-2575
▁kwevanhu	-2576
zen	-2577
ture	-2578
▁kuM	-2579
pembe	-2580
bage	-2581
▁yakan	-2582
▁zvisinga	-2583
stan	-2584
marara	-2585
▁anoshanda	-2586
▁2.	-2587
▁For	-2588
sungi	-2589
mos	-2590
▁VaB	-2591
rican	-2592
▁Mari	-2593
rwadza	-2594
▁zviviri	-2595
▁nemudzimai	-2596
▁huri	-2597
▁Mutongi	-2598
▁nerimwe	-2599
rts	-2600
tira	-2601
ard	-2602
▁Ex	-2603
huru	-2604
▁hondo	-2605
kangani	-2606
▁moto	-2607
▁danho	-2608
▁kudai	-2609
yna	-2610
▁sezvino	-2611
pf	-2612
rump	-2613
vapa	-2614
tembo	-2615
▁Kubva	-2616
vimbisa	-2617
▁Mutauriri	-2618
tsu	-2619
rans	-2620
▁you	-2621
piswa	-2622
handare	-2623
sterone	-2624
▁rwendo	-2625
que	-2626
▁mhirizhonga	-2627
▁reMa	-2628
zororo	-2629
▁kwava	-2630
rega	-2631
kanda	-2632
▁tattoo	-2633
▁akatanga	-2634
▁cheCovid	-2635
▁oga	-2636
▁une	-2637
▁akabva	-2638
ratidzwa	-2639
tsinhira	-2640
▁yenyika	-2641
▁16	-2642
diri	-2643
jeka	-2644
▁yeva	-2645
▁chose	-2646
▁mhuka	-2647
▁zvidzidzo	-2648
▁rinoona	-2649
▁naizvozvo	-2650
ous	-2651
▁vanoita	-2652
▁Bu	-2653
▁Iyo	-2654
tumwa	-2655
▁kwemi	-2656
dziviri	-2657
▁inoita	-2658
umbwa	-2659
tarira	-2660
▁dzedu	-2661
National	-2662
▁reC	-2663
port	-2664
▁sema	-2665
▁wekuti	-2666
lar	-2667
▁Nations	-2668
Ini	-2669
ast	-2670
kra	-2671
▁fu	-2672
▁ati	-2673
▁mikana	-2674
▁pamuviri	-2675
mes	-2676
▁li	-2677
kabvu	-2678
zinda	-2679
hofisi	-2680
▁mazano	-2681
shungurudza	-2682
▁mukurumbira	-2683
gomo	-2684
▁Zvin	-2685
▁pechi	-2686
▁nemapurisa	-2687
▁anoona	-2688
▁Associa	-2689
onaka	-2690
▁Murume	-2691
▁pashure	-2692
▁makambani	-2693
vin	-2694
mita	-2695
▁fodya	-2696
▁mangwana	-2697
lin	-2698
▁50	-2699
dera	-2700
tain	-2701
urce	-2702
▁zvirwere	-2703
rwu	-2704
vanga	-2705
▁kuvanhu	-2706
▁magwaro	-2707
▁nhoroondo	-2708
hasi	-2709
dzoke	-2710
zwisi	-2711
vhota	-2712
vhuro	-2713
bhanga	-2714
▁maererano	-2715
zvara	-2716
tsetse	-2717
▁kugadzirwa	-2718
sto	-2719
Tino	-2720
jera	-2721
▁pen	-2722
ermany	-2723
▁vatiwo	-2724
▁Un	-2725
arri	-2726
mara	-2727
pepa	-2728
zoita	-2729
▁dzoku	-2730
▁shure	-2731
▁Kwayedza	-2732
He	-2733
rwisana	-2734
▁kubasa	-2735
▁haasi	-2736
▁vanofanirwa	-2737
rent	-2738
▁tsi	-2739
▁nezv	-2740
ank	-2741
▁Baba	-2742
dhaka	-2743
chinda	-2744
▁return	-2745
▁remhuri	-2746
▁''	-2747
cial	-2748
mbwe	-2749
tung	-2750
rombo	-2751
▁Coun	-2752
▁pose	-2753
chinzi	-2754
onero	-2755
▁Nyama	-2756
▁paaka	-2757
▁weChi	-2758
▁achiri	-2759
▁National	-2760
▁1,	-2761
yuta	-2762
angana	-2763
▁apfuura	-2764
horo	-2765
▁Isu	-2766
▁anon	-2767
▁enyu	-2768
▁kwemakore	-2769
▁paIndaneti	-2770
▁kunaka	-2771
kurumbira	-2772
▁kuratidza	-2773
▁kuG	-2774
kumbo	-2775
mbuya	-2776
▁miviri	-2777
▁kutarisirwa	-2778
Ru	-2779
▁40	-2780
tura	-2781
▁kutarisira	-2782
▁ngaandibate	-2783
▁hwo	-2784
dhoro	-2785
ID	-2786
▁fe	-2787
▁ikoko	-2788
▁zvinon	-2789
zine	-2790
Ndaka	-2791
sheve	-2792
▁ndai	-2793
▁Association	-2794
▁Ri	-2795
▁Sho	-2796
shonal	-2797
batanidza	-2798
80	-2799
hun	-2800
kudza	-2801
▁vafa	-2802
▁chigaro	-2803
site	-2804
bheri	-2805
ringa	-2806
kundwa	-2807
▁kwayo	-2808
▁vanova	-2809
HIV	-2810
....	-2811
▁not	-2812
mbove	-2813
pinza	-2814
▁dzechi	-2815
gan	-2816
vhuvhu	-2817
ynamos	-2818
▁kweva	-2819
shonaland	-2820
zasi	-2821
▁Ele	-2822
▁weS	-2823
▁mutambi	-2824
▁kudzidza	-2825
derera	-2826
batsire	-2827
vanenge	-2828
▁vatori	-2829
▁yadarika	-2830
vona	-2831
zviri	-2832
▁Al	-2833
tter	-2834
▁22	-2835
▁Le	-2836
▁neChi	-2837
▁zvizvarwa	-2838
."	-2839
ok	-2840
chool	-2841
gariro	-2842
duka	-2843
tungwiza	-2844
cil	-2845
▁neMu	-2846
▁World	-2847
fambiswa	-2848
▁nawo	-2849
arriors	-2850
▁kuvaka	-2851
▁kuHarare	-2852
▁nesangano	-2853
▁yeZimbabwe	-2854
8.	-2855
baya	-2856
sheni	-2857
▁doro	-2858
shamba	-2859
wedzerwa	-2860
▁kwakaita	-2861
tri	-2862
onoka	-2863
vhene	-2864
▁haku	-2865
rwadzi	-2866
▁tsvina	-2867
▁kukurudzira	-2868
ight	-2869
mbiri	-2870
gadzikana	-2871
▁zvirongwa	-2872
Jesu	-2873
▁Muno	-2874
tra	-2875
▁Ndo	-2876
▁Imwe	-2877
▁Taka	-2878
▁then	-2879
▁munyori	-2880
▁nemvura	-2881
poka	-2882
▁musa	-2883
▁mhepo	-2884
heru	-2885
▁Unogona	-2886
rerwa	-2887
▁mako	-2888
▁muru	-2889
▁reZanu	-2890
▁mutongo	-2891
gs	-2892
▁Vo	-2893
tinum	-2894
mbozha	-2895
tenderera	-2896
Zvi	-2897
ivi	-2898
gadziriro	-2899
▁vanakomana	-2900
▁Iyi	-2901
▁ndin	-2902
▁kuSouth	-2903
▁vanogara	-2904
▁vanodarika	-2905
tande	-2906
▁wese	-2907
▁vakafa	-2908
shandura	-2909
vuya	-2910
▁nevano	-2911
▁naMwari	-2912
rty	-2913
▁Handi	-2914
▁chaiyo	-2915
▁yakaita	-2916
▁kurarama	-2917
▁Du	-2918
budisa	-2919
▁pangu	-2920
▁ruoko	-2921
vigwa	-2922
▁VaCha	-2923
▁kubvisa	-2924
zino	-2925
anoti	-2926
▁Vakati	-2927
▁nya	-2928
▁renyu	-2929
▁akadai	-2930
demu	-2931
duri	-2932
panhau	-2933
▁akapa	-2934
▁nemazana	-2935
bika	-2936
zeve	-2937
▁wai	-2938
ganhu	-2939
▁kunzvimbo	-2940
hn	-2941
▁Nyika	-2942
▁kudenga	-2943
▁masangano	-2944
▁munharaunda	-2945
▁Ju	-2946
mbia	-2947
tors	-2948
▁saizvozvo	-2949
60	-2950
Mambo	-2951
ys	-2952
bve	-2953
ence	-2954
ussia	-2955
vhiki	-2956
kanzwa	-2957
▁vacho	-2958
▁muchina	-2959
suo	-2960
yere	-2961
dzimu	-2962
rwizi	-2963
▁urwu	-2964
▁chekuita	-2965
▁kwemashoko	-2966
kai	-2967
sion	-2968
▁bho	-2969
▁nei	-2970
tange	-2971
▁ndini	-2972
▁zvakasimba	-2973
▁West	-2974
▁Platinum	-2975
vengi	-2976
▁zvinova	-2977
sununguko	-2978
▁New	-2979
▁Ser	-2980
shaikwa	-2981
▁Zvisinei	-2982
▁kazhinji	-2983
▁al	-2984
less	-2985
▁chipo	-2986
▁iyoyo	-2987
▁madzi	-2988
▁neimwe	-2989
kurudzirwa	-2990
▁mapfumbamwe	-2991
▁nokusingaperi	-2992
net	-2993
ome	-2994
▁that	-2995
demutande	-2996
▁vachiita	-2997
▁zvakakwana	-2998
hwo	-2999
tsamwa	-3000
▁zvemu	-3001
simudza	-3002
▁anobva	-3003
fadzwa	-3004
▁achiita	-3005
▁anogara	-3006
10	-3007
De	-3008
yl	-3009
▁13	-3010
jira	-3011
▁weva	-3012
▁akambo	-3013
▁Ndinoda	-3014
▁pindura	-3015
rom	-3016
▁14	-3017
rona	-3018
▁vese	-3019
▁dzako	-3020
▁Zvimwe	-3021
▁mutauro	-3022
▁zvinoda	-3023
Hurumende	-3024
▁kupararira	-3025
▁mangwanani	-3026
guvo	-3027
kiro	-3028
▁vhi	-3029
tengese	-3030
vhura	-3031
as	-3032
zinesi	-3033
▁kuChi	-3034
▁pamusangano	-3035
tunha	-3036
▁penyu	-3037
▁hupfumi	-3038
▁kubvira	-3039
tsanangura	-3040
▁wekutanga	-3041
▁23	-3042
Ijipiti	-3043
▁achibva	-3044
▁rezveku	-3045
▁nemakore	-3046
▁inofanirwa	-3047
▁Cho	-3048
bairo	-3049
chingo	-3050
remara	-3051
▁inopa	-3052
▁pamusha	-3053
visa	-3054
▁mubato	-3055
budiriro	-3056
▁vatsigiri	-3057
▁zvizhinji	-3058
dari	-3059
▁Muchi	-3060
▁reHarare	-3061
▁zvirango	-3062
ght	-3063
▁kuB	-3064
▁mhe	-3065
eor	-3066
svitsa	-3067
▁Machine	-3068
▁rutsigiro	-3069
▁wan	-3070
▁zvekare	-3071
▁zveZimbabwe	-3072
200	-3073
▁neA	-3074
siden	-3075
▁hamu	-3076
▁akange	-3077
▁kuedza	-3078
▁kureva	-3079
▁shandu	-3080
tsvakuru	-3081
▁hurukuro	-3082
tswana	-3083
▁Mozisi	-3084
mbudzika	-3085
▁nemhuri	-3086
▁mhinduro	-3087
tungamiriri	-3088
munda	-3089
akanga	-3090
▁neche	-3091
▁zvina	-3092
vhesiti	-3093
▁kutambira	-3094
min	-3095
▁bazi	-3096
▁yemi	-3097
▁kunyora	-3098
▁Lu	-3099
▁kuS	-3100
taure	-3101
▁ange	-3102
▁anondi	-3103
miririra	-3104
▁kubudikidza	-3105
ket	-3106
velo	-3107
▁kundo	-3108
▁kumira	-3109
▁source	-3110
kune	-3111
▁Izvo	-3112
▁navanhu	-3113
pro	-3114
Chin	-3115
poteredza	-3116
▁mazhinji	-3117
▁mudzimba	-3118
”.	-3119
▁usa	-3120
ridzo	-3121
teroid	-3122
▁inoda	-3123
▁kutya	-3124
▁isinga	-3125
▁kwauri	-3126
▁Mushure	-3127
vhun	-3128
▁VaP	-3129
▁ezvinhu	-3130
tevedzera	-3131
▁kumusoro	-3132
-0	-3133
▁35	-3134
▁zvirimwa	-3135
▁zvinyorwa	-3136
▁kumapurisa	-3137
▁chigadzirwa	-3138
▁City	-3139
cation	-3140
▁kwekuti	-3141
▁chinonzi	-3142
▁Apo	-3143
▁Muku	-3144
▁Tiri	-3145
Mi	-3146
maka	-3147
revo	-3148
bhuru	-3149
▁inoshandiswa	-3150
uva	-3151
kure	-3152
mail	-3153
pment	-3154
▁Pari	-3155
▁Dzimwe	-3156
▁chicha	-3157
▁ndicho	-3158
▁kuchipatara	-3159
rid	-3160
▁as	-3161
kuri	-3162
▁Neku	-3163
shungu	-3164
▁kupihwa	-3165
▁rakanaka	-3166
▁vakaenda	-3167
cherechedza	-3168
fira	-3169
winya	-3170
▁pami	-3171
honasi	-3172
▁Commission	-3173
ters	-3174
▁202	-3175
▁bhi	-3176
shiri	-3177
▁rudzi	-3178
▁chiremba	-3179
▁Bha	-3180
bayiro	-3181
kanyanya	-3182
tch	-3183
rairo	-3184
▁Achi	-3185
▁evanhu	-3186
▁nezita	-3187
▁yekutanga	-3188
thi	-3189
wandisa	-3190
▁kuronga	-3191
▁zvazvo	-3192
dumbu	-3193
▁boka	-3194
rwadziwa	-3195
danho	-3196
akaita	-3197
▁dzakaita	-3198
▁muporofita	-3199
▁nemishonga	-3200
mhi	-3201
ses	-3202
ball	-3203
▁cur	-3204
▁goho	-3205
kraine	-3206
▁chine	-3207
▁kwatiri	-3208
▁muAmerica	-3209
kodzero	-3210
las	-3211
mas	-3212
rol	-3213
dzva	-3214
▁mai	-3215
ambia	-3216
gungwa	-3217
▁hadzi	-3218
pomerwa	-3219
taurira	-3220
▁vasiri	-3221
dzidziswa	-3222
▁zvinotaura	-3223
▁mum	-3224
▁kamwe	-3225
▁League	-3226
▁je	-3227
▁Nor	-3228
dimbu	-3229
▁Zviri	-3230
▁School	-3231
▁dzenyu	-3232
▁kuongorora	-3233
▁International	-3234
Europe	-3235
▁nezvo	-3236
cube	-3237
▁para	-3238
▁tari	-3239
▁racho	-3240
▁yezvi	-3241
▁varairidzi	-3242
od	-3243
ital	-3244
▁ama	-3245
▁kufunga	-3246
▁muranda	-3247
▁hwenyika	-3248
▁kumativi	-3249
univhesiti	-3250
▁yakasiyana	-3251
shungurudzwa	-3252
▁vawane	-3253
▁akaudza	-3254
▁mashoma	-3255
▁kupomerwa	-3256
071	-3257
▁3.	-3258
blic	-3259
▁Kura	-3260
frican	-3261
▁zvedu	-3262
▁utachiona	-3263
vumo	-3264
rangarira	-3265
▁miriyoni	-3266
cer	-3267
lue	-3268
rip	-3269
sikwa	-3270
▁usiku	-3271
▁Vatiwo	-3272
▁tinoda	-3273
▁chiedza	-3274
ders	-3275
▁Hapana	-3276
Me	-3277
ora	-3278
▁hw	-3279
▁nou	-3280
▁zvenyu	-3281
▁mubvunzo	-3282
An	-3283
zon	-3284
▁tu	-3285
alth	-3286
fano	-3287
▁ndiani	-3288
▁kukwira	-3289
▁Ar	-3290
hwin	-3291
kara	-3292
wder	-3293
▁Web	-3294
chaka	-3295
mbidzwa	-3296
▁vakwanise	-3297
▁kwechirwere	-3298
▁st	-3299
▁avai	-3300
▁kuchema	-3301
▁mutumbi	-3302
chengeteka	-3303
▁muzvikoro	-3304
:2	-3305
Ti	-3306
sed	-3307
▁Au	-3308
yorera	-3309
▁anova	-3310
▁steroid	-3311
▁pamwedzi	-3312
tsana	-3313
▁mapa	-3314
▁mura	-3315
▁zvechi	-3316
▁Tarirai	-3317
nde	-3318
boka	-3319
paradzwa	-3320
▁lo	-3321
▁yakaitwa	-3322
▁kukanganisa	-3323
tete	-3324
▁rai	-3325
▁naro	-3326
▁bvunzo	-3327
▁kurima	-3328
▁zvirokwazvo	-3329
▁nokukurumidza	-3330
endai	-3331
▁nhaka	-3332
▁uchida	-3333
▁vachibva	-3334
ivil	-3335
gurukota	-3336
bvumirano	-3337
▁VaJo	-3338
▁rega	-3339
chinhu	-3340
▁zvako	-3341
▁kukosha	-3342
▁zvakadai	-3343
esa	-3344
urwa	-3345
▁Ita	-3346
stitu	-3347
shanyi	-3348
▁kusarudza	-3349
▁kutengesa	-3350
Ra	-3351
hou	-3352
bhazi	-3353
▁andi	-3354
Warriors	-3355
▁kuchengetedza	-3356
Kana	-3357
jere	-3358
meso	-3359
roup	-3360
▁maoko	-3361
▁vanotiwo	-3362
gadzirirwa	-3363
imbi	-3364
▁shu	-3365
▁mwoyo	-3366
▁tsamba	-3367
▁mitengo	-3368
▁vanobva	-3369
▁chinangwa	-3370
▁mifananidzo	-3371
mer	-3372
gwara	-3373
lable	-3374
▁reva	-3375
▁wayo	-3376
▁with	-3377
▁yepa	-3378
▁nhara	-3379
▁inosvika	-3380
▁kuonekwa	-3381
kobho	-3382
bhadharwa	-3383
cs	-3384
bra	-3385
kama	-3386
▁amu	-3387
baiwa	-3388
▁kunoita	-3389
▁mibvunzo	-3390
▁nharaunda	-3391
▁Mwanakomana	-3392
ks	-3393
sungo	-3394
purazi	-3395
▁pakutanga	-3396
des	-3397
fundo	-3398
▁ndokuzo	-3399
▁vechikoro	-3400
bare	-3401
riri	-3402
▁Iko	-3403
▁Guru	-3404
tariri	-3405
99	-3406
hy	-3407
ffi	-3408
▁ushe	-3409
anenge	-3410
▁akatungamirira	-3411
-3	-3412
undu	-3413
Chita	-3414
kudya	-3415
▁mazwi	-3416
▁pavaka	-3417
▁zvisiri	-3418
▁kudzivirira	-3419
raira	-3420
▁Chii	-3421
▁pemu	-3422
shande	-3423
tengwa	-3424
chengetwa	-3425
mpi	-3426
▁21	-3427
kova	-3428
chinge	-3429
tambirwa	-3430
▁rinouya	-3431
dandemutande	-3432
!!	-3433
mh	-3434
op	-3435
were	-3436
▁aita	-3437
yanduri	-3438
▁murimi	-3439
ure	-3440
▁muG	-3441
▁rika	-3442
sve	-3443
lack	-3444
puro	-3445
▁umo	-3446
▁naMa	-3447
▁weMu	-3448
▁panze	-3449
▁vaita	-3450
▁chikonzero	-3451
remi	-3452
repo	-3453
riva	-3454
▁ongororo	-3455
is	-3456
sra	-3457
pinde	-3458
▁kurutivi	-3459
▁masikati	-3460
▁kuko	-3461
bayiwa	-3462
enzana	-3463
andinga	-3464
▁mumusha	-3465
▁varwere	-3466
7,	-3467
enya	-3468
ongu	-3469
▁Zve	-3470
▁nzi	-3471
zadzi	-3472
▁echi	-3473
▁unga	-3474
▁maguta	-3475
▁rakanga	-3476
▁Nyamavhuvhu	-3477
▁mutevedzeri	-3478
High	-3479
bira	-3480
duru	-3481
mbova	-3482
▁unhu	-3483
▁akataura	-3484
?”	-3485
▁26	-3486
▁28	-3487
zoti	-3488
▁usina	-3489
▁dzicha	-3490
enzaniswa	-3491
une	-3492
tsoka	-3493
▁ndere	-3494
▁nababa	-3495
▁j	-3496
▁Fe	-3497
▁ad	-3498
siki	-3499
shinga	-3500
AR	-3501
ges	-3502
tarwa	-3503
vamwe	-3504
▁Bank	-3505
vimbika	-3506
▁nega	-3507
▁pave	-3508
reza	-3509
▁Muna	-3510
▁kuka	-3511
▁yese	-3512
angirai	-3513
▁kupedza	-3514
▁nemunhu	-3515
▁vakange	-3516
yera	-3517
▁naS	-3518
dhiyo	-3519
rungu	-3520
▁aida	-3521
vakaita	-3522
▁nezvaka	-3523
velopment	-3524
▁parizvino	-3525
▁(5	-3526
▁izwi	-3527
onetsa	-3528
viga	-3529
▁VaC	-3530
▁kudzoka	-3531
▁kwemvura	-3532
▁zvakanga	-3533
▁kuchengeta	-3534
▁zvakaitika	-3535
▁St	-3536
renda	-3537
▁ivhu	-3538
▁Civil	-3539
▁Servi	-3540
yambira	-3541
▁Council	-3542
▁kubatwa	-3543
geza	-3544
shin	-3545
▁asa	-3546
▁reS	-3547
▁2013	-3548
gadzwa	-3549
▁powder	-3550
▁0.	-3551
itwe	-3552
seni	-3553
▁dzai	-3554
tyairi	-3555
vharwa	-3556
▁mvumo	-3557
▁Sekuru	-3558
horoondo	-3559
▁mumitambo	-3560
▁pachigaro	-3561
▁pachikoro	-3562
kurwa	-3563
▁tose	-3564
▁mimwe	-3565
▁mutsva	-3566
svangirai	-3567
▁rinopikisa	-3568
din	-3569
wer	-3570
sign	-3571
ition	-3572
▁mabhi	-3573
▁Hatina	-3574
▁yakareba	-3575
▁gi	-3576
ruva	-3577
▁yayo	-3578
▁Ndira	-3579
▁Nzira	-3580
▁yaiva	-3581
▁kuverenga	-3582
bhura	-3583
▁runo	-3584
ire	-3585
mwi	-3586
▁ex	-3587
kepe	-3588
kwai	-3589
▁Hol	-3590
ronde	-3591
washa	-3592
▁Vari	-3593
▁Mbuya	-3594
▁Ndine	-3595
▁iripo	-3596
▁negore	-3597
▁vanove	-3598
rumbidza	-3599
shanduka	-3600
▁mufananidzo	-3601
ker	-3602
tyi	-3603
doma	-3604
zoro	-3605
▁Train	-3606
▁vakambo	-3607
▁kutaurwa	-3608
▁kudzokera	-3609
▁FC	-3610
vapo	-3611
zora	-3612
ibheri	-3613
rairwa	-3614
pabonde	-3615
kanganwa	-3616
AS	-3617
-19.	-3618
▁East	-3619
zviita	-3620
▁current	-3621
▁mabhuku	-3622
▁Chikwata	-3623
ft	-3624
rm	-3625
ans	-3626
▁Sh	-3627
▁Gra	-3628
sis	-3629
▁la	-3630
▁Ste	-3631
▁Usa	-3632
▁hunhu	-3633
▁nokun	-3634
waniswa	-3635
tsanangu	-3636
▁kubatana	-3637
gle	-3638
kane	-3639
irimu	-3640
pfeko	-3641
▁2019	-3642
ponesa	-3643
▁Nguva	-3644
fundisi	-3645
▁kurapwa	-3646
▁manheru	-3647
gumo	-3648
▁hweHIV	-3649
▁kaviri	-3650
▁masimba	-3651
▁Mudzimai	-3652
▁vanokwanisa	-3653
IM	-3654
mhuka	-3655
▁Gore	-3656
▁Waka	-3657
koshesa	-3658
▁henyu	-3659
▁media	-3660
▁Central	-3661
▁akaramba	-3662
▁Yo	-3663
,000	-3664
▁weA	-3665
zambique	-3666
taurirana	-3667
▁4.	-3668
zika	-3669
zura	-3670
▁vata	-3671
▁Nhasi	-3672
▁zvayo	-3673
▁kwemari	-3674
▁kukonzera	-3675
▁VaChi	-3676
▁chikumbiro	-3677
len	-3678
yun	-3679
▁sho	-3680
▁rufu	-3681
▁yama	-3682
Chitatu	-3683
Jerusaremu	-3684
▁repamusoro	-3685
mbun	-3686
yero	-3687
▁neu	-3688
Shona	-3689
onera	-3690
▁Pasi	-3691
▁ekunze	-3692
dhorobha	-3693
▁Gwe	-3694
lands	-3695
gumisi	-3696
▁Pamusoro	-3697
▁zvakafanana	-3698
mha	-3699
pindira	-3700
▁akatora	-3701
▁kutevera	-3702
▁nemukadzi	-3703
▁vanosvika	-3704
jini	-3705
▁Day	-3706
▁mbu	-3707
eorge	-3708
▁kudzo	-3709
▁bhonasi	-3710
▁available	-3711
▁yakanakisisa	-3712
bhin	-3713
dium	-3714
jeke	-3715
rani	-3716
▁nai	-3717
▁bhuku	-3718
▁Ad	-3719
▁ese	-3720
dyiwa	-3721
bwinya	-3722
▁kwenyaya	-3723
▁remitemo	-3724
ber	-3725
▁tave	-3726
▁kudaro	-3727
▁vakato	-3728
▁kumatare	-3729
▁mushandi	-3730
cent	-3731
▁Ivo	-3732
▁VaTa	-3733
▁rese	-3734
kwanisi	-3735
▁raJehovha	-3736
tengeserana	-3737
tungamirirwa	-3738
ise	-3739
ith	-3740
svo	-3741
▁it	-3742
hiko	-3743
puti	-3744
seka	-3745
mbuka	-3746
▁maza	-3747
▁haanga	-3748
▁usinga	-3749
▁wedare	-3750
▁magetsi	-3751
rasikirwa	-3752
▁kunogona	-3753
▁Development	-3754
▁car	-3755
▁rava	-3756
▁Panguva	-3757
manikidzwa	-3758
IN	-3759
dini	-3760
keri	-3761
reve	-3762
▁ani	-3763
▁pre	-3764
▁yehu	-3765
▁kushu	-3766
▁vakabva	-3767
▁zvatino	-3768
.,	-3769
etro	-3770
ights	-3771
mhepo	-3772
▁Zvinhu	-3773
▁pavano	-3774
▁raMwari	-3775
▁kunzwisisa	-3776
Go	-3777
goro	-3778
▁acho	-3779
▁asiri	-3780
fukidza	-3781
piritsi	-3782
▁Munyori	-3783
▁adarika	-3784
▁kutadza	-3785
stra	-3786
▁this	-3787
▁vaite	-3788
▁naamai	-3789
gon	-3790
ries	-3791
▁Mune	-3792
▁kupera	-3793
▁paJehovha	-3794
▁anofanirwa	-3795
▁muti	-3796
▁yaVa	-3797
kirini	-3798
mazuva	-3799
▁Zvose	-3800
▁sechi	-3801
▁nezven	-3802
▁kubatsirwa	-3803
▁zvematongerwo	-3804
pai	-3805
▁077	-3806
▁Pano	-3807
▁matu	-3808
pfambi	-3809
▁inzwi	-3810
▁kwehu	-3811
▁vakava	-3812
▁gadziriro	-3813
▁hwakanaka	-3814
nje	-3815
▁She	-3816
▁VaK	-3817
Nyaya	-3818
▁mauto	-3819
▁reMDC	-3820
▁kumashure	-3821
▁zvinotevera	-3822
Zv	-3823
▁ge	-3824
yamu	-3825
▁com	-3826
homwe	-3827
ongwe	-3828
▁nhau	-3829
▁vazo	-3830
▁inotevera	-3831
▁Eng	-3832
▁pla	-3833
rongo	-3834
giramu	-3835
▁utano	-3836
▁positi	-3837
pawo	-3838
virus	-3839
ritain	-3840
▁nechin	-3841
▁mupenyu	-3842
▁yevanhu	-3843
▁wekuroora	-3844
fungidzirwa	-3845
low	-3846
ternet	-3847
▁Mweya	-3848
▁ruvara	-3849
▁Chamisa	-3850
▁kutenda	-3851
runyararo	-3852
▁kuchinja	-3853
▁chakanaka	-3854
▁yaJehovha	-3855
▁nechokwadi	-3856
▁Zvirokwazvo	-3857
▁mwanasikana	-3858
vane	-3859
▁kanzuru	-3860
▁ikozvino	-3861
▁kuwanikwa	-3862
▁ekuberekwa	-3863
▁neshamwari	-3864
▁zvechokwadi	-3865
era	-3866
hamba	-3867
▁Hosp	-3868
▁zvangu	-3869
▁waMwari	-3870
▁radarika	-3871
▁inoratidza	-3872
▁kubudirira	-3873
isv	-3874
▁29	-3875
▁et	-3876
zviona	-3877
▁nehama	-3878
verengwa	-3879
▁kutumira	-3880
40	-3881
▁Goo	-3882
Revhi	-3883
gutsi	-3884
▁kumi	-3885
▁weMDC	-3886
gumisiro	-3887
▁zvinoti	-3888
▁vakatanga	-3889
▁kuenderera	-3890
078	-3891
The	-3892
spe	-3893
work	-3894
rapwa	-3895
reiko	-3896
tendi	-3897
▁kwose	-3898
▁table	-3899
▁pabasa	-3900
▁zvauno	-3901
Botswana	-3902
cco	-3903
ments	-3904
tambu	-3905
makore	-3906
▁nedambudziko	-3907
cti	-3908
iko	-3909
itawo	-3910
▁wepa	-3911
▁Travel	-3912
▁marara	-3913
▁vagere	-3914
vhidhiyo	-3915
▁chimiro	-3916
▁currently	-3917
Le	-3918
phe	-3919
pho	-3920
row	-3921
fere	-3922
▁hwako	-3923
▁zvipfu	-3924
▁kwakaitwa	-3925
TU	-3926
ley	-3927
rimwa	-3928
▁Zuva	-3929
▁maawa	-3930
▁kupisa	-3931
isvonaka	-3932
▁weZimbabwe	-3933
shua	-3934
denda	-3935
dziso	-3936
Russia	-3937
▁muromo	-3938
▁mumaoko	-3939
▁wehondo	-3940
▁wemapurisa	-3941
▁qu	-3942
teri	-3943
▁Musi	-3944
▁zvinga	-3945
tsigirwa	-3946
Da	-3947
let	-3948
Pari	-3949
▁Air	-3950
▁womu	-3951
tsvuku	-3952
▁vezvi	-3953
▁hutano	-3954
▁sekuti	-3955
vashandi	-3956
▁nemazvo	-3957
tambudzika	-3958
moc	-3959
▁17	-3960
gadza	-3961
renje	-3962
▁inon	-3963
kurapa	-3964
▁vaende	-3965
▁nezvino	-3966
ronavirus	-3967
▁wakanaka	-3968
▁murairidzi	-3969
tha	-3970
kire	-3971
yste	-3972
zova	-3973
gweta	-3974
▁pana	-3975
eneral	-3976
bvazuva	-3977
mic	-3978
vako	-3979
▁bhe	-3980
▁Zanu	-3981
▁vago	-3982
bvumira	-3983
▁kutonga	-3984
▁vakandi	-3985
▁zvekudya	-3986
chu	-3987
▁mh	-3988
elson	-3989
zombe	-3990
▁Paku	-3991
▁yaive	-3992
ziviswa	-3993
▁zvaano	-3994
▁izvozvi	-3995
mhembe	-3996
▁ndave	-3997
▁vaida	-3998
▁kushaya	-3999
▁venyika	-4000
▁kunyatso	-4001
▁2,	-4002
book	-4003
fuma	-4004
▁iine	-4005
▁mavo	-4006
torera	-4007
▁ngati	-4008
▁dzisina	-4009
▁nezvinhu	-4010
ff	-4011
▁Ke	-4012
chando	-4013
▁nguvo	-4014
bhizimusi	-4015
▁nemhosva	-4016
▁yakachena	-4017
▁veKwayedza	-4018
▁waIsiraeri	-4019
▁zvinofanira	-4020
▁Paka	-4021
kereke	-4022
singan	-4023
tendero	-4024
▁mubazi	-4025
by	-4026
▁chiratidzo	-4027
▁nemutungamiri	-4028
gano	-4029
ungi	-4030
angua	-4031
yadzi	-4032
mhanzi	-4033
alition	-4034
▁Makadii	-4035
▁Kazhinji	-4036
Che	-4037
angi	-4038
pika	-4039
▁VaF	-4040
▁kuA	-4041
▁waA	-4042
dzani	-4043
▁ezvi	-4044
kiseni	-4045
kuvara	-4046
tangira	-4047
kanyorwa	-4048
▁mumigwagwa	-4049
▁zvinoshamisa	-4050
koma	-4051
▁maku	-4052
▁kukunda	-4053
▁kutorwa	-4054
▁ndokuti	-4055
Gu	-4056
PSL	-4057
ger	-4058
hamo	-4059
▁tra	-4060
▁minda	-4061
▁pezvi	-4062
sirivha	-4063
dzimhosva	-4064
▁positive	-4065
▁neKwayedza	-4066
zvematongerwo	-4067
mg	-4068
▁duku	-4069
▁miti	-4070
▁vasi	-4071
wanisa	-4072
▁mhiri	-4073
▁hwangu	-4074
▁pavanhu	-4075
bol	-4076
hema	-4077
logy	-4078
pora	-4079
▁Kwa	-4080
▁afa	-4081
▁Tine	-4082
▁Ncube	-4083
batsiri	-4084
▁kunetsa	-4085
manikidza	-4086
▁Gurukota	-4087
▁mutauriri	-4088
15	-4089
▁It	-4090
▁Cde	-4091
▁don	-4092
▁ive	-4093
batya	-4094
godhi	-4095
onamata	-4096
▁Health	-4097
▁mufaro	-4098
▁vakapa	-4099
▁Mukadzi	-4100
▁ehurumende	-4101
▁vehurumende	-4102
▁reA	-4103
▁weZ	-4104
vhoti	-4105
▁Wiki	-4106
▁rumwe	-4107
▁Ndizvo	-4108
▁yavano	-4109
onakidza	-4110
▁vakomana	-4111
2,	-4112
RA	-4113
▁Ari	-4114
mbera	-4115
▁Dare	-4116
▁inova	-4117
gomarara	-4118
▁munzira	-4119
▁vabatwa	-4120
▁negative	-4121
set	-4122
wori	-4123
▁tai	-4124
anica	-4125
▁chou	-4126
▁peji	-4127
▁isati	-4128
puranga	-4129
▁mudiki	-4130
▁veZimbabwe	-4131
Bhe	-4132
sident	-4133
▁hwema	-4134
▁unyanzvi	-4135
CA	-4136
▁27	-4137
giri	-4138
▁Musa	-4139
▁chen	-4140
▁Party	-4141
▁kurwa	-4142
▁nacho	-4143
▁nedare	-4144
▁panzira	-4145
▁vakasununguka	-4146
Ga	-4147
Bet	-4148
lea	-4149
yani	-4150
mutsa	-4151
shata	-4152
sviko	-4153
▁2014	-4154
pfenyu	-4155
▁marudzi	-4156
▁dzinenge	-4157
▁vakaudza	-4158
▁Coalition	-4159
▁etc	-4160
▁men	-4161
▁iwayo	-4162
▁tsitsi	-4163
chenjera	-4164
▁kuhwina	-4165
▁zvakaoma	-4166
EM	-4167
Si	-4168
nge	-4169
yepo	-4170
bhusa	-4171
▁mata	-4172
▁akato	-4173
▁anokwanisa	-4174
▁kugadziriswa	-4175
",	-4176
▁ny	-4177
▁Car	-4178
▁aro	-4179
▁neZ	-4180
dhura	-4181
kuita	-4182
▁rave	-4183
▁Zvita	-4184
▁nadzo	-4185
Ukraine	-4186
▁vakaona	-4187
▁mupirisiti	-4188
▁:	-4189
▁Pan	-4190
kanzi	-4191
cherwa	-4192
kunguru	-4193
▁chibage	-4194
vechidiki	-4195
▁Zvichaka	-4196
▁akafanana	-4197
▁akazvimirira	-4198
dhoma	-4199
ganda	-4200
▁yekun	-4201
▁mugari	-4202
ord	-4203
tate	-4204
ushe	-4205
mbana	-4206
mumwe	-4207
▁muto	-4208
▁your	-4209
kudzwa	-4210
▁kwaMu	-4211
gungano	-4212
▁kudiwa	-4213
▁nhumbi	-4214
py	-4215
▁kup	-4216
ringi	-4217
▁Paul	-4218
▁will	-4219
anhasi	-4220
▁kunwa	-4221
kawanda	-4222
▁kurwisa	-4223
1,	-4224
dani	-4225
mupa	-4226
onald	-4227
▁hangu	-4228
zvipira	-4229
▁maonero	-4230
pemberera	-4231
ew	-4232
endi	-4233
▁MDC	-4234
▁Anoda	-4235
▁imbwa	-4236
▁mbatya	-4237
▁mudziyo	-4238
▁renyika	-4239
▁ndokubva	-4240
▁pamusika	-4241
ssa	-4242
▁azo	-4243
▁Moni	-4244
redzwa	-4245
rivate	-4246
tambura	-4247
▁mumunda	-4248
▁zvizere	-4249
▁kukwikwidza	-4250
App	-4251
▁iva	-4252
hombe	-4253
shura	-4254
▁Chino	-4255
chenesa	-4256
▁Svondo	-4257
▁mapato	-4258
indasitiri	-4259
▁hanzvadzi	-4260
▁kuzivikanwa	-4261
tine	-4262
▁Kan	-4263
▁vaA	-4264
▁Bazi	-4265
▁Ngaa	-4266
▁dzen	-4267
▁vaya	-4268
ferefe	-4269
romoni	-4270
mbiyuta	-4271
pararira	-4272
▁zvichidzika	-4273
▁Ni	-4274
mato	-4275
semb	-4276
tiza	-4277
▁Ichi	-4278
▁from	-4279
shikana	-4280
shandiro	-4281
▁nokudaro	-4282
▁kurasikirwa	-4283
posi	-4284
dzire	-4285
tyora	-4286
▁zvitatu	-4287
tengesera	-4288
cto	-4289
ipi	-4290
Taka	-4291
ship	-4292
▁2017	-4293
vhurwa	-4294
▁hachi	-4295
▁nzara	-4296
bvunzwa	-4297
▁Harare	-4298
▁akauya	-4299
▁pakarepo	-4300
▁vanoziva	-4301
zambiringa	-4302
▁vachienda	-4303
▁yakatanga	-4304
fodya	-4305
tsira	-4306
▁kwai	-4307
▁vara	-4308
pesana	-4309
public	-4310
▁anopa	-4311
budiswa	-4312
▁Change	-4313
▁Zvanzi	-4314
▁hatina	-4315
▁bumbiro	-4316
▁yakaipa	-4317
tungamirwa	-4318
▁zvinoratidza	-4319
Isu	-4320
bai	-4321
cre	-4322
more	-4323
▁Tea	-4324
ports	-4325
svike	-4326
▁poku	-4327
shaiwa	-4328
▁idzva	-4329
▁akaona	-4330
▁unenge	-4331
▁vadiki	-4332
my	-4333
Mwe	-4334
int	-4335
abhu	-4336
sino	-4337
ington	-4338
▁kusiya	-4339
▁zvichienderana	-4340
12	-4341
US	-4342
▁Fi	-4343
soja	-4344
rimary	-4345
▁waiva	-4346
rongeka	-4347
▁Rights	-4348
Ishe	-4349
Tiri	-4350
irst	-4351
late	-4352
tsara	-4353
▁Rudo	-4354
▁Chimwe	-4355
▁ichiri	-4356
pfenyuro	-4357
▁kurwara	-4358
▁kuvhota	-4359
hanzvadzi	-4360
sm	-4361
bon	-4362
Baba	-4363
piki	-4364
yepa	-4365
▁Win	-4366
dzama	-4367
rurwa	-4368
▁Face	-4369
Dhavhidhi	-4370
gutsikana	-4371
▁kwakanga	-4372
zvinafundo	-4373
▁sachigaro	-4374
▁z	-4375
rero	-4376
▁Nzvimbo	-4377
▁hazvisi	-4378
▁nenzara	-4379
▁vasikana	-4380
muenzaniso	-4381
▁ndinodawo	-4382
▁inowanikwa	-4383
Te	-4384
am	-4385
td	-4386
New	-4387
kia	-4388
red	-4389
sai	-4390
tar	-4391
▁Free	-4392
▁vakauya	-4393
lla	-4394
▁45	-4395
▁60	-4396
▁hy	-4397
sike	-4398
tova	-4399
bharo	-4400
chira	-4401
▁Sauro	-4402
▁mitatu	-4403
▁njodzi	-4404
▁sezvaka	-4405
▁kutsigira	-4406
▁akapindura	-4407
".	-4408
vh	-4409
▁36	-4410
▁Mbudzi	-4411
▁zvinodhaka	-4412
dawo	-4413
▁VaO	-4414
mikari	-4415
misheni	-4416
tadzisa	-4417
▁inobva	-4418
▁maziso	-4419
▁vanoona	-4420
shamisika	-4421
▁chizvarwa	-4422
Wa	-4423
orana	-4424
▁rwen	-4425
▁uine	-4426
kwidza	-4427
▁usati	-4428
▁mapepa	-4429
dasitiri	-4430
▁vaJudha	-4431
changobva	-4432
vandudzwa	-4433
▁chipiriso	-4434
ON	-4435
bude	-4436
▁Gwa	-4437
▁Nde	-4438
▁Shu	-4439
▁mba	-4440
chero	-4441
kerwa	-4442
bhedha	-4443
▁akabata	-4444
▁Hospital	-4445
▁muzukuru	-4446
pedze	-4447
utano	-4448
▁inga	-4449
▁pako	-4450
▁pfuma	-4451
dzosera	-4452
tumirwa	-4453
▁Ndiani	-4454
▁rwangu	-4455
sanganisa	-4456
▁mumatunhu	-4457
▁zvakakodzera	-4458
▁Ze	-4459
▁‘‘	-4460
hats	-4461
▁Dai	-4462
▁pai	-4463
▁per	-4464
Mnangagwa	-4465
▁vakasvika	-4466
▁vanoshandisa	-4467
-5	-4468
gin	-4469
kha	-4470
ork	-4471
SADC	-4472
bhen	-4473
furo	-4474
zeya	-4475
▁chezvi	-4476
▁inyaya	-4477
▁yakazo	-4478
▁yezvinhu	-4479
▁kwemwedzi	-4480
▁runyararo	-4481
25	-4482
Mbare	-4483
putsa	-4484
▁Anti	-4485
▁akango	-4486
▁kuuraya	-4487
Mozambique	-4488
▁muhurumende	-4489
sei	-4490
yai	-4491
arao	-4492
▁uti	-4493
ronda	-4494
tseka	-4495
kamuri	-4496
▁Kunze	-4497
▁nemun	-4498
▁changu	-4499
▁kusina	-4500
▁vashoma	-4501
▁dzakadai	-4502
▁cheZimbabwe	-4503
▁vatungamiri	-4504
▁yakakwirira	-4505
lly	-4506
tho	-4507
hana	-4508
▁Sei	-4509
▁VaA	-4510
huwira	-4511
▁Kurume	-4512
▁vagare	-4513
dzimambo	-4514
▁mumiriri	-4515
▁Zvakadaro	-4516
▁yakakwana	-4517
▁nemasangano	-4518
ping	-4519
▁sepa	-4520
batira	-4521
▁risina	-4522
▁muSouth	-4523
chengetedze	-4524
▁nechikwata	-4525
▁kusimudzira	-4526
isi	-4527
zer	-4528
kava	-4529
sowe	-4530
▁hake	-4531
tengesi	-4532
▁kwevana	-4533
▁mumvura	-4534
▁emadhora	-4535
▁kuvandudza	-4536
pari	-4537
chemo	-4538
▁Best	-4539
▁John	-4540
kasika	-4541
▁nhema	-4542
zviziva	-4543
▁nemweya	-4544
▁kufanana	-4545
▁mumuviri	-4546
▁kudzidzisa	-4547
Ro	-4548
Zim	-4549
dimi	-4550
hamu	-4551
▁199	-4552
▁Chu	-4553
bolic	-4554
▁kwoku	-4555
kin	-4556
mwaka	-4557
anguage	-4558
bumbiro	-4559
hatsApp	-4560
▁achava	-4561
▁rugare	-4562
▁anoziva	-4563
▁kutende	-4564
▁mubhuku	-4565
▁okuberekwa	-4566
▁nematambudziko	-4567
▁Ag	-4568
▁Pi	-4569
Firi	-4570
fomu	-4571
dhani	-4572
ridhe	-4573
sitia	-4574
vhundu	-4575
▁kwave	-4576
verenge	-4577
▁tsvene	-4578
▁reparamende	-4579
3,	-4580
▁ar	-4581
buru	-4582
muti	-4583
tapu	-4584
▁Vai	-4585
yarara	-4586
▁Laser	-4587
▁mangu	-4588
▁Zvichi	-4589
▁zvacho	-4590
▁VaChamisa	-4591
▁kuratidzira	-4592
twork	-4593
▁neye	-4594
▁rwuno	-4595
minitsi	-4596
kurukota	-4597
▁Stadium	-4598
▁muAfrica	-4599
▁Madzibaba	-4600
▁vanosanganisira	-4601
FA	-4602
diro	-4603
kona	-4604
lawi	-4605
▁VaZ	-4606
donha	-4607
inari	-4608
shonge	-4609
▁Mazuva	-4610
▁Nhengo	-4611
▁pachin	-4612
▁uchava	-4613
▁nekuita	-4614
▁Chirongwa	-4615
▁vakaramba	-4616
ban	-4617
hole	-4618
▁umu	-4619
yatwa	-4620
▁Park	-4621
▁vanhukadzi	-4622
lex	-4623
▁(6	-4624
▁uhu	-4625
komiti	-4626
▁paano	-4627
bhironi	-4628
▁muridzi	-4629
▁ndinoti	-4630
fambidzana	-4631
▁ekuAmerica	-4632
▁akasvika	-4633
▁ndeyekuti	-4634
▁vachishandisa	-4635
);	-4636
wen	-4637
vaki	-4638
▁tso	-4639
renga	-4640
▁vayo	-4641
▁zven	-4642
munity	-4643
shizha	-4644
▁chiso	-4645
▁dzeva	-4646
▁wanda	-4647
▁States	-4648
▁chaiwo	-4649
▁nemashanu	-4650
▁vadzidzisi	-4651
▁ago	-4652
▁2016	-4653
dikanwa	-4654
▁France	-4655
▁Tattoo	-4656
▁ndezve	-4657
▁nekuva	-4658
▁zvaaka	-4659
▁kutsvaka	-4660
▁indasitiri	-4661
▁nezvimwewo	-4662
tsv	-4663
▁Hi	-4664
hane	-4665
hizha	-4666
▁kuro	-4667
miguru	-4668
▁rwako	-4669
temerwa	-4670
bhadhare	-4671
sanganiswa	-4672
▁Kunyangwe	-4673
▁zvichinzi	-4674
▁anosanganisira	-4675
are	-4676
xBet	-4677
▁Imi	-4678
zungu	-4679
▁hove	-4680
▁neMa	-4681
mbunyi	-4682
▁Mamwe	-4683
▁dzika	-4684
▁unoda	-4685
kwegura	-4686
yanyisa	-4687
▁kuvana	-4688
▁mukoma	-4689
▁ndakamu	-4690
La	-4691
mal	-4692
pha	-4693
kani	-4694
▁diki	-4695
▁huku	-4696
pondwa	-4697
▁dzava	-4698
▁gumbo	-4699
▁mhiko	-4700
▁mujeri	-4701
▁zvezvi	-4702
▁reMashonaland	-4703
4,	-4704
bikwa	-4705
▁Ticha	-4706
▁ndava	-4707
▁Assemb	-4708
▁shungu	-4709
▁kwemazuva	-4710
kero	-4711
▁Uyu	-4712
▁meso	-4713
▁vamu	-4714
kitari	-4715
▁Shoko	-4716
▁kupfu	-4717
kurukura	-4718
▁mitauro	-4719
tsvakurudzo	-4720
lti	-4721
usto	-4722
kondo	-4723
pindi	-4724
wenga	-4725
▁Hack	-4726
bodzwa	-4727
▁yakati	-4728
▁Institu	-4729
▁varanda	-4730
▁Sachigaro	-4731
▁kushanyira	-4732
jan	-4733
yuka	-4734
dheni	-4735
pihwe	-4736
▁rayo	-4737
▁wega	-4738
▁nebazi	-4739
yunivhesiti	-4740
▁kutungamira	-4741
dye	-4742
bele	-4743
▁kuN	-4744
geria	-4745
rudza	-4746
▁husiku	-4747
▁pagore	-4748
▁Germany	-4749
▁shanduro	-4750
:3	-4751
▁You	-4752
llion	-4753
▁VaSi	-4754
▁nekusa	-4755
chenjeri	-4756
tosterone	-4757
▁kumirira	-4758
▁nevatori	-4759
▁yemagetsi	-4760
▁zvakananga	-4761
pfi	-4762
mene	-4763
▁yan	-4764
hanga	-4765
▁100%	-4766
▁yomu	-4767
shanya	-4768
▁munda	-4769
kiriniki	-4770
▁achinge	-4771
▁zvakarurama	-4772
tro	-4773
▁Tu	-4774
funge	-4775
▁Rino	-4776
▁huchi	-4777
▁nziyo	-4778
▁inoona	-4779
▁mavara	-4780
▁shasha	-4781
▁yaMwari	-4782
▁chiitiko	-4783
▁muupenyu	-4784
▁Muzvinafundo	-4785
ken	-4786
ype	-4787
▁5.	-4788
wiro	-4789
▁Bar	-4790
▁Ltd	-4791
rence	-4792
▁VaRo	-4793
▁payo	-4794
▁vepa	-4795
▁dunhu	-4796
Dynamos	-4797
▁tinogona	-4798
▁vachitaura	-4799
▁vanoshanda	-4800
▁nharembozha	-4801
▁vachishanda	-4802
-4	-4803
.&	-4804
Ndi	-4805
all	-4806
▁fi	-4807
ness	-4808
domwa	-4809
pamhi	-4810
rukwa	-4811
itizen	-4812
kwezva	-4813
▁testo	-4814
shumira	-4815
▁tarirai	-4816
Chitungwiza	-4817
▁nezvenyaya	-4818
mbeu	-4819
▁Dza	-4820
bhati	-4821
khala	-4822
table	-4823
urawa	-4824
▁Kuno	-4825
▁voga	-4826
▁kugona	-4827
▁Assembly	-4828
▁kutsvagawo	-4829
lf	-4830
tumi	-4831
andin	-4832
ctora	-4833
▁With	-4834
▁rokuti	-4835
▁unonzi	-4836
simbiswa	-4837
▁nezvema	-4838
▁zvakaitwa	-4839
▁kumusangano	-4840
▁nechinangwa	-4841
Ko	-4842
Asi	-4843
▁le	-4844
piro	-4845
▁500	-4846
▁Gun	-4847
▁isa	-4848
▁paa	-4849
dudzi	-4850
mbuzi	-4851
▁Zita	-4852
dhakwa	-4853
▁Paris	-4854
▁Rimwe	-4855
aritari	-4856
▁hukama	-4857
Firisitia	-4858
tevedzana	-4859
▁VaMugabe	-4860
▁ramangwana	-4861
bile	-4862
kwen	-4863
rapa	-4864
sero	-4865
▁Tru	-4866
▁Van	-4867
▁can	-4868
▁reP	-4869
vabvu	-4870
▁rama	-4871
kangwa	-4872
▁Nhare	-4873
▁vanon	-4874
urayiwa	-4875
▁Nhamba	-4876
▁muimba	-4877
vhenekwa	-4878
vhiringi	-4879
▁Dynamos	-4880
▁kupfeka	-4881
▁tsvimbo	-4882
▁ndakanga	-4883
▁Jerusaremu	-4884
▁testosterone	-4885
18	-4886
mina	-4887
sita	-4888
▁ina	-4889
▁naE	-4890
banda	-4891
ystem	-4892
▁Jose	-4893
▁anomu	-4894
dzorera	-4895
▁ichiti	-4896
IS	-4897
PC	-4898
ef	-4899
lub	-4900
mine	-4901
hwira	-4902
zadza	-4903
▁VaMo	-4904
tsvina	-4905
mberero	-4906
swedera	-4907
▁nomoto	-4908
fanobata	-4909
▁nevarume	-4910
▁nezviuru	-4911
▁Institute	-4912
▁kuongororwa	-4913
ded	-4914
ando	-4915
ccer	-4916
iden	-4917
Mwana	-4918
bvise	-4919
shaika	-4920
▁Regai	-4921
▁chive	-4922
fambira	-4923
shamiswa	-4924
fungidzira	-4925
▁nemashoko	-4926
ner	-4927
tle	-4928
won	-4929
▁32	-4930
Amai	-4931
foni	-4932
▁Org	-4933
fudzi	-4934
venga	-4935
▁denga	-4936
▁yaaka	-4937
▁tinzwe	-4938
▁VaTrump	-4939
anicaland	-4940
▁achienda	-4941
▁chakaipa	-4942
▁Musangano	-4943
▁kwezvinhu	-4944
▁neZimbabwe	-4945
▁zvikwereti	-4946
ink	-4947
pati	-4948
tics	-4949
ununa	-4950
▁kano	-4951
▁pahu	-4952
chinji	-4953
▁akagara	-4954
▁mumakore	-4955
▁muchikwata	-4956
▁vakaremara	-4957
▁zvehupfumi	-4958
',	-4959
cts	-4960
eld	-4961
nda	-4962
ponda	-4963
▁wama	-4964
kurira	-4965
▁pavana	-4966
bvumirana	-4967
▁chikwereti	-4968
▁inobatsira	-4969
▁muenzaniso	-4970
▁wemutungamiri	-4971
xy	-4972
dine	-4973
jeti	-4974
tara	-4975
▁min	-4976
▁neha	-4977
▁wave	-4978
▁zera	-4979
▁wenhau	-4980
▁richiti	-4981
dziviriro	-4982
▁kuchechi	-4983
▁nechimwe	-4984
▁nevakuru	-4985
▁vakabatwa	-4986
▁Mutevedzeri	-4987
▁yakagadzirwa	-4988
▁Za	-4989
here	-4990
▁Bea	-4991
▁ato	-4992
panga	-4993
rehwa	-4994
tsime	-4995
yerera	-4996
▁Human	-4997
▁Kwete	-4998
▁regai	-4999
▁vaone	-5000
simukira	-5001
▁wokutanga	-5002
▁nevabereki	-5003
▁vanasikana	-5004
divi	-5005
rufu	-5006
shwe	-5007
▁awa	-5008
▁Mura	-5009
▁chako	-5010
▁hauna	-5011
▁kwaVa	-5012
▁raiva	-5013
▁kutiza	-5014
▁kudzora	-5015
▁Zvinonzi	-5016
▁neMuvhuro	-5017
▁zviratidzo	-5018
70	-5019
FC	-5020
cro	-5021
lls	-5022
▁aku	-5023
▁Mana	-5024
zation	-5025
▁unoti	-5026
tevedza	-5027
▁mutongi	-5028
▁kumhanya	-5029
RE	-5030
UN	-5031
juzu	-5032
dhamu	-5033
ngano	-5034
▁Char	-5035
▁naMu	-5036
bvumbi	-5037
dzingi	-5038
▁design	-5039
▁misoro	-5040
▁dzekuti	-5041
▁madhora	-5042
remekedza	-5043
kanganiswa	-5044
▁yeAmerica	-5045
mhirizhonga	-5046
▁zvinobatsira	-5047
073	-5048
unt	-5049
swera	-5050
yambi	-5051
▁Mini	-5052
▁jira	-5053
fungiro	-5054
▁matunhu	-5055
▁yakadai	-5056
▁yakaoma	-5057
▁mapiritsi	-5058
▁yekudzivirira	-5059
Ho	-5060
We	-5061
kund	-5062
lish	-5063
stle	-5064
ality	-5065
▁VaKa	-5066
▁shiri	-5067
kanakira	-5068
▁maringe	-5069
▁chitunha	-5070
▁dzidziso	-5071
▁kubviswa	-5072
▁anoratidza	-5073
▁dzezvehupfumi	-5074
out	-5075
▁$1	-5076
▁App	-5077
▁eva	-5078
Vanhu	-5079
▁rwoku	-5080
▁semunhu	-5081
▁womunhu	-5082
▁sepaanoti	-5083
,&	-5084
▁All	-5085
batei	-5086
rogen	-5087
zongo	-5088
▁Basa	-5089
▁denda	-5090
▁isiri	-5091
angamire	-5092
▁weSvondo	-5093
▁vakataura	-5094
ida	-5095
koko	-5096
koni	-5097
▁reM	-5098
girazi	-5099
kwambo	-5100
▁hanya	-5101
▁nomun	-5102
▁vaiti	-5103
▁chiuru	-5104
▁dzebato	-5105
▁zvigaro	-5106
▁mutungamiriri	-5107
No	-5108
bia	-5109
mvu	-5110
zed	-5111
▁7.	-5112
▁ki	-5113
ouse	-5114
onate	-5115
▁masa	-5116
angeri	-5117
batiso	-5118
cheche	-5119
▁Sezvo	-5120
▁African	-5121
▁Handina	-5122
▁achindi	-5123
▁mubairo	-5124
▁zvitsva	-5125
▁zvokuti	-5126
▁mumwedzi	-5127
▁weAmerica	-5128
munharaunda	-5129
▁du	-5130
bhan	-5131
shwa	-5132
▁yeS	-5133
dziri	-5134
▁aizo	-5135
dzerwa	-5136
chikoro	-5137
▁havacha	-5138
bhururuka	-5139
▁chibharo	-5140
▁yapfuura	-5141
ary	-5142
nes	-5143
▁Ge	-5144
▁iwo	-5145
▁neB	-5146
Murume	-5147
▁Italy	-5148
▁vazvi	-5149
▁maturo	-5150
bhurahamu	-5151
▁Mapurisa	-5152
▁yakasimba	-5153
rusununguko	-5154
▁inozivikanwa	-5155
IT	-5156
pfa	-5157
▁..	-5158
gezi	-5159
hera	-5160
▁muA	-5161
Mweya	-5162
ricul	-5163
▁hombe	-5164
▁nebasa	-5165
▁rwechi	-5166
enzanisa	-5167
sunungura	-5168
▁kuderedza	-5169
▁zvepabonde	-5170
gwi	-5171
tupa	-5172
riswa	-5173
▁zano	-5174
witter	-5175
dzokere	-5176
itizens	-5177
▁mukaka	-5178
▁General	-5179
▁wechipiri	-5180
▁hako	-5181
▁yega	-5182
ctoral	-5183
▁Super	-5184
handara	-5185
vanzika	-5186
▁chaiko	-5187
▁uyezve	-5188
▁weChina	-5189
▁yechikoro	-5190
90	-5191
pti	-5192
▁31	-5193
kutu	-5194
▁Group	-5195
▁rweku	-5196
▁zvipo	-5197
rudziro	-5198
renyatwa	-5199
▁Jakobho	-5200
▁inoshanda	-5201
▁muhupenyu	-5202
▁nevakadzi	-5203
ws	-5204
▁neka	-5205
fanire	-5206
gororo	-5207
tsamba	-5208
▁chido	-5209
▁ngozi	-5210
▁yekwa	-5211
▁nomusi	-5212
▁netsika	-5213
▁rinogona	-5214
▁akabereka	-5215
▁kumutambo	-5216
▁edzimhosva	-5217
▁muparamende	-5218
at	-5219
dra	-5220
ndi	-5221
▁38	-5222
▁Wil	-5223
mpion	-5224
ratic	-5225
vhima	-5226
▁havo	-5227
bayira	-5228
chandi	-5229
dhinda	-5230
pomera	-5231
▁uwane	-5232
▁zvemba	-5233
budirire	-5234
tsinhirwa	-5235
GH	-5236
ito	-5237
tamb	-5238
udze	-5239
zari	-5240
▁Sup	-5241
▁yeA	-5242
pamwe	-5243
temwa	-5244
yemba	-5245
Mugabe	-5246
muviri	-5247
▁nhamo	-5248
▁sadza	-5249
▁yanga	-5250
▁muripo	-5251
▁wapera	-5252
shandisi	-5253
sk	-5254
uko	-5255
▁at	-5256
fema	-5257
reta	-5258
▁kuE	-5259
▁Andro	-5260
▁North	-5261
▁bhizi	-5262
landers	-5263
▁injini	-5264
▁parame	-5265
▁kwegore	-5266
▁handinga	-5267
▁vachinzi	-5268
▁zvinoitwa	-5269
▁rinomirira	-5270
uti	-5271
Isra	-5272
ning	-5273
rist	-5274
▁naM	-5275
▁reZ	-5276
▁mapo	-5277
▁aenda	-5278
▁Mabasa	-5279
▁kuiswa	-5280
▁yainge	-5281
▁yavaka	-5282
▁wechikoro	-5283
▁munofanira	-5284
ood	-5285
▁Cor	-5286
Rungu	-5287
rmone	-5288
tedza	-5289
▁Tech	-5290
▁Black	-5291
▁dzave	-5292
▁mwero	-5293
▁trans	-5294
tariswa	-5295
▁nyasha	-5296
▁kudanana	-5297
▁kunyoresa	-5298
▁kugadzirira	-5299
▁inosanganisira	-5300
▁zi	-5301
teke	-5302
yeve	-5303
▁neN	-5304
mwoyo	-5305
siiwa	-5306
▁waya	-5307
▁Varume	-5308
▁padandemutande	-5309
bal	-5310
ide	-5311
rro	-5312
sts	-5313
tsve	-5314
▁ipi	-5315
yanyo	-5316
▁Ucha	-5317
sekuru	-5318
▁dzama	-5319
hetembo	-5320
sanduka	-5321
▁chaiye	-5322
▁pazasi	-5323
peji	-5324
resi	-5325
▁Khu	-5326
▁puro	-5327
▁zvama	-5328
▁mutengi	-5329
konzeresa	-5330
▁parutivi	-5331
▁vanoenda	-5332
▁wenhabvu	-5333
▁mupfungwa	-5334
-6	-5335
cess	-5336
dust	-5337
▁muP	-5338
gutsa	-5339
▁vato	-5340
kondari	-5341
kundano	-5342
▁Sports	-5343
▁vaenda	-5344
▁vanozvi	-5345
▁fekitari	-5346
▁kutakura	-5347
▁President	-5348
▁dzakanaka	-5349
▁vakamirira	-5350
bisa	-5351
fona	-5352
rity	-5353
▁neE	-5354
shoni	-5355
▁VaJa	-5356
▁mugo	-5357
▁pata	-5358
unenge	-5359
▁Pauro	-5360
▁aripo	-5361
▁hembe	-5362
▁Google	-5363
▁Joshua	-5364
sungirwa	-5365
yengetera	-5366
▁ndichaku	-5367
▁Chikunguru	-5368
her	-5369
ook	-5370
Tine	-5371
revi	-5372
pfupa	-5373
▁azvi	-5374
▁nana	-5375
yepera	-5376
▁bonde	-5377
▁nenda	-5378
▁tsoka	-5379
dzokoro	-5380
danidzira	-5381
▁unofanirwa	-5382
cm	-5383
cle	-5384
phi	-5385
rey	-5386
▁Wo	-5387
jaya	-5388
logi	-5389
reen	-5390
kombo	-5391
svibi	-5392
▁waVa	-5393
▁Simba	-5394
▁dzese	-5395
▁Soccer	-5396
▁anouya	-5397
mocratic	-5398
▁Primary	-5399
▁chingwa	-5400
▁Vadzidzi	-5401
▁rakapera	-5402
▁yeHarare	-5403
▁rezvemari	-5404
▁kuZimbabwe	-5405
sul	-5406
▁6.	-5407
sire	-5408
▁yeB	-5409
yuchi	-5410
▁romu	-5411
iridza	-5412
tomati	-5413
wanika	-5414
▁waini	-5415
fambiro	-5416
yeredzi	-5417
▁mumoyo	-5418
▁million	-5419
▁sungano	-5420
▁pechirongwa	-5421
▁redziviriro	-5422
ia	-5423
day	-5424
kohwa	-5425
sviba	-5426
▁napo	-5427
lation	-5428
parura	-5429
vanoti	-5430
▁bhiri	-5431
▁bhora	-5432
▁kuton	-5433
▁hamuna	-5434
▁rinenge	-5435
▁zviitiko	-5436
▁anopikisa	-5437
▁Zvakakosha	-5438
▁mumugwagwa	-5439
kuda	-5440
▁kuya	-5441
▁kuimba	-5442
▁varipo	-5443
▁akabuda	-5444
▁ichange	-5445
▁yakakura	-5446
▁mugadziri	-5447
▁zvichienzaniswa	-5448
11	-5449
hani	-5450
▁Pol	-5451
vanze	-5452
▁Para	-5453
▁kupu	-5454
rwendo	-5455
▁Ngati	-5456
▁vabva	-5457
▁vhiki	-5458
roorana	-5459
tezvara	-5460
▁achimu	-5461
▁nomoyo	-5462
▁vebato	-5463
▁yeCovid	-5464
▁dzinonzi	-5465
▁namakumi	-5466
▁anotevera	-5467
202	-5468
anya	-5469
lity	-5470
pany	-5471
pers	-5472
razi	-5473
▁muS	-5474
Zvino	-5475
pfuwo	-5476
▁2015	-5477
▁zvaa	-5478
daidzwa	-5479
▁pakuti	-5480
▁akawana	-5481
▁muruoko	-5482
▁misangano	-5483
gram	-5484
hoyi	-5485
ttee	-5486
▁neT	-5487
▁nea	-5488
Handi	-5489
tapwa	-5490
ungwe	-5491
▁aende	-5492
▁vambo	-5493
bhokisi	-5494
yengera	-5495
zadzisa	-5496
▁Tarira	-5497
▁nezvin	-5498
▁vanozo	-5499
▁kudunhu	-5500
▁Facebook	-5501
▁Unofanira	-5502
lot	-5503
▁Fu	-5504
kora	-5505
▁Dzo	-5506
▁Premi	-5507
▁mapoka	-5508
▁Vashandi	-5509
▁kumaruwa	-5510
▁Dambudziko	-5511
▁Vanakomana	-5512
▁Muchirongwa	-5513
Ri	-5514
pla	-5515
▁Gol	-5516
▁Tes	-5517
▁mha	-5518
pamba	-5519
pindu	-5520
ridge	-5521
▁Covid	-5522
▁njere	-5523
▁zvivi	-5524
▁haacha	-5525
▁ndinga	-5526
▁shangu	-5527
▁tariro	-5528
▁varege	-5529
mbiricha	-5530
▁Service	-5531
▁VaRobert	-5532
▁gomarara	-5533
▁vachange	-5534
hwu	-5535
sor	-5536
jaho	-5537
▁Uri	-5538
humbi	-5539
shoro	-5540
▁naJo	-5541
▁vama	-5542
▁Petro	-5543
▁anove	-5544
▁vazive	-5545
Masvingo	-5546
▁European	-5547
▁vakagara	-5548
▁zvinobva	-5549
▁muzvipatara	-5550
turi	-5551
▁ZEC	-5552
chani	-5553
hanho	-5554
mbowo	-5555
pereke	-5556
putika	-5557
sitiki	-5558
▁Chaka	-5559
▁zvive	-5560
▁kwacho	-5561
▁vatsva	-5562
▁zvanda	-5563
▁Android	-5564
▁tinoona	-5565
▁masvondo	-5566
▁zvibereko	-5567
▁yemutungamiri	-5568
16	-5569
ler	-5570
▁33	-5571
arai	-5572
mage	-5573
pain	-5574
tasa	-5575
tice	-5576
▁Apa	-5577
▁Spe	-5578
fambe	-5579
ridzi	-5580
ctions	-5581
tation	-5582
terera	-5583
▁kumeso	-5584
▁muZanu	-5585
▁zvanzi	-5586
▁Kukadzi	-5587
▁namambo	-5588
▁budiriro	-5589
▁kuBulawayo	-5590
▁pachiitiko	-5591
▁kugamuchira	-5592
▁nu	-5593
meke	-5594
mota	-5595
ruma	-5596
hwindo	-5597
kuvadza	-5598
▁Website	-5599
▁pakanga	-5600
▁yekunze	-5601
▁nenzvimbo	-5602
▁vakapinda	-5603
Ze	-5604
bet	-5605
arch	-5606
reki	-5607
rudo	-5608
zamu	-5609
▁Ana	-5610
vonga	-5611
▁chena	-5612
▁ukama	-5613
▁akaisa	-5614
▁vakawana	-5615
▁weChipiri	-5616
▁neveruzhinji	-5617
,"	-5618
ffe	-5619
oga	-5620
fone	-5621
ject	-5622
▁ambo	-5623
France	-5624
buruka	-5625
matira	-5626
▁kumwe	-5627
▁anongo	-5628
▁dzacho	-5629
▁upfumi	-5630
▁yeZanu	-5631
deration	-5632
endarama	-5633
mishonga	-5634
▁yandaka	-5635
▁jekiseni	-5636
▁wadarika	-5637
▁anopfuura	-5638
▁zvakabuda	-5639
▁yakafanana	-5640
:4	-5641
CCC	-5642
pfun	-5643
sima	-5644
suwa	-5645
▁Eri	-5646
▁kufu	-5647
▁hwose	-5648
▁yepasi	-5649
▁bhokisi	-5650
▁ndisina	-5651
▁vakashaya	-5652
▁tsvakurudzo	-5653
2)	-5654
7)	-5655
▁Ai	-5656
▁pombi	-5657
▁yange	-5658
wonzora	-5659
▁vanomu	-5660
▁Chikumi	-5661
▁VaDonald	-5662
sunungurwa	-5663
▁kuteerera	-5664
▁mashandiro	-5665
▁nekukasika	-5666
▁zvekushandisa	-5667
CO	-5668
Do	-5669
gy	-5670
▁34	-5671
lone	-5672
▁naB	-5673
firwa	-5674
▁2020	-5675
dzikwa	-5676
▁nzeve	-5677
▁rwavo	-5678
wedzere	-5679
shakabvu	-5680
tsvangwa	-5681
▁musango	-5682
▁Gumiguru	-5683
▁murayiro	-5684
▁vakatora	-5685
▁achitaura	-5686
▁kekutanga	-5687
▁kuzvikoro	-5688
▁kwakanaka	-5689
▁tinofanira	-5690
ue	-5691
svin	-5692
vhin	-5693
▁ara	-5694
purai	-5695
▁seva	-5696
▁yaro	-5697
kunzwa	-5698
▁chipi	-5699
rusarema	-5700
▁nemhaka	-5701
▁Isiraeri	-5702
▁akapinda	-5703
▁vhidhiyo	-5704
▁zvandaka	-5705
▁mumakwikwi	-5706
▁nemakambani	-5707
ube	-5708
▁90	-5709
Vana	-5710
▁kuZ	-5711
▁mati	-5712
▁mota	-5713
hurukuro	-5714
mhanyira	-5715
shevedza	-5716
▁nomunhu	-5717
gadzirise	-5718
8,	-5719
BC	-5720
put	-5721
mboo	-5722
reru	-5723
▁Swe	-5724
▁bwa	-5725
bhawa	-5726
▁Vanoda	-5727
▁anozvi	-5728
▁yavari	-5729
▁yokuti	-5730
bhusaiti	-5731
▁kuwanda	-5732
▁Soromoni	-5733
▁emunyika	-5734
▁kufarira	-5735
▁kuroorwa	-5736
▁mutsetse	-5737
▁ndichava	-5738
▁tembiricha	-5739
▁anozivikanwa	-5740
▁chibvumirano	-5741
▁kushushikana	-5742
▁hi	-5743
▁Flo	-5744
▁out	-5745
zvose	-5746
▁Kuita	-5747
▁Taura	-5748
virirwa	-5749
▁Varimi	-5750
▁kunonzi	-5751
▁manyepo	-5752
▁zvishanu	-5753
▁Electoral	-5754
yn	-5755
gal	-5756
key	-5757
sipo	-5758
▁uve	-5759
▁King	-5760
▁hope	-5761
▁roga	-5762
▁akara	-5763
fanirwe	-5764
mbarefu	-5765
▁nevema	-5766
▁vanondi	-5767
shandurwa	-5768
▁mumusangano	-5769
AT	-5770
RC	-5771
nu	-5772
tiro	-5773
yano	-5774
dyara	-5775
ranwa	-5776
▁Hati	-5777
pindwa	-5778
▁Hongu	-5779
▁ganda	-5780
▁nhatu	-5781
▁tambo	-5782
tumidza	-5783
▁Makore	-5784
▁kwanda	-5785
▁rutivi	-5786
▁kurohwa	-5787
▁nenyoka	-5788
▁nyangwe	-5789
▁neStudio	-5790
▁nekambani	-5791
▁wechidiki	-5792
▁kumbobvira	-5793
Pe	-5794
bel	-5795
wai	-5796
kaka	-5797
yane	-5798
▁Mbe	-5799
▁aVa	-5800
▁ega	-5801
▁mbi	-5802
▁one	-5803
▁yeG	-5804
arira	-5805
onana	-5806
panda	-5807
▁akai	-5808
manana	-5809
▁akano	-5810
▁hucha	-5811
▁kurapa	-5812
▁nekumu	-5813
▁pachako	-5814
▁Zvakadai	-5815
▁nemagariro	-5816
▁rehurumende	-5817
Pro	-5818
dom	-5819
ick	-5820
▁MU	-5821
chiri	-5822
tsipa	-5823
▁foni	-5824
▁Trans	-5825
▁Trump	-5826
▁hwedu	-5827
denenzi	-5828
▁akatuma	-5829
▁vanongo	-5830
kubatsira	-5831
puraimari	-5832
gamuchirwa	-5833
▁yakakosha	-5834
▁Anoenderera	-5835
rch	-5836
zou	-5837
gozi	-5838
seri	-5839
▁yaa	-5840
zondi	-5841
▁Vose	-5842
▁dura	-5843
▁voku	-5844
batika	-5845
▁Mucha	-5846
gadziko	-5847
pionate	-5848
▁Pakati	-5849
▁Munguva	-5850
▁kwavaka	-5851
kwanisiro	-5852
▁Ongororo	-5853
▁mangange	-5854
▁ndisinga	-5855
▁vasungwa	-5856
▁kumatunhu	-5857
▁nehuwandu	-5858
▁vakurudzira	-5859
▁Or	-5860
▁up	-5861
hite	-5862
lovu	-5863
ural	-5864
veza	-5865
▁Nen	-5866
gamba	-5867
ondon	-5868
pfuma	-5869
pfumo	-5870
▁Bato	-5871
▁uhwu	-5872
tsotsi	-5873
shandise	-5874
▁Mutambo	-5875
▁muroora	-5876
▁wemunhu	-5877
▁nevashandi	-5878
▁weChishanu	-5879
▁uchishandisa	-5880
▁Ap	-5881
Live	-5882
cono	-5883
fari	-5884
▁198	-5885
▁Har	-5886
mboti	-5887
teshi	-5888
▁pedo	-5889
▁Gweta	-5890
▁huori	-5891
▁mbudzi	-5892
tsvakawo	-5893
▁Company	-5894
shambadza	-5895
▁kudzimba	-5896
▁yemhando	-5897
▁hunyanzvi	-5898
▁kuburitsa	-5899
▁yekushandisa	-5900
ice	-5901
koti	-5902
meka	-5903
▁muB	-5904
▁neG	-5905
gumbu	-5906
mazwi	-5907
pfupi	-5908
▁mhan	-5909
▁pese	-5910
maruwa	-5911
sarura	-5912
▁anozo	-5913
▁arege	-5914
▁Centre	-5915
▁kumisa	-5916
▁tarira	-5917
▁zororo	-5918
▁zvaita	-5919
▁achinzi	-5920
▁anoramba	-5921
▁nhetembo	-5922
purasitiki	-5923
▁nechitima	-5924
14	-5925
5)	-5926
ford	-5927
ling	-5928
pona	-5929
mendi	-5930
pfeke	-5931
▁Kari	-5932
▁More	-5933
rarame	-5934
▁chava	-5935
poneswa	-5936
svikira	-5937
torerwa	-5938
▁huroyi	-5939
▁nezviri	-5940
▁vashanu	-5941
▁yekuita	-5942
▁VaNelson	-5943
▁chivimbo	-5944
▁kurwisana	-5945
▁nderekuti	-5946
▁rusununguko	-5947
shamwaridzana	-5948
6,	-5949
hari	-5950
irwa	-5951
toda	-5952
▁Isa	-5953
▁aci	-5954
manda	-5955
▁Kuda	-5956
▁Samu	-5957
boshwe	-5958
poteri	-5959
▁Trust	-5960
▁naiye	-5961
shamiso	-5962
tendeka	-5963
▁Ngaave	-5964
▁mazino	-5965
▁ndecho	-5966
▁nebato	-5967
▁hormone	-5968
▁kuroora	-5969
▁kuvakwa	-5970
▁Kubvumbi	-5971
▁redzidzo	-5972
▁kuchamhembe	-5973
▁rinoshandiswa	-5974
sc	-5975
thu	-5976
▁par	-5977
▁ugo	-5978
dziva	-5979
minda	-5980
yirwa	-5981
▁muva	-5982
Mozisi	-5983
chimbi	-5984
indira	-5985
mutemo	-5986
ustice	-5987
pedzisa	-5988
▁nhauri	-5989
kangwara	-5990
▁Mutsvene	-5991
hepfenyuro	-5992
▁nemadzimai	-5993
So	-5994
▁ac	-5995
ande	-5996
lass	-5997
lice	-5998
rade	-5999
▁Act	-6000
zveku	-6001
▁neho	-6002
▁waro	-6003
parara	-6004
▁madhi	-6005
▁nemaviri	-6006
▁zvekuita	-6007
▁zvichemo	-6008
Changamire	-6009
▁munhandare	-6010
▁dzemuAfrica	-6011
▁zvakanakisisa	-6012
13	-6013
IC	-6014
phy	-6015
pun	-6016
doro	-6017
pwan	-6018
wiwa	-6019
▁19,	-6020
▁rwu	-6021
▁sub	-6022
▁uya	-6023
chers	-6024
thern	-6025
vhuna	-6026
▁ishe	-6027
▁maro	-6028
rwiswa	-6029
▁Mvura	-6030
kanzura	-6031
▁Mobile	-6032
▁kurova	-6033
▁kutsva	-6034
▁mugove	-6035
▁Vakadzi	-6036
▁anoenda	-6037
▁chisina	-6038
▁mukunda	-6039
▁anosvika	-6040
▁zvipfuyo	-6041
▁weMuvhuro	-6042
▁yechipiri	-6043
▁kutengeswa	-6044
▁nhaurirano	-6045
▁zvepamusoro	-6046
6)	-6047
tia	-6048
▁Pu	-6049
dhon	-6050
roya	-6051
▁Pri	-6052
▁Swi	-6053
enter	-6054
shuga	-6055
▁VaPa	-6056
hekita	-6057
shumba	-6058
▁ndewe	-6059
▁value	-6060
hedheni	-6061
▁mutoro	-6062
bhabhati	-6063
▁tinenge	-6064
▁zvinopa	-6065
▁chakaita	-6066
▁kutsamwa	-6067
▁nemabasa	-6068
▁zvipfeko	-6069
▁kuzvipatara	-6070
8)	-6071
▁Gi	-6072
elgi	-6073
▁Tho	-6074
kupai	-6075
tyisi	-6076
▁Tora	-6077
▁mose	-6078
onekwe	-6079
▁Mhuri	-6080
▁vandi	-6081
shomeka	-6082
tendera	-6083
▁Vagari	-6084
▁mhenyu	-6085
▁paimba	-6086
rambidza	-6087
▁private	-6088
▁vachava	-6089
▁nemasere	-6090
▁anodarika	-6091
▁nenyanzvi	-6092
▁navanakomana	-6093
cob	-6094
ham	-6095
tezo	-6096
▁reT	-6097
mbure	-6098
▁have	-6099
▁tava	-6100
shingi	-6101
uraiwa	-6102
zorora	-6103
▁Ndiye	-6104
▁dzomu	-6105
▁asvika	-6106
▁kunaya	-6107
Chinhoyi	-6108
dzidzira	-6109
▁kuendesa	-6110
▁kururama	-6111
▁tarisiro	-6112
gadzirirwo	-6113
▁imwechete	-6114
▁chekutanga	-6115
AM	-6116
bin	-6117
▁37	-6118
▁Hy	-6119
▁UN	-6120
iria	-6121
homba	-6122
penga	-6123
razil	-6124
▁pedu	-6125
▁sezv	-6126
▁zvakati	-6127
▁Chivabvu	-6128
▁navakuru	-6129
▁madzimambo	-6130
▁maporofita	-6131
▁mudzidzisi	-6132
▁zvinoitika	-6133
Lo	-6134
eng	-6135
uma	-6136
ves	-6137
cken	-6138
gama	-6139
pofu	-6140
Nyika	-6141
tinga	-6142
▁....	-6143
mukira	-6144
▁Chita	-6145
▁ruzha	-6146
zvinzwa	-6147
▁Nyathi	-6148
▁dzavano	-6149
▁kurwira	-6150
▁yasvika	-6151
▁zvavari	-6152
▁handicha	-6153
▁kumabasa	-6154
▁Zvichakadai	-6155
29	-6156
▁80	-6157
dzan	-6158
onda	-6159
phet	-6160
tage	-6161
▁And	-6162
ungwa	-6163
▁Muma	-6164
▁York	-6165
▁Chris	-6166
▁dzemi	-6167
▁yauno	-6168
kunyora	-6169
▁dzezvi	-6170
▁mativi	-6171
▁murenje	-6172
▁kutenderera	-6173
▁bi	-6174
Saka	-6175
ople	-6176
rosi	-6177
▁Iri	-6178
▁all	-6179
▁gwe	-6180
podza	-6181
shera	-6182
▁kupe	-6183
▁peva	-6184
tsauka	-6185
▁email	-6186
▁misha	-6187
tengera	-6188
zivikan	-6189
▁Mazano	-6190
▁chairo	-6191
▁mureza	-6192
▁Chiedza	-6193
▁Gunyana	-6194
▁hwekuti	-6195
▁mumhuri	-6196
▁yakabva	-6197
batsirana	-6198
▁Vazhinji	-6199
▁nenhengo	-6200
▁Committee	-6201
▁neMugovera	-6202
▁yaIsiraeri	-6203
sco	-6204
bani	-6205
mple	-6206
tego	-6207
▁spe	-6208
▁data	-6209
▁vang	-6210
guruve	-6211
varimi	-6212
yoreswa	-6213
▁Indust	-6214
▁Zambia	-6215
▁varambe	-6216
▁zvavaka	-6217
sikarudzi	-6218
▁makwikwi	-6219
▁mumaguta	-6220
▁rinorwira	-6221
▁remangwana	-6222
▁vanotarisira	-6223
dle	-6224
juru	-6225
oney	-6226
zono	-6227
phosa	-6228
yenzi	-6229
zoona	-6230
▁muve	-6231
wanano	-6232
▁Forum	-6233
fainari	-6234
▁kurara	-6235
▁neropa	-6236
▁vatema	-6237
shington	-6238
▁kuvhara	-6239
▁mudumbu	-6240
▁Madzimai	-6241
▁vachinge	-6242
▁madzibaba	-6243
▁waJehovha	-6244
▁mavhidhiyo	-6245
▁pamushonga	-6246
▁mabhizimisi	-6247
Li	-6248
Com	-6249
cks	-6250
vudza	-6251
▁Holm	-6252
▁Yesu	-6253
▁tete	-6254
pambwa	-6255
tambwa	-6256
▁kadhi	-6257
fungira	-6258
▁ndidzo	-6259
▁Sabhuku	-6260
▁murwere	-6261
▁vapenyu	-6262
▁vakabuda	-6263
▁zvevanhu	-6264
▁neChipiri	-6265
▁nezvishoma	-6266
▁yechibatiso	-6267
▁mukusimudzira	-6268
alk	-6269
pace	-6270
▁kuT	-6271
press	-6272
teere	-6273
▁fuma	-6274
▁tora	-6275
endege	-6276
nology	-6277
▁Vacha	-6278
▁waaka	-6279
▁change	-6280
vhangeri	-6281
▁makumbo	-6282
▁pamazuva	-6283
▁zvaitika	-6284
Bhabhironi	-6285
▁zvinokosha	-6286
Vi	-6287
Mari	-6288
▁fun	-6289
▁imo	-6290
rudyi	-6291
▁huni	-6292
▁nere	-6293
▁David	-6294
▁Elect	-6295
▁dzayo	-6296
▁raive	-6297
▁varwi	-6298
kutenda	-6299
▁chinga	-6300
▁harina	-6301
▁navano	-6302
▁Premier	-6303
▁Sibanda	-6304
▁reWorld	-6305
sekondari	-6306
▁kusiyana	-6307
▁rekutanga	-6308
▁maWarriors	-6309
▁reNational	-6310
▁kukundikana	-6311
▁kudzivirirwa	-6312
▁maindasitiri	-6313
swi	-6314
val	-6315
pazi	-6316
▁mud	-6317
▁vhu	-6318
inese	-6319
janji	-6320
stant	-6321
wanza	-6322
▁vuye	-6323
donzvo	-6324
sikoro	-6325
▁Biden	-6326
▁Produ	-6327
▁Trade	-6328
▁VaMoyo	-6329
▁katatu	-6330
▁achange	-6331
▁chenyika	-6332
▁kutongwa	-6333
▁panhamba	-6334
▁kugutsikana	-6335
▁(7	-6336
▁3,	-6337
pani	-6338
seve	-6339
▁Shi	-6340
▁Uku	-6341
forma	-6342
oneka	-6343
rumwa	-6344
tyira	-6345
▁pehu	-6346
▁House	-6347
▁avano	-6348
▁chave	-6349
kandira	-6350
paridza	-6351
▁uwandu	-6352
▁wegore	-6353
▁havanga	-6354
vakidzani	-6355
▁mudzidzi	-6356
▁kuwedzerwa	-6357
▁pakupedzisira	-6358
ST	-6359
▁Ki	-6360
gita	-6361
▁VaW	-6362
▁yeZ	-6363
firimu	-6364
▁seiko	-6365
▁musika	-6366
▁yatino	-6367
WhatsApp	-6368
bvumidzwa	-6369
▁Republic	-6370
▁vachingo	-6371
▁muchirongwa	-6372
▁achishandisa	-6373
EN	-6374
cep	-6375
faul	-6376
inwa	-6377
tama	-6378
tory	-6379
ving	-6380
zizi	-6381
Ndiri	-6382
▁temp	-6383
▁vaku	-6384
jamini	-6385
tsanya	-6386
▁iroro	-6387
▁ndima	-6388
▁shanu	-6389
svikiro	-6390
▁kupiwa	-6391
▁mawoko	-6392
▁muduku	-6393
▁zvombo	-6394
tambudza	-6395
▁pandaka	-6396
▁kweAfrica	-6397
▁kuMasvingo	-6398
▁Testosterone	-6399
▁vanachiremba	-6400
('	-6401
dei	-6402
▁Is	-6403
piko	-6404
penya	-6405
▁Assi	-6406
▁Mose	-6407
Jakobho	-6408
rodhani	-6409
▁aigona	-6410
▁mitero	-6411
▁nokuva	-6412
lsiraeri	-6413
▁nezvose	-6414
zvimirira	-6415
▁Teachers	-6416
▁inowanzo	-6417
▁chinogona	-6418
▁yeIjipiti	-6419
PA	-6420
lse	-6421
▁4,	-6422
▁am	-6423
fuki	-6424
ramu	-6425
viro	-6426
▁reG	-6427
zendo	-6428
elgium	-6429
kirasi	-6430
▁hwaro	-6431
goverwa	-6432
simbiso	-6433
▁akaipa	-6434
▁atanga	-6435
▁chacho	-6436
▁sokuti	-6437
▁yapera	-6438
▁yevana	-6439
chinomwe	-6440
kururama	-6441
yangadza	-6442
zvikudza	-6443
▁dzepasi	-6444
▁kuzivisa	-6445
▁language	-6446
ropafadzwa	-6447
mwanakomana	-6448
▁kuchikwata	-6449
▁ndechokuti	-6450
▁anoshandisa	-6451
IFA	-6452
▁CO	-6453
oner	-6454
very	-6455
▁Bri	-6456
▁Eli	-6457
▁Per	-6458
▁naT	-6459
▁web	-6460
bhiza	-6461
dzino	-6462
maria	-6463
stric	-6464
tidza	-6465
▁Ndai	-6466
raidza	-6467
▁Board	-6468
▁Inspe	-6469
▁kuunza	-6470
▁kwaaka	-6471
▁Ndapota	-6472
▁shanduko	-6473
unganidzwa	-6474
▁bhizimisi	-6475
▁nepfungwa	-6476
▁yakatarwa	-6477
▁vakasungwa	-6478
▁nematanhatu	-6479
ind	-6480
muna	-6481
weru	-6482
▁nee	-6483
▁weG	-6484
andai	-6485
girii	-6486
▁Fore	-6487
▁Medi	-6488
remera	-6489
▁dhipo	-6490
▁hasha	-6491
▁mabha	-6492
chipiri	-6493
teverwa	-6494
▁ambuya	-6495
ferefeta	-6496
▁musinga	-6497
▁penyaya	-6498
fambirana	-6499
▁anotaura	-6500
▁inokosha	-6501
dzivirirwa	-6502
▁neChitatu	-6503
▁zvichaita	-6504
▁kutungamirira	-6505
5,	-6506
oug	-6507
ril	-6508
▁70	-6509
undi	-6510
▁Sci	-6511
▁pau	-6512
iness	-6513
▁hafu	-6514
dzishe	-6515
hondoro	-6516
▁apedza	-6517
▁pedare	-6518
rongedza	-6519
▁humbowo	-6520
▁sezviri	-6521
▁zviripo	-6522
▁zvichida	-6523
▁inonyanya	-6524
▁reCitizens	-6525
▁kutevedzera	-6526
▁ndinotsvaga	-6527
International	-6528
hai	-6529
pre	-6530
gani	-6531
hone	-6532
koto	-6533
ripa	-6534
teni	-6535
voko	-6536
vuka	-6537
▁Mad	-6538
kiswa	-6539
hwinha	-6540
▁agere	-6541
▁kwese	-6542
▁nemba	-6543
▁chando	-6544
▁sekuru	-6545
ongorori	-6546
▁VaBiden	-6547
ropafadza	-6548
▁Services	-6549
▁mushakabvu	-6550
▁wechikwata	-6551
▁zvemitambo	-6552
IDS	-6553
Nya	-6554
umo	-6555
▁Fit	-6556
▁Por	-6557
dzivi	-6558
▁Live	-6559
▁Mary	-6560
anomwe	-6561
furemu	-6562
itunga	-6563
mbaoga	-6564
▁naShe	-6565
▁sezvi	-6566
▁muroyi	-6567
tachiwana	-6568
▁dzakanga	-6569
▁Mutsvangwa	-6570
▁anobatsira	-6571
▁webhusaiti	-6572
▁zvikonzero	-6573
VC	-6574
iyo	-6575
mho	-6576
por	-6577
rth	-6578
Jose	-6579
shop	-6580
tsam	-6581
turu	-6582
zeri	-6583
▁Inn	-6584
▁kuC	-6585
India	-6586
dzina	-6587
mbara	-6588
zwira	-6589
▁Auto	-6590
▁Chen	-6591
▁This	-6592
▁tina	-6593
shishi	-6594
sisina	-6595
▁yeChi	-6596
▁Tendai	-6597
▁akando	-6598
▁Chikamu	-6599
▁Network	-6600
▁panenge	-6601
▁vamwari	-6602
kanangana	-6603
▁nevaviri	-6604
▁Vakawanda	-6605
▁kupindura	-6606
▁nezvikamu	-6607
▁pakufamba	-6608
dam	-6609
lay	-6610
come	-6611
sito	-6612
waya	-6613
yers	-6614
▁VaI	-6615
temera	-6616
▁Ndivo	-6617
▁chika	-6618
▁ukuwo	-6619
▁vaizo	-6620
▁Chinhu	-6621
▁avanhu	-6622
▁rwenyu	-6623
▁tinoti	-6624
positori	-6625
▁inogara	-6626
▁kwavano	-6627
▁vachino	-6628
henjamini	-6629
▁migwagwa	-6630
▁duramazwi	-6631
▁Tsvangirai	-6632
▁negurukota	-6633
1)	-6634
DA	-6635
▁!	-6636
▁th	-6637
geni	-6638
tove	-6639
xbet	-6640
▁ele	-6641
▁paG	-6642
▁reE	-6643
Zvaka	-6644
okora	-6645
tonho	-6646
▁Mita	-6647
hwanda	-6648
mboita	-6649
potera	-6650
tarisi	-6651
▁akasa	-6652
▁hwoku	-6653
hupenyu	-6654
parurwa	-6655
takurwa	-6656
verengi	-6657
▁Uyezve	-6658
▁misika	-6659
▁risati	-6660
▁weZanu	-6661
▁kuramwa	-6662
▁zvandino	-6663
▁dzinogona	-6664
▁nomunondo	-6665
▁kurwadziwa	-6666
▁weMugovera	-6667
▁nekutengesa	-6668
▁kuChitungwiza	-6669
▁kushungurudzwa	-6670
▁CH	-6671
▁Ce	-6672
▁pi	-6673
▁Ane	-6674
▁weC	-6675
zvine	-6676
▁mina	-6677
bility	-6678
▁Light	-6679
▁Christ	-6680
zvakaipa	-6681
▁mukanwa	-6682
▁neCovid	-6683
▁wakaita	-6684
▁Nyanduri	-6685
▁Vanotiwo	-6686
▁anotanga	-6687
▁chirimwa	-6688
▁vachiona	-6689
▁zvenyika	-6690
:5	-6691
orm	-6692
sen	-6693
bour	-6694
moti	-6695
sora	-6696
▁Law	-6697
▁Mil	-6698
▁Our	-6699
▁Mang	-6700
▁imwi	-6701
▁insu	-6702
tsaona	-6703
▁huwori	-6704
▁mapuro	-6705
▁chitoro	-6706
▁matombo	-6707
▁percent	-6708
▁Ndianiko	-6709
tsvakurudza	-6710
Mbu	-6711
▁39	-6712
▁48	-6713
lini	-6714
rota	-6715
tukwa	-6716
waini	-6717
▁Your	-6718
tereza	-6719
▁anoto	-6720
▁Tinoda	-6721
▁kuumba	-6722
▁string	-6723
▁inodiwa	-6724
▁ndikati	-6725
▁vemwana	-6726
▁neruzivo	-6727
▁zvikaita	-6728
simudzirwa	-6729
”,	-6730
sau	-6731
lian	-6732
tiwo	-6733
aneja	-6734
donhe	-6735
▁more	-6736
▁seni	-6737
▁Ndiyo	-6738
▁pacho	-6739
▁zvido	-6740
▁patsva	-6741
▁pabonde	-6742
▁Champion	-6743
▁Chokwadi	-6744
▁akasimba	-6745
▁kubereka	-6746
▁kwaakaita	-6747
▁maminitsi	-6748
▁weChitatu	-6749
▁dzezvehutano	-6750
ah	-6751
ins	-6752
▁ab	-6753
▁Ava	-6754
▁Dia	-6755
▁omu	-6756
organ	-6757
yeuka	-6758
▁Time	-6759
tsindo	-6760
▁Econo	-6761
▁Hazvi	-6762
▁munin	-6763
▁wezvi	-6764
▁Dokora	-6765
▁Vakuru	-6766
▁mamita	-6767
burukira	-6768
▁akamhan	-6769
▁dzegore	-6770
▁zvabuda	-6771
▁zvainge	-6772
berekerwa	-6773
shomanana	-6774
▁inodarika	-6775
▁chinzvimbo	-6776
▁nezvikwata	-6777
▁rinotevera	-6778
▁zvinofadza	-6779
Ken	-6780
part	-6781
ward	-6782
▁neC	-6783
kungo	-6784
rwiyo	-6785
wirwa	-6786
▁View	-6787
▁gwara	-6788
▁rezvi	-6789
▁tsumo	-6790
yadzisa	-6791
▁Church	-6792
▁vanoto	-6793
▁reCovid	-6794
Bhaibheri	-6795
▁anokosha	-6796
▁nemitemo	-6797
chengetera	-6798
▁Saizvozvo	-6799
▁mukuwasha	-6800
▁ndokutanga	-6801
▁yakaderera	-6802
▁dzeparamende	-6803
▁paJerusaremu	-6804
▁ja	-6805
dzei	-6806
▁Ama	-6807
▁Lin	-6808
ereke	-6809
field	-6810
vanda	-6811
wadhi	-6812
▁yoga	-6813
kwende	-6814
teveri	-6815
▁kutsi	-6816
▁mabhe	-6817
▁nemana	-6818
beleland	-6819
jekerere	-6820
kemikari	-6821
▁achaita	-6822
▁kuzorwa	-6823
▁vanouya	-6824
▁vapedza	-6825
chinjikwa	-6826
▁ndichiti	-6827
▁nemutemo	-6828
▁chinyorwa	-6829
▁yakaitika	-6830
▁Vaenderera	-6831
▁nezvekufambiswa	-6832
24	-6833
pm	-6834
biko	-6835
giro	-6836
mang	-6837
vata	-6838
lobal	-6839
vandi	-6840
▁====	-6841
▁Mara	-6842
▁Vane	-6843
▁aite	-6844
▁ango	-6845
▁jena	-6846
zarura	-6847
▁Confe	-6848
▁Kwaka	-6849
▁kwama	-6850
▁yaano	-6851
dzivisa	-6852
▁Hakuna	-6853
▁mubasa	-6854
▁njanji	-6855
▁tsaona	-6856
▁achingo	-6857
▁hadzina	-6858
▁mirairo	-6859
▁ndapota	-6860
▁pachavo	-6861
▁vakango	-6862
▁akakwana	-6863
vanakomana	-6864
▁kuparadza	-6865
▁vanotsinhira	-6866
sori	-6867
tsvo	-6868
▁Tin	-6869
▁Wel	-6870
▁sta	-6871
gency	-6872
inini	-6873
rendi	-6874
▁Isra	-6875
▁faira	-6876
stralia	-6877
tsakati	-6878
▁Nekuti	-6879
▁mubati	-6880
kurarama	-6881
tenderwa	-6882
▁Ijipiti	-6883
▁zvitoro	-6884
▁nendarama	-6885
Coronavirus	-6886
▁kuwirirana	-6887
%.	-6888
▁x	-6889
ant	-6890
lus	-6891
yen	-6892
▁pm	-6893
ania	-6894
fuka	-6895
hira	-6896
king	-6897
meni	-6898
rine	-6899
rror	-6900
vere	-6901
▁Cur	-6902
▁naI	-6903
serve	-6904
unzwa	-6905
▁Andi	-6906
▁Save	-6907
▁mafa	-6908
▁mira	-6909
dzinza	-6910
maniki	-6911
▁gweta	-6912
▁mazai	-6913
▁pezvo	-6914
▁vauya	-6915
ipisisa	-6916
▁matsva	-6917
▁mutema	-6918
▁vaimbi	-6919
yananisa	-6920
▁kunobva	-6921
▁mabhazi	-6922
▁vasvika	-6923
▁vevanhu	-6924
diridziro	-6925
tekeshera	-6926
▁remutemo	-6927
▁Muhurukuro	-6928
cherechedzwa	-6929
▁kumabvazuva	-6930
▁muchipatara	-6931
▁kusagadzikana	-6932
▁zvinoshandiswa	-6933
ER	-6934
down	-6935
otro	-6936
▁Cli	-6937
bhiti	-6938
▁Jona	-6939
▁Next	-6940
▁aisa	-6941
▁pomu	-6942
mbaira	-6943
remier	-6944
▁Chief	-6945
▁Khupe	-6946
▁Water	-6947
irisita	-6948
▁Mujuru	-6949
kurirana	-6950
▁Justice	-6951
▁kubvunza	-6952
▁kuremeke	-6953
▁pazvinhu	-6954
▁venhabvu	-6955
veruzhinji	-6956
▁Zvakanaka	-6957
▁muchikamu	-6958
▁ndinoziva	-6959
▁yekutenga	-6960
▁Abhurahamu	-6961
▁neChishanu	-6962
▁nemamiriro	-6963
▁reMasvingo	-6964
▁yakaisvonaka	-6965
▁zvikwanisiro	-6966
Ke	-6967
▁Ac	-6968
▁If	-6969
▁op	-6970
reat	-6971
▁Bhe	-6972
▁Bus	-6973
▁Den	-6974
▁Tri	-6975
▁paA	-6976
▁waN	-6977
fault	-6978
lugin	-6979
muona	-6980
petwa	-6981
rinda	-6982
▁Ndin	-6983
▁sama	-6984
▁woga	-6985
chuchi	-6986
gement	-6987
▁amire	-6988
yaradza	-6989
▁haunga	-6990
▁kwaita	-6991
▁makwai	-6992
pepanhau	-6993
▁Hazvina	-6994
▁penyika	-6995
▁yandino	-6996
▁Nekudaro	-6997
▁mukupera	-6998
▁yakazara	-6999
▁kakawanda	-7000
▁kukumbira	-7001
▁nehupenyu	-7002
▁vakazivisa	-7003
▁kumanikidzwa	-7004
Fa	-7005
tt	-7006
100	-7007
cel	-7008
kuta	-7009
ller	-7010
yura	-7011
▁sai	-7012
ender	-7013
itire	-7014
itisa	-7015
sodzi	-7016
urira	-7017
▁vega	-7018
▁vomu	-7019
▁wemi	-7020
mukati	-7021
ouglas	-7022
▁avaka	-7023
▁dzehu	-7024
yaradzo	-7025
▁patino	-7026
▁zvaari	-7027
▁Kambani	-7028
▁muhomwe	-7029
▁sekunge	-7030
▁vataura	-7031
▁kwaMwari	-7032
▁ndibatei	-7033
▁nomufaro	-7034
▁tinoziva	-7035
▁Assistant	-7036
▁unotevera	-7037
▁kukurumidza	-7038
?"	-7039
▁)	-7040
box	-7041
car	-7042
get	-7043
ple	-7044
▁weP	-7045
▁Enda	-7046
▁ziso	-7047
chenje	-7048
▁Farao	-7049
▁ainzi	-7050
▁naani	-7051
▁nhume	-7052
▁yaita	-7053
kuwasha	-7054
▁firimu	-7055
batsirwe	-7056
▁chokuti	-7057
▁kusimba	-7058
▁ndakazo	-7059
▁ndeimwe	-7060
sachigaro	-7061
▁rokutanga	-7062
▁chaizvoizvo	-7063
▁kuunganidza	-7064
shandirapamwe	-7065
▁zvinofanirwa	-7066
')	-7067
3)	-7068
▁vi	-7069
cade	-7070
tzer	-7071
▁Ben	-7072
kirira	-7073
yeuchi	-7074
▁kusha	-7075
▁mimba	-7076
▁ndiku	-7077
kwidzwa	-7078
svibisa	-7079
▁Josefa	-7080
tzerland	-7081
▁chirevo	-7082
▁handisi	-7083
▁kuridza	-7084
▁michero	-7085
▁yakange	-7086
shevedzwa	-7087
▁akabatwa	-7088
▁dzisinga	-7089
▁mashizha	-7090
▁Chinyorwa	-7091
▁chinopiswa	-7092
17	-7093
26	-7094
hl	-7095
yd	-7096
ids	-7097
top	-7098
list	-7099
rasa	-7100
yota	-7101
zing	-7102
▁mag	-7103
▁paS	-7104
kombi	-7105
zania	-7106
▁kero	-7107
▁repa	-7108
upfumi	-7109
▁hausi	-7110
▁vaona	-7111
dhindwa	-7112
vhotera	-7113
▁muchin	-7114
▁murege	-7115
▁negumi	-7116
▁rurege	-7117
dimikira	-7118
▁ndakati	-7119
▁varamba	-7120
▁yemwana	-7121
▁zvinozo	-7122
▁nhandare	-7123
▁nyanduri	-7124
▁kukonzerwa	-7125
▁napamusoro	-7126
▁ezvematongerwo	-7127
bs	-7128
TUZ	-7129
har	-7130
udi	-7131
0783	-7132
bhoa	-7133
rame	-7134
▁Bet	-7135
Kenya	-7136
chinj	-7137
dhomu	-7138
edzwa	-7139
isati	-7140
light	-7141
▁Seed	-7142
▁Than	-7143
▁mare	-7144
▁mate	-7145
inless	-7146
zwikwa	-7147
▁Pamwe	-7148
kadzika	-7149
shereke	-7150
▁George	-7151
▁achiva	-7152
▁musina	-7153
▁vagara	-7154
kanakisa	-7155
▁machine	-7156
▁tisinga	-7157
▁waJudha	-7158
patimendi	-7159
▁Christmas	-7160
▁yakarurama	-7161
▁zvichireva	-7162
▁nekukurumidza	-7163
ET	-7164
Ano	-7165
clu	-7166
dor	-7167
rou	-7168
▁300	-7169
▁Dhi	-7170
▁Hea	-7171
▁Iva	-7172
▁kuu	-7173
▁neM	-7174
chael	-7175
dzose	-7176
dzvan	-7177
murwa	-7178
ngland	-7179
▁naVaN	-7180
▁harisi	-7181
▁yakato	-7182
▁mutumwa	-7183
▁pachake	-7184
▁kunoitwa	-7185
rondedzero	-7186
▁Stainless	-7187
cherechedzo	-7188
▁vapirisiti	-7189
mbunyikidzwa	-7190
▁yakakodzera	-7191
▁zvichiitika	-7192
▁vachipomerwa	-7193
4)	-7194
Mar	-7195
rgs	-7196
sin	-7197
illa	-7198
mbon	-7199
ziti	-7200
zwai	-7201
▁Cle	-7202
▁awo	-7203
▁kuD	-7204
dauko	-7205
penzi	-7206
rasha	-7207
tural	-7208
vhote	-7209
▁Sara	-7210
strict	-7211
▁Uyewo	-7212
▁dhora	-7213
▁maari	-7214
▁yezve	-7215
kanyora	-7216
▁vakano	-7217
▁vakasa	-7218
▁veZanu	-7219
▁chatino	-7220
▁mudenga	-7221
▁mugwagwa	-7222
▁Masangano	-7223
▁kwemabasa	-7224
▁mafungiro	-7225
▁zvibodzwa	-7226
▁chakakosha	-7227
▁kuzvidzora	-7228
▁Vanoenderera	-7229
▁yakakurumbira	-7230
UR	-7231
pt	-7232
med	-7233
disa	-7234
fare	-7235
ligi	-7236
piwe	-7237
raka	-7238
tary	-7239
▁pol	-7240
lease	-7241
shona	-7242
▁Maku	-7243
▁Offi	-7244
ambuya	-7245
tarika	-7246
tsauko	-7247
zonzwa	-7248
▁kunon	-7249
▁Kukura	-7250
▁Nokuda	-7251
▁neimba	-7252
▁vanoku	-7253
▁vasara	-7254
▁inopisa	-7255
▁vakando	-7256
shanyirwa	-7257
▁chokuita	-7258
▁mharidzo	-7259
▁murunyararo	-7260
500	-7261
can	-7262
cor	-7263
opi	-7264
ray	-7265
zhe	-7266
idza	-7267
poti	-7268
▁ita	-7269
dzima	-7270
erera	-7271
medza	-7272
pping	-7273
shira	-7274
▁abva	-7275
▁aona	-7276
▁gare	-7277
hukama	-7278
pfunde	-7279
ziviso	-7280
▁Chiri	-7281
▁Sekai	-7282
▁mazamu	-7283
▁nzendo	-7284
▁uchiti	-7285
▁neChina	-7286
▁vapinda	-7287
▁pemakore	-7288
komberedza	-7289
▁anonamata	-7290
▁kurudziro	-7291
▁muzvitoro	-7292
▁vakakunda	-7293
▁zvinangwa	-7294
singanzwisi	-7295
▁vachitamba	-7296
9)	-7297
Ni	-7298
qui	-7299
dere	-7300
firi	-7301
mero	-7302
tifi	-7303
▁Cla	-7304
▁San	-7305
irasi	-7306
punga	-7307
▁Dube	-7308
▁Love	-7309
▁naJe	-7310
bviswe	-7311
remiya	-7312
▁Peter	-7313
▁kunga	-7314
▁muche	-7315
▁muvhu	-7316
munyori	-7317
ongress	-7318
ridzira	-7319
▁Monika	-7320
angariro	-7321
chuchisi	-7322
▁Vamwewo	-7323
▁tarenda	-7324
shiripiti	-7325
▁kubwinya	-7326
▁vakabata	-7327
▁vakasara	-7328
hombekombe	-7329
varairidzi	-7330
▁dhipoziti	-7331
▁vanorarama	-7332
▁kwemamiriro	-7333
▁neHurumende	-7334
▁magadzirirwo	-7335
▁kuchengetedzwa	-7336
AK	-7337
Aka	-7338
▁Cy	-7339
rand	-7340
roja	-7341
▁naD	-7342
kwama	-7343
▁work	-7344
▁dzaro	-7345
▁image	-7346
yaradzi	-7347
▁Ndlovu	-7348
▁Russia	-7349
▁vhudzi	-7350
svibiswa	-7351
▁muzinda	-7352
▁nemhepo	-7353
▁neshoko	-7354
▁vaRevhi	-7355
▁anabolic	-7356
▁havasati	-7357
▁mumabasa	-7358
▁ruzhinji	-7359
▁vanotaura	-7360
▁Technology	-7361
▁akasununguka	-7362
▁pachinzvimbo	-7363
Lu	-7364
pei	-7365
▁7,	-7366
▁vu	-7367
Kari	-7368
suru	-7369
▁Mhe	-7370
Level	-7371
munga	-7372
zvipi	-7373
▁Fund	-7374
▁mema	-7375
▁tigo	-7376
cetate	-7377
dzidze	-7378
shongo	-7379
▁Ndipo	-7380
▁imomo	-7381
▁mhaka	-7382
▁mundi	-7383
anzania	-7384
▁Nekuda	-7385
▁kubazi	-7386
▁tisina	-7387
onhuwira	-7388
▁Huwandu	-7389
▁chitsva	-7390
▁vavengi	-7391
▁yemunhu	-7392
▁zvivako	-7393
▁yokutanga	-7394
▁nevatsigiri	-7395
▁vatungamiriri	-7396
ele	-7397
▁mb	-7398
biwa	-7399
mond	-7400
trol	-7401
▁071	-7402
▁Edu	-7403
▁Tsi	-7404
▁kuH	-7405
▁muT	-7406
▁yeT	-7407
cking	-7408
pandu	-7409
shavi	-7410
vushe	-7411
▁somu	-7412
tsaura	-7413
zvidza	-7414
zvinga	-7415
▁Dubai	-7416
▁Grade	-7417
▁muMDC	-7418
▁muine	-7419
saraure	-7420
▁Mutemo	-7421
▁Online	-7422
▁hukuru	-7423
▁mihoro	-7424
▁yemari	-7425
▁muitiro	-7426
▁risinga	-7427
▁zvaitwa	-7428
▁chinenge	-7429
▁madzishe	-7430
▁Inspector	-7431
▁ichokwadi	-7432
▁kusimukira	-7433
▁neutachiona	-7434
95	-7435
fer	-7436
zai	-7437
Tube	-7438
lues	-7439
mart	-7440
▁250	-7441
▁Han	-7442
▁app	-7443
chiva	-7444
siira	-7445
▁soro	-7446
▁tsan	-7447
otball	-7448
pakati	-7449
simusi	-7450
vation	-7451
fundisa	-7452
▁hakusi	-7453
▁mugomo	-7454
▁vaduku	-7455
▁varoyi	-7456
▁webazi	-7457
kutendai	-7458
▁vemhuri	-7459
▁zvamuno	-7460
▁Nokudaro	-7461
▁mutyairi	-7462
▁nokuveza	-7463
▁kushandura	-7464
▁vanokurudzira	-7465
▁rezvekuburitswa	-7466
-8	-7467
IR	-7468
NC	-7469
gana	-7470
kers	-7471
▁yeP	-7472
Sauro	-7473
kwazi	-7474
shava	-7475
▁Hama	-7476
▁Trip	-7477
▁nede	-7478
dhudhu	-7479
▁Gwaro	-7480
▁Profe	-7481
▁akari	-7482
▁vekwa	-7483
▁chenge	-7484
▁unoita	-7485
▁yababa	-7486
▁Chinese	-7487
▁English	-7488
▁kwezuva	-7489
▁mashura	-7490
▁vachiva	-7491
▁kuzviita	-7492
▁munjodzi	-7493
▁nevatatu	-7494
▁vanoramba	-7495
▁zvavanoda	-7496
▁zvipatara	-7497
▁inokwanisa	-7498
▁nemotokari	-7499
bura	-7500
cifi	-7501
edzo	-7502
mora	-7503
pore	-7504
▁Sen	-7505
▁VaH	-7506
vanza	-7507
yasha	-7508
▁mato	-7509
Kenani	-7510
endera	-7511
rwadzo	-7512
tyaira	-7513
▁fungi	-7514
▁kuipa	-7515
bhorani	-7516
wanikwe	-7517
▁kwaiva	-7518
▁maruva	-7519
▁yakava	-7520
▁yebato	-7521
goverana	-7522
peration	-7523
▁akaitwa	-7524
▁dzinova	-7525
▁gungano	-7526
▁nekundi	-7527
▁nemombe	-7528
▁noruoko	-7529
▁somunhu	-7530
▁chakanga	-7531
▁kuitirwa	-7532
▁kusungwa	-7533
▁mushishi	-7534
▁mutopota	-7535
▁namafuta	-7536
▁rinoreva	-7537
▁yakaiswa	-7538
▁akasimuka	-7539
kwikwidzana	-7540
▁akavimbika	-7541
▁yekuchengeta	-7542
AC	-7543
ES	-7544
gar	-7545
Pane	-7546
Roma	-7547
dori	-7548
enry	-7549
meri	-7550
utho	-7551
▁Ber	-7552
▁edi	-7553
pfuyo	-7554
zouya	-7555
▁Acha	-7556
▁Imba	-7557
tector	-7558
▁mhere	-7559
▁ndimi	-7560
▁zviyo	-7561
▁pagomo	-7562
▁muvanhu	-7563
▁navamwe	-7564
▁nenyama	-7565
▁nenhumbi	-7566
▁neupenyu	-7567
▁nezvazvo	-7568
▁rapfuura	-7569
▁vachindi	-7570
▁kusimbisa	-7571
▁mitanhatu	-7572
▁nevashanu	-7573
vhiringidza	-7574
▁yekutsvaga	-7575
▁kuhurumende	-7576
▁nehanzvadzi	-7577
▁yehurumende	-7578
pos	-7579
uld	-7580
thyl	-7581
yima	-7582
▁kon	-7583
unoda	-7584
▁ipai	-7585
Johane	-7586
andisa	-7587
fonera	-7588
tarise	-7589
yakare	-7590
yanani	-7591
shuvira	-7592
yunyuta	-7593
▁kutapu	-7594
▁kuvapa	-7595
▁Kutanga	-7596
▁Zvakare	-7597
▁kuvimba	-7598
▁machira	-7599
▁wevanhu	-7600
rambidzwa	-7601
▁Internet	-7602
▁Mangwana	-7603
▁Vabereki	-7604
▁mutsindo	-7605
▁kwavakaita	-7606
▁vakasiyana	-7607
ED	-7608
ap	-7609
Zva	-7610
ers	-7611
form	-7612
hino	-7613
kopo	-7614
riti	-7615
sale	-7616
seke	-7617
▁but	-7618
▁dha	-7619
dombo	-7620
potsa	-7621
rutsa	-7622
thuli	-7623
▁Abhi	-7624
▁kaka	-7625
▁kugo	-7626
▁mute	-7627
▁rima	-7628
▁text	-7629
hotera	-7630
pinzwa	-7631
▁Danho	-7632
▁Haiwa	-7633
▁asiwo	-7634
▁awane	-7635
▁cheva	-7636
ssioner	-7637
▁Center	-7638
▁chimbi	-7639
▁kuudza	-7640
▁nhumbu	-7641
bepanhau	-7642
▁kumhuri	-7643
▁kunenge	-7644
▁mibairo	-7645
▁nemauto	-7646
▁urongwa	-7647
▁vachimu	-7648
▁wakaipa	-7649
zadzikisa	-7650
▁Mufundisi	-7651
▁wekambani	-7652
▁zvichiita	-7653
▁nehurongwa	-7654
▁nezvishanu	-7655
▁inotungamirwa	-7656
AD	-7657
Be	-7658
lis	-7659
-19,	-7660
rino	-7661
sasa	-7662
tapa	-7663
well	-7664
ying	-7665
▁use	-7666
▁vaE	-7667
ctors	-7668
ranci	-7669
tures	-7670
▁Regi	-7671
▁Tsva	-7672
▁made	-7673
▁waJe	-7674
▁waMa	-7675
mbirwa	-7676
▁waano	-7677
▁vemuno	-7678
▁yekuda	-7679
▁kurudyi	-7680
▁nanhasi	-7681
▁sevanhu	-7682
munzvimbo	-7683
▁Tambaoga	-7684
▁dzenyika	-7685
▁nemwedzi	-7686
▁nezvechi	-7687
▁Zvinyorwa	-7688
▁akataurwa	-7689
▁vatanhatu	-7690
▁zvinotyisa	-7691
▁ndinoshanda	-7692
▁nemaporofita	-7693
▁ndinotsvakawo	-7694
cb	-7695
ny	-7696
Kun	-7697
ben	-7698
hwi	-7699
ore	-7700
burg	-7701
ngwe	-7702
vera	-7703
▁emi	-7704
lympi	-7705
midze	-7706
omera	-7707
worth	-7708
▁Jeho	-7709
▁guva	-7710
homoni	-7711
kureva	-7712
vakira	-7713
▁nomwe	-7714
▁zvisa	-7715
bhejera	-7716
goridhe	-7717
pfuvura	-7718
▁kwaano	-7719
▁mukoti	-7720
vhunduka	-7721
▁ndokumu	-7722
▁nemimwe	-7723
▁Ikozvino	-7724
▁chisinga	-7725
▁nemuromo	-7726
▁rusvingo	-7727
▁wakaitwa	-7728
▁haufaniri	-7729
▁zvichingo	-7730
▁vashandise	-7731
▁rokusangana	-7732
kg	-7733
ils	-7734
▁(8	-7735
▁00	-7736
▁42	-7737
Zifa	-7738
curi	-7739
tswe	-7740
▁kua	-7741
▁naP	-7742
▁vol	-7743
▁waa	-7744
▁Mavi	-7745
▁Yeku	-7746
▁iyeye	-7747
▁namai	-7748
▁rwiyo	-7749
▁vauye	-7750
merican	-7751
yambuka	-7752
▁Organi	-7753
▁naJesu	-7754
▁nekupa	-7755
▁system	-7756
partment	-7757
▁dzevana	-7758
▁kutyora	-7759
bhindauko	-7760
▁ndinenge	-7761
▁nepakati	-7762
▁zvivakwa	-7763
▁kukodzera	-7764
▁kunetseka	-7765
▁kwemutemo	-7766
▁ruregerero	-7767
▁zvichikwira	-7768
▁vakatsinhira	-7769
▁Ndinotsvagawo	-7770
▁vakazvimirira	-7771
VID	-7772
ali	-7773
gwen	-7774
hazi	-7775
▁Mon	-7776
▁map	-7777
dzosa	-7778
pinyi	-7779
sviki	-7780
yadhi	-7781
▁2000	-7782
ithole	-7783
tevere	-7784
▁VaJoe	-7785
▁akaku	-7786
▁haadi	-7787
▁hweva	-7788
▁zvehu	-7789
Israeri	-7790
kwerete	-7791
▁havadi	-7792
▁inongo	-7793
▁kurege	-7794
gumisira	-7795
▁mugwaro	-7796
▁muminda	-7797
▁zvisati	-7798
batsirawo	-7799
tsakatika	-7800
▁Chirwere	-7801
▁Musikana	-7802
▁kunonoka	-7803
▁vaimbove	-7804
▁eZimbabwe	-7805
▁parameter	-7806
Highlanders	-7807
▁akakodzera	-7808
▁purogiramu	-7809
▁kubhadharwa	-7810
OS	-7811
sy	-7812
hon	-7813
▁SA	-7814
kuno	-7815
▁Hau	-7816
▁whi	-7817
angan	-7818
bhoni	-7819
ruoko	-7820
shama	-7821
trick	-7822
▁kuba	-7823
▁reRe	-7824
kunura	-7825
▁bhegi	-7826
▁iwoyo	-7827
▁izere	-7828
▁uremu	-7829
kuramba	-7830
▁matare	-7831
▁achiona	-7832
▁kubvuma	-7833
▁makadhi	-7834
▁munondo	-7835
▁vatanga	-7836
▁ndakaona	-7837
▁sezvaaka	-7838
tabeleland	-7839
▁kwekodzero	-7840
▁kusununguka	-7841
▁kufambidzana	-7842
MS	-7843
ate	-7844
col	-7845
ked	-7846
twe	-7847
tye	-7848
use	-7849
▁9.	-7850
▁Ed	-7851
dhea	-7852
koka	-7853
mano	-7854
sope	-7855
ssss	-7856
▁mho	-7857
▁mhu	-7858
▁tru	-7859
aneta	-7860
cture	-7861
lette	-7862
reiwo	-7863
▁page	-7864
musana	-7865
▁multi	-7866
▁komiti	-7867
▁madiki	-7868
▁mwenje	-7869
▁naIshe	-7870
▁shumba	-7871
▁tarisa	-7872
▁tsvuku	-7873
undation	-7874
▁anobata	-7875
▁nehasha	-7876
▁pamaoko	-7877
shingaira	-7878
▁achigara	-7879
▁akapihwa	-7880
▁mubereki	-7881
▁pekugara	-7882
▁pemutemo	-7883
▁vanofara	-7884
Democratic	-7885
▁kushaikwa	-7886
▁nevatambi	-7887
▁vanofunga	-7888
▁kumakwikwi	-7889
▁zvinokonzera	-7890
75	-7891
ches	-7892
ware	-7893
dzere	-7894
genic	-7895
hanya	-7896
jairi	-7897
radza	-7898
tsama	-7899
▁kuMu	-7900
▁medu	-7901
▁muta	-7902
▁raVa	-7903
rector	-7904
rirano	-7905
▁First	-7906
▁dombo	-7907
▁kwaro	-7908
andicha	-7909
outhern	-7910
tambanu	-7911
tinenge	-7912
▁bhodhi	-7913
▁plugin	-7914
▁rakati	-7915
migwagwa	-7916
miriyoni	-7917
zvokwadi	-7918
▁akamira	-7919
▁kuchera	-7920
▁matanda	-7921
▁panhare	-7922
▁paruoko	-7923
dzokorora	-7924
▁mubayiro	-7925
▁akaendesa	-7926
▁anondibata	-7927
▁nezvirwere	-7928
▁nechirongwa	-7929
ARV	-7930
gia	-7931
lori	-7932
nako	-7933
rusi	-7934
▁Max	-7935
▁PVC	-7936
▁Ter	-7937
▁Zim	-7938
▁ser	-7939
Chris	-7940
Farao	-7941
konzi	-7942
pfuva	-7943
▁Mate	-7944
▁word	-7945
pikira	-7946
▁humwe	-7947
▁kuine	-7948
▁munyu	-7949
▁uende	-7950
fambisi	-7951
▁chaive	-7952
▁mapazi	-7953
▁muimbi	-7954
bvumidza	-7955
kunamata	-7956
yadziswa	-7957
▁Mutambi	-7958
zivikanwe	-7959
zvinyorwa	-7960
▁VaGeorge	-7961
▁akwanise	-7962
▁kutengwa	-7963
▁nemukuru	-7964
▁pakupera	-7965
▁vakaungana	-7966
▁kugadzikana	-7967
▁nevakawanda	-7968
Kwe	-7969
fcon	-7970
fume	-7971
hail	-7972
▁kuP	-7973
▁may	-7974
anada	-7975
itike	-7976
pfura	-7977
yimwa	-7978
▁Hava	-7979
▁gomo	-7980
▁rive	-7981
Castle	-7982
German	-7983
graphy	-7984
poresa	-7985
uality	-7986
▁names	-7987
▁ndiwe	-7988
▁raaka	-7989
hailand	-7990
kuraira	-7991
sanangu	-7992
undutso	-7993
▁Casino	-7994
▁Shumba	-7995
▁kubika	-7996
▁makomo	-7997
▁rurimi	-7998
▁unouya	-7999
▁yekusa	-8000
bvumirwa	-8001
garisana	-8002
▁default	-8003
▁emawoko	-8004
▁pemvura	-8005
▁rwekuti	-8006
▁wakandi	-8007
dzingiswa	-8008
▁Chiwenga	-8009
▁akabvuma	-8010
▁chikomba	-8011
▁panjodzi	-8012
gadziriswe	-8013
▁Bhaibheri	-8014
▁anomirira	-8015
▁zvakajeka	-8016
▁Kushandisa	-8017
▁kuzvitonga	-8018
▁kutaurirana	-8019
▁kwakakurudzira	-8020
Ki	-8021
bwa	-8022
svu	-8023
▁43	-8024
▁55	-8025
Hati	-8026
hove	-8027
name	-8028
▁end	-8029
▁una	-8030
birwa	-8031
pfuri	-8032
redzi	-8033
tings	-8034
zekia	-8035
zheni	-8036
▁Read	-8037
▁Unga	-8038
▁inge	-8039
▁tese	-8040
▁yati	-8041
Moabhu	-8042
shorwa	-8043
tangwa	-8044
▁Maria	-8045
▁kuvhi	-8046
▁rwama	-8047
sabhuku	-8048
▁Vaviri	-8049
▁emvura	-8050
▁ngazvi	-8051
▁online	-8052
▁riripo	-8053
tomatiki	-8054
▁akasiya	-8055
▁anonzwa	-8056
▁mapfupa	-8057
▁vachizo	-8058
▁Bulawayo	-8059
▁Chirungu	-8060
▁kunamata	-8061
▁pamakore	-8062
mendenenzi	-8063
tyisidzira	-8064
▁mafambiro	-8065
▁ndokuenda	-8066
▁dzechikoro	-8067
▁kunakidzwa	-8068
▁muBulawayo	-8069
Parirenyatwa	-8070
▁pachipatara	-8071
shungurudzika	-8072
UM	-8073
ful	-8074
lid	-8075
ony	-8076
▁CA	-8077
▁UK	-8078
crip	-8079
stic	-8080
Japan	-8081
mbers	-8082
mster	-8083
urkey	-8084
wange	-8085
▁Form	-8086
▁rara	-8087
Satani	-8088
bikira	-8089
kurara	-8090
search	-8091
shinha	-8092
▁Aroni	-8093
▁Ndini	-8094
▁Watch	-8095
▁kwomu	-8096
▁vaisa	-8097
▁kumuka	-8098
▁mitezo	-8099
▁muboka	-8100
▁nzombe	-8101
▁rinopa	-8102
▁zvaiva	-8103
kiromita	-8104
▁Pfungwa	-8105
▁Vatambi	-8106
▁akanzwa	-8107
▁handidi	-8108
▁kudzika	-8109
▁kumunhu	-8110
▁muganhu	-8111
▁revanhu	-8112
▁zvakazo	-8113
▁kushanya	-8114
rondedzera	-8115
▁bhizinesi	-8116
▁pamarudzi	-8117
▁rakatanga	-8118
▁kushandira	-8119
▁sezvinoita	-8120
▁nevechidiki	-8121
▁Commissioner	-8122
▁kukurudzirwa	-8123
CTU	-8124
Dzi	-8125
via	-8126
Izvi	-8127
lera	-8128
masa	-8129
mban	-8130
meno	-8131
opia	-8132
▁Ara	-8133
▁Pen	-8134
▁mar	-8135
▁reF	-8136
dhara	-8137
enate	-8138
▁Mati	-8139
▁Prin	-8140
▁acid	-8141
▁enda	-8142
giresi	-8143
meroon	-8144
pupura	-8145
tsungi	-8146
▁Chero	-8147
▁necho	-8148
▁nyoro	-8149
▁paari	-8150
▁zveva	-8151
▁matani	-8152
▁rinoda	-8153
▁vatore	-8154
bvunzuru	-8155
▁Agricul	-8156
▁akadana	-8157
▁anoitwa	-8158
▁bhajeti	-8159
▁ichiita	-8160
bhizinesi	-8161
▁Business	-8162
▁vachizvi	-8163
▁kukoshesa	-8164
▁otomatiki	-8165
▁Foundation	-8166
▁Management	-8167
▁kudyidzana	-8168
▁vemuZimbabwe	-8169
▁Mutungamiriri	-8170
▁yakagadzirirwa	-8171
rac	-8172
pano	-8173
peti	-8174
▁bon	-8175
▁has	-8176
▁iya	-8177
sende	-8178
toria	-8179
▁Muse	-8180
▁Muti	-8181
▁VaDa	-8182
▁kudu	-8183
▁misi	-8184
kuudza	-8185
pworth	-8186
terial	-8187
▁munga	-8188
ratidze	-8189
▁chaivo	-8190
▁kuguma	-8191
▁mutero	-8192
▁vavano	-8193
▁ndikamu	-8194
▁nherera	-8195
▁padanho	-8196
▁vatange	-8197
▁yendege	-8198
▁chivanhu	-8199
▁kunyorwa	-8200
dunhurirwa	-8201
▁anowanikwa	-8202
▁rinofanira	-8203
▁kunobatsira	-8204
▁ndotsvagawo	-8205
▁nokutengesa	-8206
35	-8207
Ge	-8208
rl	-8209
▁46	-8210
beth	-8211
data	-8212
gaya	-8213
pare	-8214
ripo	-8215
▁Pay	-8216
▁col	-8217
▁neP	-8218
angle	-8219
antha	-8220
anzwa	-8221
chato	-8222
mbeze	-8223
odzan	-8224
rindi	-8225
vezwa	-8226
▁Club	-8227
▁anti	-8228
▁mava	-8229
▁yawo	-8230
pombwe	-8231
▁midzi	-8232
▁tsime	-8233
Ndinoda	-8234
sungano	-8235
▁aigara	-8236
▁ndaiva	-8237
▁vawana	-8238
▁yemuno	-8239
▁zvaino	-8240
pikisana	-8241
▁Mutengo	-8242
▁Panyaya	-8243
▁Ukraine	-8244
▁runhare	-8245
▁vatorwa	-8246
▁musiyano	-8247
▁pamusana	-8248
▁kudzivisa	-8249
▁kuzvipira	-8250
▁yemunyika	-8251
▁chinokosha	-8252
▁kumahofisi	-8253
5),	-8254
sel	-8255
sso	-8256
▁44	-8257
▁Ab	-8258
Mana	-8259
mhin	-8260
pane	-8261
pter	-8262
puta	-8263
riwo	-8264
▁Rou	-8265
▁neb	-8266
▁weE	-8267
Vamwe	-8268
board	-8269
danwa	-8270
gondo	-8271
inzwa	-8272
shuwo	-8273
▁Raka	-8274
▁hana	-8275
▁iite	-8276
▁mufi	-8277
▁nets	-8278
▁vape	-8279
▁varo	-8280
▁wiki	-8281
dokero	-8282
unungu	-8283
viriro	-8284
▁Forex	-8285
▁Maita	-8286
▁Stars	-8287
▁areka	-8288
▁custo	-8289
▁nheyo	-8290
▁rwizi	-8291
Chamisa	-8292
yevedza	-8293
▁Mwedzi	-8294
▁Tarisa	-8295
▁anotya	-8296
shandiso	-8297
▁Kusvika	-8298
▁VaObert	-8299
▁haisati	-8300
▁varidzi	-8301
▁wandaka	-8302
▁Tinogona	-8303
▁Zvikwata	-8304
▁rworudyi	-8305
▁vatsvene	-8306
Bhenjamini	-8307
odzanyemba	-8308
remekedzwa	-8309
▁chidzidzo	-8310
▁nesarudzo	-8311
▁munhoroondo	-8312
▁kunokwikwidza	-8313
22	-8314
BA	-8315
Mat	-8316
▁49	-8317
jena	-8318
mori	-8319
ruki	-8320
▁Col	-8321
▁Muz	-8322
▁Ten	-8323
▁gon	-8324
▁yeC	-8325
rench	-8326
uyisa	-8327
vious	-8328
wande	-8329
yandi	-8330
▁Mape	-8331
▁Word	-8332
▁aiti	-8333
▁bhan	-8334
curity	-8335
makumi	-8336
mazano	-8337
rayira	-8338
▁Media	-8339
▁Rural	-8340
▁Secon	-8341
▁apera	-8342
▁nharo	-8343
▁Chenge	-8344
▁mutori	-8345
▁parufu	-8346
iriyadhi	-8347
▁Airport	-8348
▁Maitiro	-8349
▁Vanoona	-8350
▁nedenda	-8351
▁kunotora	-8352
▁mhandara	-8353
▁naMozisi	-8354
▁nematatu	-8355
▁Maererano	-8356
▁kupindira	-8357
▁nekushaya	-8358
▁nemanomwe	-8359
▁kwemitengo	-8360
▁hutungamiri	-8361
▁namadzibaba	-8362
▁Vanoongorora	-8363
▁vakatarisana	-8364
199	-8365
ach	-8366
mat	-8367
▁8.	-8368
▁TV	-8369
sona	-8370
▁Dzv	-8371
▁weT	-8372
▁who	-8373
ctory	-8374
yunyu	-8375
▁Line	-8376
▁Prof	-8377
▁upfu	-8378
cademy	-8379
gezera	-8380
kungwa	-8381
▁Chipo	-8382
▁Ndiko	-8383
▁homwe	-8384
▁Minist	-8385
▁arambe	-8386
▁chenyu	-8387
▁masoja	-8388
▁tikiti	-8389
▁yegore	-8390
▁Izvozvi	-8391
▁Munyika	-8392
▁VaJacob	-8393
▁goridhe	-8394
▁nekuona	-8395
▁pevanhu	-8396
▁vaveren	-8397
▁Football	-8398
▁kumurume	-8399
▁Ichokwadi	-8400
▁chipatara	-8401
▁vanopfuura	-8402
▁nesekondari	-8403
▁vanotengesa	-8404
▁VaTsvangirai	-8405
▁weBhabhironi	-8406
BZ	-8407
GM	-8408
7),	-8409
Nor	-8410
geze	-8411
mate	-8412
muda	-8413
▁10.	-8414
▁Far	-8415
▁Stu	-8416
kanya	-8417
kuona	-8418
siria	-8419
▁Pris	-8420
▁VaZi	-8421
▁unon	-8422
sarira	-8423
string	-8424
▁Bhuku	-8425
▁hwayo	-8426
▁pfuti	-8427
kunyuka	-8428
mirirwa	-8429
tsanana	-8430
yiridzo	-8431
▁Ndicho	-8432
▁Nyasha	-8433
▁kureba	-8434
▁mbavha	-8435
▁muropa	-8436
vimbiswa	-8437
▁dzekuma	-8438
▁ndakava	-8439
▁nekuzvi	-8440
▁vavanhu	-8441
▁kugadzwa	-8442
▁mumusoro	-8443
▁pahekita	-8444
▁vashanyi	-8445
▁zvichava	-8446
▁nemidziyo	-8447
▁pamuzinda	-8448
▁vakapihwa	-8449
▁ekufambisa	-8450
▁kwaJehovha	-8451
▁paWhatsApp	-8452
▁kwakanyanya	-8453
▁zvakanyorwa	-8454
▁Zvichakadaro	-8455
HO	-8456
3),	-8457
▁!!	-8458
▁im	-8459
dule	-8460
hena	-8461
heno	-8462
idzo	-8463
rami	-8464
ream	-8465
sert	-8466
suka	-8467
toti	-8468
tubu	-8469
▁Box	-8470
▁Bro	-8471
▁Dar	-8472
▁epa	-8473
bhora	-8474
chano	-8475
cheto	-8476
girwa	-8477
lator	-8478
media	-8479
simbe	-8480
▁Manu	-8481
▁name	-8482
▁vaye	-8483
anetsa	-8484
angisa	-8485
garira	-8486
tsvage	-8487
▁ivavo	-8488
▁taura	-8489
▁donzvo	-8490
▁ichava	-8491
▁inouya	-8492
▁ravaka	-8493
▁ungano	-8494
▁unobva	-8495
kanyatso	-8496
taurirwa	-8497
▁Pashure	-8498
▁cheLive	-8499
formation	-8500
▁mumazuva	-8501
▁template	-8502
▁tsanangu	-8503
▁kuwaniswa	-8504
▁dzehupfumi	-8505
▁zvemadhora	-8506
▁akatarisana	-8507
▁chegomarara	-8508
▁kuchengetwa	-8509
▁kuchengeteka	-8510
lat	-8511
sty	-8512
yer	-8513
inal	-8514
pose	-8515
suwo	-8516
zhou	-8517
zven	-8518
▁400	-8519
gunun	-8520
▁News	-8521
▁VaSa	-8522
▁back	-8523
▁veva	-8524
rangwa	-8525
tanley	-8526
▁Check	-8527
▁Judha	-8528
▁Moses	-8529
▁emari	-8530
▁error	-8531
▁pauno	-8532
anthate	-8533
dzitiro	-8534
kutaura	-8535
tambiro	-8536
tsaurwa	-8537
▁Design	-8538
bhadharo	-8539
▁anotora	-8540
▁chaicho	-8541
▁nemisha	-8542
▁varombo	-8543
paradzira	-8544
▁chidimbu	-8545
▁chinoita	-8546
▁reUnited	-8547
▁Kuwedzera	-8548
▁kwesvondo	-8549
▁mukurwisa	-8550
▁yesarudzo	-8551
▁vanopikisa	-8552
▁yakawandisa	-8553
198	-8554
Ita	-8555
asi	-8556
bri	-8557
0776	-8558
dary	-8559
isai	-8560
text	-8561
zaru	-8562
▁upi	-8563
▁yeM	-8564
ctive	-8565
ering	-8566
linic	-8567
pedyo	-8568
viron	-8569
zwika	-8570
▁Muka	-8571
▁poda	-8572
▁tive	-8573
bhoamu	-8574
bhodhi	-8575
itenge	-8576
mhanyi	-8577
mukuru	-8578
▁Mombe	-8579
▁Women	-8580
▁kuoma	-8581
Mukadzi	-8582
sikirwe	-8583
taridza	-8584
▁Monica	-8585
▁tafura	-8586
▁webasa	-8587
kuvadzwa	-8588
vhizheni	-8589
▁Kutaura	-8590
▁kuChina	-8591
▁kudomwa	-8592
▁vekunze	-8593
tonhorera	-8594
▁dzinoita	-8595
▁namazana	-8596
▁zvaunoda	-8597
▁nekanzuru	-8598
▁nezviviri	-8599
▁vanotenda	-8600
▁kuparadzwa	-8601
▁kuverengwa	-8602
▁naVaNelson	-8603
AP	-8604
4),	-8605
cot	-8606
tel	-8607
zin	-8608
▁FS	-8609
▁Ji	-8610
hing	-8611
peta	-8612
riko	-8613
roma	-8614
▁ata	-8615
aster	-8616
bhena	-8617
entre	-8618
pedia	-8619
pinge	-8620
Tinoda	-8621
rovera	-8622
rumini	-8623
inipisa	-8624
mutauro	-8625
▁Engine	-8626
▁German	-8627
▁Mhando	-8628
▁ipairs	-8629
▁nenzwi	-8630
ongorore	-8631
▁Sarudzo	-8632
▁ezviuru	-8633
▁ranhasi	-8634
▁rinobva	-8635
▁Mumiriri	-8636
▁kubhadha	-8637
▁kuvatori	-8638
▁ndichida	-8639
▁pazororo	-8640
▁vatyairi	-8641
▁Education	-8642
▁vanofamba	-8643
▁kukurukura	-8644
ywa	-8645
Talk	-8646
cell	-8647
kono	-8648
riya	-8649
rowa	-8650
▁Del	-8651
▁Raw	-8652
▁Vol	-8653
▁Wal	-8654
▁kuU	-8655
▁pcb	-8656
dzane	-8657
dzvin	-8658
pengo	-8659
revei	-8660
shamu	-8661
tanwa	-8662
▁nesa	-8663
chekwa	-8664
kokota	-8665
rasika	-8666
zoenda	-8667
▁bhazi	-8668
▁ngoni	-8669
rekedzo	-8670
unifomu	-8671
▁Anondi	-8672
▁reHigh	-8673
▁nomweya	-8674
Jorodhani	-8675
▁Research	-8676
▁chitsama	-8677
▁matikiti	-8678
▁muchinda	-8679
▁ndichiri	-8680
▁pundutso	-8681
▁vakatiwo	-8682
ruminiyamu	-8683
tsungirira	-8684
▁kudzingwa	-8685
▁nechikamu	-8686
▁fungidziro	-8687
▁makurukota	-8688
45	-8689
2019	-8690
bine	-8691
elds	-8692
ging	-8693
sane	-8694
toni	-8695
▁Bio	-8696
▁fol	-8697
▁mas	-8698
▁muD	-8699
▁muE	-8700
▁rou	-8701
▁Guta	-8702
▁kosi	-8703
▁main	-8704
▁naPa	-8705
Ziyoni	-8706
kandwa	-8707
perera	-8708
▁Autho	-8709
▁Insta	-8710
▁awana	-8711
▁first	-8712
▁naivo	-8713
▁tinga	-8714
▁urege	-8715
Germany	-8716
▁gungwa	-8717
▁navose	-8718
▁ngaave	-8719
▁Britain	-8720
▁rakaita	-8721
▁tezvara	-8722
▁vapihwe	-8723
▁werimwe	-8724
yandigere	-8725
▁akanyora	-8726
▁anorwira	-8727
▁bepanhau	-8728
▁machinda	-8729
▁muEurope	-8730
▁papurazi	-8731
▁vakamira	-8732
▁kuendeswa	-8733
▁kunetsana	-8734
▁navaranda	-8735
▁vezvikoro	-8736
▁inowedzera	-8737
▁wegurukota	-8738
▁dzinofanira	-8739
▁zvinowanikwa	-8740
23	-8741
9,	-8742
ky	-8743
roi	-8744
▁pu	-8745
pper	-8746
umbi	-8747
▁Gar	-8748
▁any	-8749
▁ngu	-8750
▁yeE	-8751
dhari	-8752
stone	-8753
▁Eria	-8754
▁nako	-8755
▁vapa	-8756
batane	-8757
▁Mandi	-8758
▁Mwaka	-8759
▁Prote	-8760
▁Ranga	-8761
▁agare	-8762
▁ndega	-8763
▁ngoro	-8764
erekana	-8765
jairika	-8766
▁abatwa	-8767
▁girazi	-8768
▁munhau	-8769
▁ngaaku	-8770
▁nyanga	-8771
▁anotiwo	-8772
▁imhosva	-8773
▁kufadza	-8774
▁muhondo	-8775
▁nekudya	-8776
▁netsoka	-8777
▁remvura	-8778
shandiswe	-8779
▁Shandisa	-8780
▁memazuva	-8781
▁neAmerica	-8782
▁ushamwari	-8783
enderekedzo	-8784
shambadzira	-8785
▁aruminiyamu	-8786
▁mabhiriyoni	-8787
▁yeparamende	-8788
▁kuMozambique	-8789
▁kutambudzika	-8790
▁Akatungamirira	-8791
Mun	-8792
Sha	-8793
gna	-8794
mar	-8795
try	-8796
stor	-8797
vava	-8798
▁HGH	-8799
▁muZ	-8800
Paris	-8801
ching	-8802
dyira	-8803
dziya	-8804
place	-8805
right	-8806
▁Ruka	-8807
▁kwaa	-8808
▁ndee	-8809
▁riya	-8810
▁bheji	-8811
▁vango	-8812
▁Mafuta	-8813
▁hofisi	-8814
▁kumupa	-8815
▁naAmai	-8816
▁nekuma	-8817
▁Twitter	-8818
▁inobata	-8819
▁wandino	-8820
▁yamambo	-8821
burikidza	-8822
▁Mushonga	-8823
▁nedzimba	-8824
▁akarurama	-8825
▁chipfambi	-8826
▁dzehutano	-8827
▁nomukadzi	-8828
pangamazano	-8829
▁kuratidzwa	-8830
▁kwaizvozvo	-8831
▁chepamusoro	-8832
▁zvichingodaro	-8833
▁inotungamirirwa	-8834
28	-8835
UT	-8836
os	-8837
'')	-8838
▁47	-8839
Jona	-8840
godo	-8841
ties	-8842
wiki	-8843
▁Ali	-8844
▁Cro	-8845
▁lin	-8846
▁set	-8847
cheke	-8848
gwadi	-8849
ingle	-8850
mibia	-8851
zinga	-8852
▁Asia	-8853
▁Mupa	-8854
▁aone	-8855
▁date	-8856
▁semi	-8857
▁uite	-8858
omerwa	-8859
ritira	-8860
▁tanga	-8861
▁wekwa	-8862
▁zvaro	-8863
▁System	-8864
▁kuzere	-8865
▁nevari	-8866
▁zvaive	-8867
▁neSouth	-8868
▁pamhepo	-8869
▁vapinde	-8870
▁yeSouth	-8871
▁Botswana	-8872
▁akashaya	-8873
▁marwadzo	-8874
▁mutsvene	-8875
▁ngaarege	-8876
shoropodza	-8877
▁kutambura	-8878
▁nevasikana	-8879
▁inoshandisa	-8880
▁kukubatsira	-8881
▁nezvizvarwa	-8882
▁anoshandiswa	-8883
▁nezvesarudzo	-8884
▁zvinokonzerwa	-8885
Fi	-8886
▁El	-8887
keti	-8888
lion	-8889
ziyo	-8890
▁Gen	-8891
▁May	-8892
▁ona	-8893
batwe	-8894
telli	-8895
▁Mbeu	-8896
▁auya	-8897
▁novu	-8898
tsinye	-8899
vement	-8900
zvinei	-8901
▁Ndiwo	-8902
▁Power	-8903
▁muChi	-8904
▁nekwa	-8905
▁wezve	-8906
mbomira	-8907
▁achino	-8908
▁wakamu	-8909
▁weguta	-8910
chengeti	-8911
ridzirwa	-8912
▁achango	-8913
▁choupfu	-8914
▁muzvina	-8915
bhenakeri	-8916
kumbirawo	-8917
▁Economic	-8918
▁Jeremiya	-8919
▁internet	-8920
▁panyanga	-8921
▁Nhoroondo	-8922
▁handizive	-8923
▁kubudiswa	-8924
▁kusangano	-8925
▁kwaMutare	-8926
▁muBotswana	-8927
▁nekushanda	-8928
▁yechivanhu	-8929
▁zvichienda	-8930
▁kuvandudzwa	-8931
▁mucherechedzo	-8932
IK	-8933
To	-8934
tem	-8935
▁At	-8936
'''.	-8937
0777	-8938
back	-8939
bara	-8940
dows	-8941
kone	-8942
read	-8943
sian	-8944
tupo	-8945
word	-8946
▁nil	-8947
aniel	-8948
mized	-8949
mvuri	-8950
pombi	-8951
sting	-8952
▁Last	-8953
▁Ning	-8954
▁kutu	-8955
▁maga	-8956
androl	-8957
inashe	-8958
▁Sezva	-8959
▁inter	-8960
▁panda	-8961
▁panga	-8962
▁rwuri	-8963
▁waita	-8964
angudya	-8965
itrogen	-8966
rumbira	-8967
ssional	-8968
▁Mutasa	-8969
▁murefu	-8970
▁pfambi	-8971
▁weimba	-8972
tongerwa	-8973
▁Mitambo	-8974
▁chiduku	-8975
▁mavhoti	-8976
▁vakunda	-8977
androlone	-8978
kombiyuta	-8979
▁Previous	-8980
▁mumawoko	-8981
▁munununa	-8982
▁mupurisa	-8983
▁nevasere	-8984
▁norugare	-8985
▁kuchenesa	-8986
▁nekufamba	-8987
▁nemadhora	-8988
▁kusarudzwa	-8989
▁nekushandisa	-8990
▁vakakurudzira	-8991
.)	-8992
kes	-8993
thy	-8994
Kune	-8995
fati	-8996
itei	-8997
rome	-8998
roti	-8999
tial	-9000
ucha	-9001
▁Ani	-9002
▁One	-9003
▁ang	-9004
▁sea	-9005
funda	-9006
garwa	-9007
munya	-9008
seven	-9009
▁hand	-9010
▁over	-9011
▁siku	-9012
▁yata	-9013
mbenge	-9014
misasa	-9015
siyiwa	-9016
▁Custo	-9017
▁Unoda	-9018
▁banga	-9019
▁muPSL	-9020
▁necha	-9021
▁pavai	-9022
▁uchin	-9023
shekeri	-9024
▁kozoti	-9025
▁kugeza	-9026
▁kunova	-9027
▁mikuru	-9028
▁ndauya	-9029
▁vanopa	-9030
tsvagira	-9031
▁DeMbare	-9032
▁Medical	-9033
▁madziro	-9034
▁zviduku	-9035
anisation	-9036
▁akahwina	-9037
▁mitsetse	-9038
▁mutsvuku	-9039
dyandigere	-9040
▁Achitaura	-9041
▁chakaitwa	-9042
▁muUkraine	-9043
▁kunotsvaga	-9044
▁yakazivisa	-9045
▁pachirongwa	-9046
▁remakurukota	-9047
Ve	-9048
’.	-9049
Iye	-9050
tisa	-9051
tope	-9052
zini	-9053
▁Bho	-9054
omesa	-9055
ption	-9056
unura	-9057
uraye	-9058
▁Good	-9059
▁Shan	-9060
▁Star	-9061
tongwe	-9062
▁Multi	-9063
▁Ukuwo	-9064
▁iyoyi	-9065
▁ngoma	-9066
▁pazvo	-9067
▁range	-9068
dzikisa	-9069
maphosa	-9070
▁Kariba	-9071
▁Police	-9072
▁chaano	-9073
▁hutsva	-9074
▁kwezva	-9075
▁tapota	-9076
▁wainzi	-9077
▁bhatiri	-9078
▁kunoona	-9079
▁kutambi	-9080
▁kuzoita	-9081
▁makanga	-9082
▁muchiti	-9083
▁vanomwe	-9084
bvumidzwe	-9085
zvikokota	-9086
▁akaraira	-9087
▁jenareta	-9088
▁neSvondo	-9089
▁vabayiwa	-9090
▁vashande	-9091
▁vazivisa	-9092
▁yakajeka	-9093
▁zvidhoma	-9094
▁VaSikhala	-9095
▁dzakaitwa	-9096
▁nemuroora	-9097
▁pavanenge	-9098
▁vagadziri	-9099
▁Andifarira	-9100
▁zvakadzama	-9101
▁Mifananidzo	-9102
▁nechipiriso	-9103
▁dzamadzibaba	-9104
▁zvakatemerwa	-9105
▁kucherechedza	-9106
▁vemunharaunda	-9107
▁yerusununguko	-9108
▁vanokurudzirwa	-9109
5%	-9110
kw	-9111
2),	-9112
ANA	-9113
dex	-9114
pal	-9115
▁cy	-9116
anta	-9117
door	-9118
hoto	-9119
rien	-9120
romu	-9121
siye	-9122
sper	-9123
view	-9124
zomu	-9125
▁Dou	-9126
▁Exe	-9127
cheme	-9128
jenya	-9129
mbiru	-9130
olden	-9131
▁Mine	-9132
▁Wire	-9133
▁hedu	-9134
▁only	-9135
▁rehu	-9136
▁uone	-9137
▁zvou	-9138
ccount	-9139
tsunga	-9140
vhinga	-9141
▁Shiri	-9142
▁White	-9143
▁ndimu	-9144
▁veMDC	-9145
Handina	-9146
zodzoka	-9147
▁Mapeza	-9148
▁muzuva	-9149
▁raramo	-9150
▁wavaka	-9151
Pirisita	-9152
rerekera	-9153
svikirwa	-9154
tendeuka	-9155
▁hwevana	-9156
▁nedanho	-9157
▁ramambo	-9158
▁shongwe	-9159
perekedza	-9160
shereketa	-9161
zwisisika	-9162
▁Charamba	-9163
▁achiziva	-9164
▁kundorwa	-9165
▁weHarare	-9166
▁weUnited	-9167
▁Makambani	-9168
▁kunaMwari	-9169
▁mufundisi	-9170
▁navakadzi	-9171
▁ndinogara	-9172
▁chechipiri	-9173
▁zvinoenderana	-9174
6),	-9175
dwe	-9176
ons	-9177
▁5,	-9178
▁PC	-9179
▁Ts	-9180
▁py	-9181
cate	-9182
tana	-9183
tini	-9184
usan	-9185
zama	-9186
▁150	-9187
▁USA	-9188
▁waE	-9189
tasva	-9190
▁Unit	-9191
▁VaRa	-9192
▁hapa	-9193
▁ibwe	-9194
▁kude	-9195
Buhera	-9196
angoda	-9197
hwindi	-9198
sitoma	-9199
sungun	-9200
▁Metal	-9201
▁Tenga	-9202
▁hwehu	-9203
▁ndimo	-9204
▁there	-9205
▁tione	-9206
▁yaari	-9207
logical	-9208
rogenic	-9209
rovedza	-9210
sekonzi	-9211
vonekwa	-9212
▁Mavima	-9213
▁Mwenje	-9214
▁VaJohn	-9215
▁kereke	-9216
▁kwaChi	-9217
▁makuva	-9218
▁wandei	-9219
▁zvanga	-9220
jekiseni	-9221
▁choushe	-9222
▁misodzi	-9223
▁network	-9224
▁vaigara	-9225
▁vamwewo	-9226
▁Congress	-9227
▁cheshuga	-9228
▁navaviri	-9229
▁remakore	-9230
▁uchapupu	-9231
▁yemurume	-9232
▁kutonhora	-9233
▁vanhurume	-9234
▁vaverengi	-9235
▁Department	-9236
▁Vachitaurawo	-9237
▁zvinonhuwira	-9238
77	-9239
cka	-9240
ppe	-9241
▁DC	-9242
▁IS	-9243
▁iP	-9244
0782	-9245
dent	-9246
drau	-9247
gure	-9248
gutu	-9249
Trump	-9250
baric	-9251
dirwa	-9252
lated	-9253
▁1000	-9254
▁Nhau	-9255
▁Plan	-9256
▁adzo	-9257
▁fomu	-9258
▁paya	-9259
▁used	-9260
Malawi	-9261
Manase	-9262
bhengi	-9263
cutive	-9264
garisa	-9265
mhanga	-9266
▁Ramba	-9267
▁ivava	-9268
▁pakun	-9269
▁riine	-9270
▁umboo	-9271
draulic	-9272
koshera	-9273
rondera	-9274
wadzana	-9275
zosvika	-9276
▁Ningbo	-9277
▁Belgium	-9278
▁Tattoos	-9279
▁ndokuno	-9280
▁mumatare	-9281
▁nevagari	-9282
▁mugungano	-9283
▁zvinonetsa	-9284
!”	-9285
$1	-9286
0,	-9287
GS	-9288
8),	-9289
gre	-9290
aida	-9291
cker	-9292
licy	-9293
lock	-9294
onia	-9295
rate	-9296
tian	-9297
zhen	-9298
▁1-0	-9299
▁pur	-9300
▁reW	-9301
chana	-9302
mocra	-9303
onary	-9304
sandi	-9305
▁Kuru	-9306
▁mazi	-9307
dhinha	-9308
suwisa	-9309
terere	-9310
vanzwa	-9311
▁Mpofu	-9312
▁Ngezi	-9313
▁reChi	-9314
chereke	-9315
rambana	-9316
▁Provin	-9317
▁Charles	-9318
▁Chikoro	-9319
▁Gamuchi	-9320
▁Samueri	-9321
▁Zvadaro	-9322
▁chiripo	-9323
▁hadzisi	-9324
▁murombo	-9325
▁nehondo	-9326
▁kwemwana	-9327
▁mapoinzi	-9328
▁pamabasa	-9329
▁yakadaro	-9330
Jerusarema	-9331
Washington	-9332
▁Community	-9333
▁akangwara	-9334
▁bhasikoro	-9335
▁dzinogara	-9336
▁kumarudzi	-9337
▁rechipiri	-9338
▁vachigara	-9339
▁wechitatu	-9340
dzimotokari	-9341
▁rinoratidza	-9342
chengetedzeka	-9343
▁Organisation	-9344
▁nemapfumbamwe	-9345
▁vanozivikanwa	-9346
0)	-9347
Su	-9348
rew	-9349
tam	-9350
tus	-9351
▁Af	-9352
Gore	-9353
date	-9354
hivi	-9355
life	-9356
mall	-9357
shoo	-9358
vose	-9359
yuku	-9360
▁Hot	-9361
▁Run	-9362
▁bvu	-9363
▁neD	-9364
Italy	-9365
chard	-9366
irira	-9367
lling	-9368
ndefa	-9369
runga	-9370
turwa	-9371
▁abve	-9372
▁code	-9373
▁mama	-9374
▁unit	-9375
diriro	-9376
engeza	-9377
pwanya	-9378
zabeth	-9379
▁Diana	-9380
▁Dzino	-9381
▁Grace	-9382
▁hupfu	-9383
▁reCon	-9384
dzikira	-9385
hanhatu	-9386
rakidza	-9387
sangane	-9388
takaita	-9389
zwisise	-9390
▁Satani	-9391
▁miromo	-9392
▁vatora	-9393
▁ichibva	-9394
▁nokuzvi	-9395
▁takaona	-9396
▁vanyori	-9397
komisheni	-9398
yengetero	-9399
▁ikwanise	-9400
▁kunogara	-9401
▁kwaMambo	-9402
▁nechinhu	-9403
▁Ndinoziva	-9404
tsanangurwa	-9405
▁Ministries	-9406
▁VaTafadzwa	-9407
▁dzechivanhu	-9408
▁kudzidziswa	-9409
▁mukugadzira	-9410
▁muzvidzidzo	-9411
▁zvehurumende	-9412
1),	-9413
▁Sp	-9414
dale	-9415
dies	-9416
enal	-9417
frey	-9418
pool	-9419
reka	-9420
side	-9421
sisi	-9422
▁Mer	-9423
▁Nem	-9424
▁naZ	-9425
▁our	-9426
▁yeD	-9427
chipa	-9428
dudza	-9429
habhi	-9430
onaya	-9431
rency	-9432
rough	-9433
toita	-9434
▁VaMi	-9435
▁args	-9436
▁ngai	-9437
bolone	-9438
jekesa	-9439
ricket	-9440
tsvuka	-9441
▁mbesa	-9442
▁messa	-9443
dzisiro	-9444
gumbeze	-9445
murenga	-9446
shumiri	-9447
▁Israel	-9448
▁Mugore	-9449
▁kufona	-9450
▁mahara	-9451
▁ndudzi	-9452
▁runako	-9453
▁values	-9454
berekera	-9455
▁aritari	-9456
▁kudyiwa	-9457
▁kunyara	-9458
▁menduru	-9459
▁midzimu	-9460
▁murairo	-9461
▁pachine	-9462
▁pamunhu	-9463
▁pamwero	-9464
▁raMambo	-9465
▁zvatiri	-9466
▁akatorwa	-9467
▁nyeredzi	-9468
▁rakakura	-9469
▁zvipfuwo	-9470
▁VaZiyambi	-9471
▁makubhiti	-9472
▁achishanda	-9473
▁mararamiro	-9474
▁zvinopiswa	-9475
▁zvinowanzo	-9476
▁Zvichitevera	-9477
BS	-9478
way	-9479
ingi	-9480
ziya	-9481
▁19.	-9482
▁Mid	-9483
▁Tsa	-9484
▁War	-9485
bhari	-9486
shika	-9487
unday	-9488
zembe	-9489
zonzi	-9490
zviti	-9491
▁Icho	-9492
▁Kare	-9493
▁Kuva	-9494
▁Shen	-9495
▁cheA	-9496
▁papi	-9497
goneka	-9498
kunaya	-9499
▁Ndoku	-9500
▁murwi	-9501
▁ndoda	-9502
▁nedze	-9503
▁nhovo	-9504
▁nzizi	-9505
▁paita	-9506
▁paiva	-9507
▁rabha	-9508
▁rucha	-9509
farirwa	-9510
▁kukuva	-9511
▁unoona	-9512
▁yakapa	-9513
▁Hezekia	-9514
▁Kanzuru	-9515
▁chavano	-9516
▁ichango	-9517
▁kukwana	-9518
▁kuvhura	-9519
▁kwaitwa	-9520
▁mumisha	-9521
▁vachipa	-9522
▁zvemari	-9523
renbolone	-9524
▁Tafadzwa	-9525
▁dhigirii	-9526
▁inokwana	-9527
▁kunyenge	-9528
▁kwandaka	-9529
▁mimhanzi	-9530
▁muUnited	-9531
▁muhofisi	-9532
▁munoziva	-9533
shevedzera	-9534
▁dambarefu	-9535
▁namarudzi	-9536
▁rakakosha	-9537
▁Ndinofunga	-9538
▁akasangana	-9539
▁dzakachena	-9540
▁kuferefeta	-9541
▁nezvehutano	-9542
▁nevarairidzi	-9543
21	-9544
HA	-9545
RO	-9546
ZI	-9547
9),	-9548
Pre	-9549
ned	-9550
nia	-9551
Form	-9552
Vaka	-9553
mers	-9554
posh	-9555
suku	-9556
ukai	-9557
▁Aya	-9558
▁Mit	-9559
Bheti	-9560
bindu	-9561
mbuko	-9562
mited	-9563
zvoku	-9564
▁Kusa	-9565
▁uzvi	-9566
keting	-9567
rsenal	-9568
shambi	-9569
wanira	-9570
▁Bhara	-9571
▁Simon	-9572
▁ranga	-9573
▁rinon	-9574
▁tinya	-9575
detembo	-9576
dzvinyi	-9577
kondomu	-9578
▁hwenyu	-9579
▁kurega	-9580
▁nemuma	-9581
pembedza	-9582
▁dzisati	-9583
▁kurimwa	-9584
▁kuyedza	-9585
▁vaMwari	-9586
▁vatongi	-9587
kwanisika	-9588
▁WhatsApp	-9589
▁kubudisa	-9590
▁kuponesa	-9591
▁muchechi	-9592
▁naambuya	-9593
▁namazuva	-9594
▁ndianiko	-9595
▁neshungu	-9596
▁uchawana	-9597
▁Authority	-9598
▁chezvinhu	-9599
▁pamutambo	-9600
▁vanoshaya	-9601
chengeterwa	-9602
▁hutachiona	-9603
▁kugoverana	-9604
▁kutambirwa	-9605
▁reBulawayo	-9606
▁vakazvipira	-9607
▁dzakakwirira	-9608
▁vemabhizimisi	-9609
GO	-9610
nd	-9611
mit	-9612
▁Th	-9613
kiwa	-9614
puru	-9615
rapy	-9616
seji	-9617
▁Ona	-9618
▁Ren	-9619
▁flo	-9620
▁mon	-9621
Dombo	-9622
ities	-9623
▁Insp	-9624
▁obva	-9625
▁tsva	-9626
▁umwe	-9627
gumira	-9628
ridzwa	-9629
vuraya	-9630
▁March	-9631
▁Spain	-9632
▁Steel	-9633
▁Tsika	-9634
▁chayo	-9635
▁dumbu	-9636
▁kudza	-9637
▁manje	-9638
▁tenzi	-9639
▁waChi	-9640
diridza	-9641
gentina	-9642
mbidzai	-9643
ringana	-9644
▁Ndinga	-9645
▁ndaona	-9646
▁nevaka	-9647
▁payaka	-9648
▁vamire	-9649
▁yekare	-9650
tsaurira	-9651
▁noMweya	-9652
▁unoziva	-9653
▁vaAmoni	-9654
▁wamambo	-9655
▁zvamaka	-9656
ferefetwa	-9657
musangano	-9658
▁ndakazvi	-9659
▁nemufaro	-9660
▁Parizvino	-9661
▁akabatana	-9662
▁hazvirevi	-9663
▁yakasvika	-9664
▁akawanikwa	-9665
▁vekumaruwa	-9666
▁hwejekerere	-9667
▁vachitsvaga	-9668
▁yunivhesiti	-9669
▁akazvitakura	-9670
▁vakasarudzwa	-9671
mus	-9672
rau	-9673
rio	-9674
▁1:	-9675
▁41	-9676
guri	-9677
hoko	-9678
hosi	-9679
puka	-9680
uses	-9681
▁Via	-9682
▁pam	-9683
▁was	-9684
bhini	-9685
tirwa	-9686
▁Life	-9687
▁book	-9688
▁link	-9689
▁undo	-9690
onstan	-9691
onyora	-9692
▁aiita	-9693
▁navan	-9694
▁wanga	-9695
▁wokwa	-9696
▁yanda	-9697
▁zvemi	-9698
lessing	-9699
mupengo	-9700
teereri	-9701
▁Joabhu	-9702
▁Kuziva	-9703
▁Simuka	-9704
▁kupora	-9705
▁kwadzo	-9706
▁mhanzi	-9707
▁regumi	-9708
perbaric	-9709
▁hachisi	-9710
▁vaigona	-9711
▁vakaisa	-9712
▁wemwana	-9713
bhusaromu	-9714
fungisisa	-9715
remekedzo	-9716
▁Mishonga	-9717
▁dzokurwa	-9718
▁kwekudya	-9719
▁mutariri	-9720
▁muwanano	-9721
▁nezvitima	-9722
▁chisimbiso	-9723
▁rakazivisa	-9724
▁vanofarira	-9725
▁chinofanira	-9726
▁wehurumende	-9727
▁yemendenenzi	-9728
▁Ndinokutendai	-9729
27	-9730
DP	-9731
OT	-9732
Un	-9733
ney	-9734
9.00	-9735
chel	-9736
cine	-9737
pres	-9738
tomu	-9739
▁Pea	-9740
▁Vhi	-9741
▁see	-9742
▁vaa	-9743
▁weM	-9744
Munhu	-9745
ancer	-9746
dhuku	-9747
dzamu	-9748
harma	-9749
hydro	-9750
iddle	-9751
kunde	-9752
splay	-9753
tadzi	-9754
ticha	-9755
▁Post	-9756
▁Reso	-9757
▁VaAn	-9758
▁Yave	-9759
▁Kuzvi	-9760
▁Ndika	-9761
▁hydro	-9762
▁tiine	-9763
bhajeti	-9764
dzvanyi	-9765
mutambo	-9766
▁Global	-9767
▁mapeji	-9768
▁veimba	-9769
▁Inogona	-9770
▁Private	-9771
▁kuWorld	-9772
▁kumiswa	-9773
▁kusango	-9774
▁ndiyani	-9775
▁paMwari	-9776
▁quality	-9777
▁vakadai	-9778
▁vatadza	-9779
▁vehondo	-9780
▁inotyisa	-9781
▁ndinoita	-9782
▁vamiriri	-9783
▁zvinongo	-9784
▁Wikipedia	-9785
▁akapfuura	-9786
▁kombiyuta	-9787
▁nekutenga	-9788
▁nemitambo	-9789
▁wekubvisa	-9790
▁zvipiriso	-9791
mbunyikidza	-9792
shandisirwo	-9793
zvininipisa	-9794
▁Jerusarema	-9795
▁Zviratidzo	-9796
▁andifarira	-9797
▁kunhandare	-9798
▁mhemberero	-9799
▁munhukadzi	-9800
▁mushandisi	-9801
▁vachipinda	-9802
▁yakanyanya	-9803
▁tinofanirwa	-9804
▁zvinopfuura	-9805
mhenderekedzo	-9806
▁Semuenzaniso	-9807
▁chinoshamisa	-9808
85	-9809
RP	-9810
RT	-9811
mq	-9812
vy	-9813
REE	-9814
got	-9815
lam	-9816
▁65	-9817
▁By	-9818
Seed	-9819
bayi	-9820
cing	-9821
dege	-9822
jeni	-9823
rime	-9824
ston	-9825
woku	-9826
▁Dha	-9827
▁Mag	-9828
▁ada	-9829
▁mat	-9830
▁new	-9831
▁weW	-9832
itari	-9833
misha	-9834
renzi	-9835
shani	-9836
shaye	-9837
ssing	-9838
tsanu	-9839
urura	-9840
▁auye	-9841
▁futi	-9842
Josefa	-9843
entral	-9844
pokana	-9845
vakisa	-9846
yangwe	-9847
▁Funga	-9848
▁Muson	-9849
▁dongo	-9850
▁famba	-9851
▁rwema	-9852
▁vakai	-9853
dudzira	-9854
kwereta	-9855
manyepo	-9856
sidents	-9857
▁aJudha	-9858
▁kudivi	-9859
▁kwaive	-9860
▁rinova	-9861
▁wababa	-9862
▁yebasa	-9863
▁anowana	-9864
▁chinoti	-9865
▁kusunga	-9866
▁kwatino	-9867
▁ndirege	-9868
▁anofunga	-9869
▁chisungo	-9870
▁mumuromo	-9871
▁sechinhu	-9872
▁akanyorwa	-9873
▁nemunyori	-9874
▁wakatanga	-9875
▁zvataurwa	-9876
▁Switzerland	-9877
▁nevatanhatu	-9878
▁nhepfenyuro	-9879
▁rekuAmerica	-9880
▁Organization	-9881
▁vakafanobata	-9882
▁yemubatanidzwa	-9883
▁75	-9884
▁mg	-9885
ffic	-9886
hati	-9887
izvi	-9888
lley	-9889
meja	-9890
moka	-9891
sket	-9892
vers	-9893
yats	-9894
▁wel	-9895
lythe	-9896
round	-9897
▁Home	-9898
▁Poly	-9899
▁VaKu	-9900
▁mwan	-9901
▁ripi	-9902
London	-9903
yemura	-9904
▁Hondo	-9905
▁ibasa	-9906
▁padyo	-9907
▁shuga	-9908
▁tende	-9909
kananga	-9910
▁dzinga	-9911
▁muzita	-9912
European	-9913
▁Kodzero	-9914
▁YouTube	-9915
▁kumberi	-9916
▁menyika	-9917
▁mutorwa	-9918
▁mutsara	-9919
▁rezvema	-9920
▁vadzoke	-9921
pukunyuka	-9922
sungirira	-9923
▁akadzoka	-9924
▁chandino	-9925
▁chiteshi	-9926
▁kuvakuru	-9927
▁nevarimi	-9928
▁yekuenda	-9929
▁zvinomwe	-9930
fambisirwo	-9931
shongedzwa	-9932
shushikana	-9933
▁Elizabeth	-9934
▁matarenda	-9935
▁ndinogona	-9936
▁rakasvika	-9937
▁zvehutano	-9938
▁kwemagetsi	-9939
▁muMasvingo	-9940
▁nezvidhoma	-9941
kurukurirana	-9942
▁vakasangana	-9943
▁Parirenyatwa	-9944
▁dzinovaraidza	-9945
▁semutungamiri	-9946
▁remadunhurirwa	-9947
bru	-9948
gic	-9949
ooo	-9950
▁$6	-9951
0774	-9952
hori	-9953
▁Art	-9954
▁Min	-9955
▁Rus	-9956
▁ehu	-9957
▁gra	-9958
▁his	-9959
▁met	-9960
▁muu	-9961
▁paE	-9962
gumba	-9963
oogle	-9964
rambi	-9965
▁Copy	-9966
▁Data	-9967
▁Seri	-9968
▁gasi	-9969
▁some	-9970
poinzi	-9971
tapira	-9972
tariro	-9973
▁India	-9974
▁akare	-9975
▁dziva	-9976
▁inozo	-9977
▁ngura	-9978
▁wePSL	-9979
▁Masowe	-9980
▁magumo	-9981
pupurira	-9982
tevedzwa	-9983
zadziswa	-9984
▁Academy	-9985
▁dzavari	-9986
▁dzinoda	-9987
▁kuonana	-9988
▁ndiende	-9989
▁zvitupa	-9990
kamutanda	-9991
ongororwe	-9992
▁District	-9993
▁Mwonzora	-9994
▁Ndatenda	-9995
▁akapfeka	-9996
▁kubayiwa	-9997
▁kumakuva	-9998
▁namaviri	-9999
▁nechimbi	-10000
▁vanotora	-10001
▁zvakange	-10002
cherekedza	-10003
▁Madzorera	-10004
▁Pakutanga	-10005
▁haafaniri	-10006
▁kuzadzisa	-10007
▁rakatorwa	-10008
▁zvaakanga	-10009
▁Veruzhinji	-10010
▁kufambiswa	-10011
▁yemishonga	-10012
▁vakakwanisa	-10013
▁yepuraimari	-10014
▁vanoongorora	-10015
MA	-10016
WA	-10017
▁$3	-10018
▁66	-10019
▁TB	-10020
mpty	-10021
reji	-10022
rena	-10023
▁197	-10024
▁Get	-10025
▁Out	-10026
▁Tsu	-10027
bhuka	-10028
order	-10029
ramwa	-10030
rocco	-10031
sekwa	-10032
tsiga	-10033
tyama	-10034
zvera	-10035
▁Ange	-10036
▁Food	-10037
▁Tags	-10038
▁neKu	-10039
▁weti	-10040
gramme	-10041
poneso	-10042
ruzivo	-10043
zvenga	-10044
▁Award	-10045
▁Haana	-10046
▁Night	-10047
▁kutyi	-10048
▁kwawo	-10049
▁pache	-10050
▁resul	-10051
buritse	-10052
postora	-10053
runhare	-10054
tonhora	-10055
▁Mazita	-10056
▁Nezuva	-10057
▁ataure	-10058
▁pataka	-10059
▁pekuti	-10060
▁Sarudza	-10061
▁Station	-10062
▁kudaira	-10063
▁kutyira	-10064
▁kwebasa	-10065
▁nembiri	-10066
▁nemhuka	-10067
▁pandino	-10068
▁yakambo	-10069
▁yatanga	-10070
▁American	-10071
▁Kushanda	-10072
▁Security	-10073
▁Zvokudya	-10074
▁chezvivi	-10075
▁inofadza	-10076
▁kuchaita	-10077
▁namafuro	-10078
▁ndikaona	-10079
▁nomuromo	-10080
▁vachaita	-10081
▁Chizvarwa	-10082
▁Zvinoreva	-10083
▁mubumbiro	-10084
kanganisika	-10085
▁Murairidzi	-10086
▁rezvedzidzo	-10087
▁kusunungurwa	-10088
▁zvakaipisisa	-10089
SF	-10090
deo	-10091
lit	-10092
rri	-10093
inen	-10094
poto	-10095
rari	-10096
▁God	-10097
▁Phi	-10098
▁add	-10099
▁twa	-10100
▁yeN	-10101
bsite	-10102
dhuri	-10103
hinos	-10104
mheno	-10105
vamba	-10106
vengo	-10107
▁Alex	-10108
▁kuGo	-10109
▁rati	-10110
bhangi	-10111
bvunze	-10112
daidza	-10113
pedzwa	-10114
tyorwa	-10115
▁State	-10116
▁Whole	-10117
▁chivi	-10118
▁ngaku	-10119
Samaria	-10120
dzanisa	-10121
paradze	-10122
▁Musoro	-10123
▁Robert	-10124
▁apinda	-10125
▁bhande	-10126
▁dzaive	-10127
▁hwechi	-10128
▁manzwi	-10129
▁mudiwa	-10130
▁nokuru	-10131
▁nzungu	-10132
▁regore	-10133
riritira	-10134
tumidzwa	-10135
▁Nenguva	-10136
▁kuchena	-10137
▁kumwana	-10138
▁kupinza	-10139
▁kwapera	-10140
▁mugwara	-10141
verengeka	-10142
▁VaTendai	-10143
▁kuUnited	-10144
▁kuvarimi	-10145
▁Secondary	-10146
▁akasungwa	-10147
▁komisheni	-10148
▁kufambira	-10149
▁kunotenga	-10150
▁namashoko	-10151
▁vanopinda	-10152
▁akakwanisa	-10153
▁makemikari	-10154
▁migumisiro	-10155
▁mudhorobha	-10156
▁rechinomwe	-10157
▁wakarurama	-10158
▁zvakazoita	-10159
▁kurangarira	-10160
▁kuremekedza	-10161
▁vakagadzirira	-10162
▁zvakagadzirwa	-10163
▁nezvekudyidzana	-10164
IP	-10165
20.	-10166
Con	-10167
ety	-10168
▁AP	-10169
▁IP	-10170
▁My	-10171
Fari	-10172
Izvo	-10173
jiri	-10174
manu	-10175
mory	-10176
reni	-10177
star	-10178
tand	-10179
tapi	-10180
teme	-10181
▁Fin	-10182
▁Top	-10183
▁Wor	-10184
▁muU	-10185
▁neH	-10186
▁non	-10187
Grade	-10188
Hongu	-10189
areka	-10190
fudza	-10191
ganho	-10192
netsa	-10193
▁Blog	-10194
▁FREE	-10195
▁Jane	-10196
▁bhin	-10197
▁list	-10198
▁tisa	-10199
Israel	-10200
Kwekwe	-10201
gation	-10202
papers	-10203
ropafa	-10204
tapuri	-10205
tsenga	-10206
tsitsi	-10207
▁katsi	-10208
▁mbuya	-10209
▁ndoga	-10210
▁nevhu	-10211
▁vanzi	-10212
Sabhuku	-10213
idlands	-10214
otropin	-10215
rangana	-10216
▁Social	-10217
▁dzeMDC	-10218
▁gakava	-10219
▁guruva	-10220
▁ichida	-10221
▁mafaro	-10222
▁murima	-10223
▁muriwo	-10224
▁number	-10225
▁pamari	-10226
▁wakaku	-10227
dzidziso	-10228
hwendefa	-10229
msterdam	-10230
▁Izvozvo	-10231
▁dzakati	-10232
▁kwakare	-10233
▁mugodhi	-10234
▁nechipi	-10235
▁playing	-10236
▁unogara	-10237
▁vakaipa	-10238
▁vapihwa	-10239
ingindira	-10240
paradzana	-10241
▁akakosha	-10242
▁akakunda	-10243
▁anofamba	-10244
▁anopinda	-10245
▁kumisika	-10246
▁munhabvu	-10247
▁nehutano	-10248
▁vakatiza	-10249
Tsvangirai	-10250
▁dziviriro	-10251
▁kufambisa	-10252
▁kumitambo	-10253
▁mutsigiri	-10254
▁parameters	-10255
▁Highlanders	-10256
▁zvakanakira	-10257
▁zvebhizimisi	-10258
▁zvinogadzirwa	-10259
▁zvinotarisirwa	-10260
-7	-10261
36	-10262
Di	-10263
Zve	-10264
dah	-10265
fix	-10266
▁2:	-10267
args	-10268
honi	-10269
sure	-10270
teya	-10271
▁Bra	-10272
▁How	-10273
▁gar	-10274
▁neI	-10275
▁pri	-10276
▁reH	-10277
▁syn	-10278
romba	-10279
▁Meya	-10280
▁Rose	-10281
▁SADC	-10282
▁gara	-10283
Mutare	-10284
dedera	-10285
▁2018.	-10286
▁Henry	-10287
▁hongu	-10288
▁iriko	-10289
▁tsaru	-10290
▁zvapa	-10291
Nigeria	-10292
gamated	-10293
ratidzi	-10294
▁London	-10295
▁akaoma	-10296
▁chaiva	-10297
▁chinon	-10298
▁inzira	-10299
▁vanzwa	-10300
kadzidza	-10301
tukirira	-10302
▁Lawyers	-10303
▁Michael	-10304
▁akaiswa	-10305
▁mbereko	-10306
▁nekutya	-10307
▁Warriors	-10308
▁chevanhu	-10309
▁dzavanhu	-10310
▁kufanira	-10311
▁kusimuka	-10312
▁mahofisi	-10313
▁ndakango	-10314
▁neUnited	-10315
▁Mumashoko	-10316
▁Residents	-10317
▁Wholesale	-10318
▁vakapfeka	-10319
▁vanotanga	-10320
▁Muchuchisi	-10321
▁akazvipira	-10322
▁kuruboshwe	-10323
▁anotsinhira	-10324
▁kunoratidza	-10325
▁mabhindauko	-10326
▁muzvirongwa	-10327
▁wemutauriri	-10328
▁mubatanidzwa	-10329
▁kuMashonaland	-10330
▁naVaMnangagwa	-10331
▁reInternational	-10332
ek	-10333
Man	-10334
▁eA	-10335
iver	-10336
vice	-10337
wizi	-10338
▁Hal	-10339
▁ain	-10340
▁gwa	-10341
mbodo	-10342
mical	-10343
shumo	-10344
sters	-10345
▁Bata	-10346
▁mubi	-10347
▁neya	-10348
Sabata	-10349
itirei	-10350
kwashe	-10351
pfurwa	-10352
ponesi	-10353
tamban	-10354
tegory	-10355
tsumwa	-10356
▁Kudya	-10357
▁Revai	-10358
▁asisa	-10359
▁check	-10360
▁donje	-10361
▁inclu	-10362
▁nyora	-10363
▁their	-10364
▁vezve	-10365
▁zvepa	-10366
svitswa	-10367
tadzira	-10368
thiopia	-10369
▁Nemusi	-10370
▁Thomas	-10371
▁kufema	-10372
▁zvange	-10373
aramende	-10374
rechedza	-10375
▁Prophet	-10376
▁hamunga	-10377
▁kushora	-10378
▁muchato	-10379
▁mumwaka	-10380
▁munzeve	-10381
▁naAroni	-10382
▁pakuita	-10383
▁tichida	-10384
fananidza	-10385
ratidzika	-10386
singazive	-10387
▁kwandino	-10388
▁parwendo	-10389
▁romwedzi	-10390
paradzirwa	-10391
▁VaConstan	-10392
▁nekutaura	-10393
▁pazvikamu	-10394
▁vakanyora	-10395
▁Bhabhironi	-10396
▁Kubudirira	-10397
▁Muporofita	-10398
▁kutarisana	-10399
▁mienzaniso	-10400
▁muhusungwa	-10401
▁nechisimba	-10402
▁vachifamba	-10403
▁zvemagetsi	-10404
▁vanotambira	-10405
▁yekugadzira	-10406
▁Somuenzaniso	-10407
▁akatevedzana	-10408
▁yakatarisana	-10409
▁vanotarisirwa	-10410
:00	-10411
als	-10412
cam	-10413
cla	-10414
del	-10415
pic	-10416
raw	-10417
▁1)	-10418
esti	-10419
llen	-10420
mise	-10421
ners	-10422
rect	-10423
tuke	-10424
vada	-10425
vern	-10426
▁20.	-10427
▁Fal	-10428
▁cor	-10429
Ticha	-10430
danda	-10431
demba	-10432
gunwe	-10433
matic	-10434
tsuwa	-10435
ziwai	-10436
▁2012	-10437
▁Anna	-10438
▁Boka	-10439
▁Just	-10440
▁Tour	-10441
▁Work	-10442
▁chaa	-10443
▁cheS	-10444
▁dema	-10445
mereki	-10446
nokuti	-10447
stance	-10448
zhizha	-10449
▁kwaMa	-10450
▁other	-10451
▁pasuo	-10452
▁uripo	-10453
tandard	-10454
tangisa	-10455
urungwe	-10456
▁Rhinos	-10457
▁kuguta	-10458
▁Chimiro	-10459
▁Sikhala	-10460
▁mavhiki	-10461
▁miganhu	-10462
▁ndosaka	-10463
▁vakanzi	-10464
▁yemvura	-10465
▁akakwira	-10466
▁kumusika	-10467
▁Tinotenda	-10468
▁Zvizvarwa	-10469
▁akaroorwa	-10470
▁anofarira	-10471
▁handizivi	-10472
▁mutengesi	-10473
stitutional	-10474
▁Muenzaniso	-10475
▁kwakakwana	-10476
▁pamubhedha	-10477
▁yokugezera	-10478
yakagadzirwa	-10479
▁kwemishonga	-10480
▁kutsanangura	-10481
▁nevapfumbamwe	-10482
37	-10483
ml	-10484
now	-10485
par	-10486
▁NY	-10487
▁Of	-10488
▁tw	-10489
Bata	-10490
CAPS	-10491
bako	-10492
dzwi	-10493
inia	-10494
mish	-10495
rles	-10496
rora	-10497
sage	-10498
tern	-10499
▁Haa	-10500
▁Joe	-10501
▁Sur	-10502
▁Tai	-10503
Ndine	-10504
kunwa	-10505
value	-10506
▁Gold	-10507
▁Plus	-10508
▁Year	-10509
▁like	-10510
▁raro	-10511
▁they	-10512
▁time	-10513
Sekuru	-10514
bruary	-10515
ctober	-10516
hannes	-10517
mwenje	-10518
sungwe	-10519
▁Dunhu	-10520
▁about	-10521
▁akada	-10522
▁azere	-10523
▁menyu	-10524
▁naChi	-10525
▁saizi	-10526
gadzire	-10527
zunungu	-10528
▁Vakamu	-10529
▁format	-10530
▁kuzova	-10531
▁nokumu	-10532
▁upamhi	-10533
Cameroon	-10534
▁Kingdom	-10535
▁mukuita	-10536
▁murwizi	-10537
▁nehunhu	-10538
▁sirivha	-10539
▁takanga	-10540
▁vanyore	-10541
shandirwa	-10542
shongedza	-10543
▁Mangwiro	-10544
▁akauraya	-10545
▁inotanga	-10546
▁ndakaita	-10547
▁vanowana	-10548
▁yaKristu	-10549
▁zvakadii	-10550
▁zvitunha	-10551
dingindira	-10552
mhemberero	-10553
▁nebumbiro	-10554
▁pakatanga	-10555
▁remunyika	-10556
▁vachiziva	-10557
▁vaifanira	-10558
▁vakwegura	-10559
▁zvemukati	-10560
▁kukanganwa	-10561
▁kutatarika	-10562
▁cheLiveTalk	-10563
▁mashomanana	-10564
▁vakawanikwa	-10565
▁vemunzvimbo	-10566
▁zvakavanzika	-10567
▁nemutevedzeri	-10568
TM	-10569
kh	-10570
oki	-10571
oti	-10572
rop	-10573
▁54	-10574
▁PS	-10575
''',	-10576
gudo	-10577
pfen	-10578
▁600	-10579
▁por	-10580
▁tri	-10581
alifi	-10582
reswa	-10583
rpool	-10584
sumbu	-10585
▁Gene	-10586
▁comp	-10587
▁true	-10588
▁zivo	-10589
enegal	-10590
kraini	-10591
pisira	-10592
rekera	-10593
vhinzi	-10594
▁Green	-10595
▁Nyoka	-10596
▁dzisa	-10597
▁mwari	-10598
▁ringa	-10599
totanga	-10600
tsvaira	-10601
vheneka	-10602
▁Pasina	-10603
▁Unions	-10604
▁kurota	-10605
▁muzive	-10606
▁vabuda	-10607
▁vakura	-10608
tsetseka	-10609
wirirane	-10610
▁Zvikoro	-10611
▁hachina	-10612
▁kutsiva	-10613
▁mikombe	-10614
▁nekunze	-10615
▁vashaya	-10616
▁detector	-10617
pfurikidza	-10618
▁Chinangwa	-10619
▁Copyright	-10620
▁Wikimedia	-10621
▁achifamba	-10622
▁mufainari	-10623
▁nematombo	-10624
▁revavhoti	-10625
batsirikana	-10626
gadziridzwa	-10627
▁Chekutanga	-10628
▁inonakidza	-10629
▁vachiramba	-10630
▁vaporofita	-10631
▁yakabatana	-10632
▁rwokumusoro	-10633
▁Vakafanobata	-10634
▁pamuchinjikwa	-10635
31	-10636
xe	-10637
ars	-10638
sea	-10639
▁56	-10640
▁lu	-10641
0773	-10642
2018	-10643
bama	-10644
mark	-10645
vero	-10646
▁Bhi	-10647
▁Pra	-10648
▁mbo	-10649
bheni	-10650
chene	-10651
rowth	-10652
rumbi	-10653
vinga	-10654
zirwa	-10655
▁Kufa	-10656
▁waKu	-10657
garava	-10658
insert	-10659
koreji	-10660
shasha	-10661
yamita	-10662
zadzwa	-10663
zaruka	-10664
▁Games	-10665
▁James	-10666
▁Manda	-10667
▁aingo	-10668
▁danda	-10669
▁mairi	-10670
▁ndigo	-10671
▁vhiri	-10672
▁waive	-10673
katanwa	-10674
pedzera	-10675
yengeri	-10676
▁Agency	-10677
▁Barbra	-10678
▁Mitemo	-10679
▁Pasuwa	-10680
▁People	-10681
▁Sweden	-10682
▁padare	-10683
▁pamoyo	-10684
▁vabati	-10685
▁yekuva	-10686
▁zvauri	-10687
kanganwi	-10688
virazuva	-10689
▁Science	-10690
▁Support	-10691
▁haasati	-10692
▁kumuona	-10693
▁maronda	-10694
▁semhuri	-10695
▁tichiti	-10696
▁vafambi	-10697
tsutsumwa	-10698
▁Manyuchi	-10699
▁chirango	-10700
▁kuungana	-10701
▁kwakabva	-10702
▁vakasiya	-10703
tambanudza	-10704
▁Kusvikira	-10705
▁bhiriyoni	-10706
▁insurance	-10707
▁kuAmerica	-10708
▁nevanomwe	-10709
▁vachiwana	-10710
▁kwakakosha	-10711
▁rimwechete	-10712
▁zvavanenge	-10713
▁Kushandiswa	-10714
▁kubatanidza	-10715
▁kusanganisa	-10716
▁mumasekonzi	-10717
▁nevanhurume	-10718
▁panofanirwa	-10719
▁vanotambura	-10720
▁yekubatsira	-10721
▁zvakafanira	-10722
▁nemuporofita	-10723
▁nekugadzirisa	-10724
▁yekuchengetedza	-10725
:0	-10726
nel	-10727
nis	-10728
pte	-10729
rdi	-10730
var	-10731
heel	-10732
than	-10733
wone	-10734
▁073	-10735
▁120	-10736
▁196	-10737
▁Big	-10738
▁CNC	-10739
▁cam	-10740
▁paT	-10741
cious	-10742
cular	-10743
gumbo	-10744
humba	-10745
kanwi	-10746
phone	-10747
stria	-10748
svina	-10749
tsivi	-10750
▁Play	-10751
▁Stre	-10752
▁Tari	-10753
▁hwai	-10754
▁hwin	-10755
▁seyi	-10756
Zvinhu	-10757
chuchu	-10758
ctoria	-10759
fields	-10760
rambwa	-10761
ssword	-10762
tafura	-10763
tepfen	-10764
tsanzi	-10765
vigira	-10766
wanana	-10767
▁Villa	-10768
▁anoku	-10769
▁atino	-10770
▁confi	-10771
▁haazi	-10772
▁hwemu	-10773
▁vushe	-10774
▁yazvo	-10775
gwarira	-10776
▁Brazil	-10777
▁kukopa	-10778
▁kukupa	-10779
▁nokuku	-10780
▁vachan	-10781
dzoserwa	-10782
▁akamuka	-10783
▁chinova	-10784
▁ndibate	-10785
▁nezvina	-10786
▁remunhu	-10787
▁wasvika	-10788
▁Material	-10789
▁Ndichaku	-10790
▁akanwisa	-10791
▁akapedza	-10792
▁dzichiri	-10793
▁kuparara	-10794
▁kurwiswa	-10795
▁makamuri	-10796
▁nedonzvo	-10797
▁dzemihoro	-10798
▁naMuzvare	-10799
▁ndakaenda	-10800
▁nokutenda	-10801
▁vachaenda	-10802
▁vakatadza	-10803
rondedzerwa	-10804
▁Democratic	-10805
▁Protection	-10806
▁kwekushaya	-10807
▁namachinda	-10808
▁ndezvekuti	-10809
▁ndinofunga	-10810
▁yakanyorwa	-10811
▁zvitanhatu	-10812
▁zvinoshanda	-10813
▁rezvekudyidzana	-10814
CD	-10815
-30	-10816
fin	-10817
arwa	-10818
edhe	-10819
itle	-10820
link	-10821
stru	-10822
tsai	-10823
▁Des	-10824
▁Mba	-10825
▁Mus	-10826
▁kuW	-10827
▁naN	-10828
▁weB	-10829
dzore	-10830
hingi	-10831
koooo	-10832
shuva	-10833
toona	-10834
tsoro	-10835
urayi	-10836
▁Kupa	-10837
▁huka	-10838
▁kuhu	-10839
▁mase	-10840
▁vait	-10841
▁wani	-10842
sineyi	-10843
varume	-10844
▁Paaka	-10845
▁Press	-10846
▁amene	-10847
▁atora	-10848
▁kuora	-10849
▁makon	-10850
manyoka	-10851
sayenzi	-10852
yunyuto	-10853
▁Clinic	-10854
▁Johane	-10855
▁apihwa	-10856
▁chaaka	-10857
▁iPhone	-10858
▁kusika	-10859
▁rameja	-10860
▁uchiri	-10861
▁variku	-10862
rairidza	-10863
tomatisi	-10864
▁Mugadzi	-10865
▁kuripwa	-10866
▁matende	-10867
▁pandiri	-10868
▁uchinge	-10869
▁vatenda	-10870
▁kudzinga	-10871
▁kukundwa	-10872
▁kutyaira	-10873
▁kuvharwa	-10874
▁memakore	-10875
▁mizhinji	-10876
▁napakati	-10877
▁pamuromo	-10878
▁wapfuura	-10879
▁zvidimbu	-10880
Dambudziko	-10881
tepfenyura	-10882
▁VaDouglas	-10883
▁mapuranga	-10884
▁nechikafu	-10885
▁zvaakaita	-10886
▁Abhusaromu	-10887
▁akakwirira	-10888
▁inoshamisa	-10889
▁kumabhanga	-10890
▁nemusikana	-10891
zvidzivirira	-10892
▁inokurudzira	-10893
▁zvifananidzo	-10894
▁kwezvikonzero	-10895
▁nekusimudzira	-10896
▁nemwanakomana	-10897
FP	-10898
203	-10899
RBZ	-10900
tis	-10901
▁78	-10902
▁86	-10903
▁eZ	-10904
Kara	-10905
ally	-10906
gori	-10907
huwa	-10908
medu	-10909
mily	-10910
ropi	-10911
siko	-10912
thon	-10913
▁Mac	-10914
▁Mwa	-10915
▁OEM	-10916
▁Sol	-10917
▁VaV	-10918
▁bil	-10919
▁naH	-10920
perty	-10921
shana	-10922
ssive	-10923
▁Deli	-10924
▁nhun	-10925
▁year	-10926
celona	-10927
chovha	-10928
gitare	-10929
gwenya	-10930
hlanga	-10931
loride	-10932
mukoti	-10933
▁Kamwe	-10934
▁anzwa	-10935
▁mabwe	-10936
▁muswe	-10937
Muzvare	-10938
vupenyu	-10939
▁French	-10940
▁Kunzwa	-10941
▁Mthuli	-10942
▁hatisi	-10943
▁navaka	-10944
▁nemoto	-10945
▁nepasi	-10946
▁tiende	-10947
▁vaiita	-10948
▁vevana	-10949
▁wakava	-10950
▁wemari	-10951
▁yataka	-10952
▁yeguta	-10953
bhodhoro	-10954
krainian	-10955
pupuriro	-10956
zvokudya	-10957
▁Project	-10958
▁Sithole	-10959
▁Windows	-10960
▁achiuya	-10961
▁kunwisa	-10962
▁message	-10963
▁ndisati	-10964
▁zvasiya	-10965
mubatsira	-10966
yatsoziva	-10967
▁Kunyanya	-10968
▁Mhinduro	-10969
▁Mukomana	-10970
▁achinzwa	-10971
▁chembere	-10972
▁dzinobva	-10973
▁kukuvara	-10974
▁mumhanzi	-10975
▁nemazita	-10976
▁yezororo	-10977
▁hwehutano	-10978
▁kutumirwa	-10979
▁namashanu	-10980
▁vatengesi	-10981
▁majekiseni	-10982
▁rondedzero	-10983
▁sezvakanga	-10984
▁vacharamba	-10985
▁kushambadza	-10986
▁nezvipiriso	-10987
▁zvinoonekwa	-10988
▁reManicaland	-10989
▁yekugadzirisa	-10990
▁yakachengeteka	-10991
ww	-10992
Cho	-10993
ced	-10994
cke	-10995
lio	-10996
ond	-10997
tte	-10998
▁2)	-10999
▁IM	-11000
0775	-11001
hire	-11002
kiki	-11003
lers	-11004
sive	-11005
stal	-11006
stat	-11007
xtra	-11008
zovi	-11009
▁1-1	-11010
▁Dze	-11011
▁Net	-11012
▁raa	-11013
▁sms	-11014
Kubva	-11015
trice	-11016
xygen	-11017
▁Hand	-11018
▁vozo	-11019
bereke	-11020
dhonza	-11021
korera	-11022
mbirai	-11023
wisira	-11024
▁Gumbo	-11025
▁Susan	-11026
▁ichin	-11027
▁musuo	-11028
▁neMDC	-11029
▁raShe	-11030
▁which	-11031
svetuka	-11032
tsemuka	-11033
uchikwa	-11034
vharira	-11035
zikanwa	-11036
▁Darwin	-11037
▁Harris	-11038
▁Makoni	-11039
▁akanzi	-11040
▁kirasi	-11041
▁mabhan	-11042
▁nedemo	-11043
▁sikuta	-11044
▁wakazo	-11045
▁wavano	-11046
Internet	-11047
stration	-11048
▁anodiwa	-11049
▁mupunga	-11050
▁namabwe	-11051
▁ndodawo	-11052
▁sarudza	-11053
▁uchange	-11054
▁zvawaka	-11055
andinenge	-11056
▁Vasikana	-11057
▁dzesango	-11058
▁ekutanga	-11059
▁vemapato	-11060
bhadharira	-11061
▁Evhangeri	-11062
▁achipinda	-11063
▁kutevedza	-11064
▁vakadzoka	-11065
▁Mudzidzisi	-11066
▁achangobva	-11067
▁havafaniri	-11068
▁yemapurisa	-11069
▁zvakashata	-11070
▁hutachiwana	-11071
▁inogadzirwa	-11072
▁mirayiridzo	-11073
▁pachinhanho	-11074
▁ekudzivirira	-11075
▁navanasikana	-11076
▁yakashandiswa	-11077
Ya	-11078
pl	-11079
zz	-11080
Mai	-11081
▁Mc	-11082
▁mm	-11083
fana	-11084
gers	-11085
gypt	-11086
hovo	-11087
kuya	-11088
onai	-11089
ripi	-11090
rons	-11091
tozo	-11092
urai	-11093
yeri	-11094
▁20,	-11095
▁Cal	-11096
▁Rod	-11097
▁Tou	-11098
▁sup	-11099
dward	-11100
rubhi	-11101
vande	-11102
▁Aids	-11103
▁Dari	-11104
▁Pira	-11105
▁Tika	-11106
▁VaDe	-11107
▁VaPe	-11108
▁Yoku	-11109
▁aaka	-11110
Farise	-11111
anghai	-11112
anuary	-11113
arirea	-11114
chinga	-11115
dangwe	-11116
sanaya	-11117
shanga	-11118
weight	-11119
▁Analy	-11120
▁Great	-11121
▁Micro	-11122
▁Ngava	-11123
▁Zvoku	-11124
▁aibva	-11125
▁akura	-11126
▁dzina	-11127
▁hosha	-11128
▁mudzi	-11129
▁waShe	-11130
▁zvawa	-11131
▁zvawo	-11132
chester	-11133
cotland	-11134
sungisa	-11135
website	-11136
▁Tsvaga	-11137
▁chiito	-11138
▁unozvi	-11139
▁Mamombe	-11140
▁Mission	-11141
▁Sadunhu	-11142
▁VaChris	-11143
▁bhatani	-11144
▁kuitawo	-11145
▁kukohwa	-11146
▁magweta	-11147
▁mutende	-11148
▁yerudzi	-11149
komborero	-11150
tambudzwa	-11151
▁Chiremba	-11152
▁Roulette	-11153
▁aifanira	-11154
▁hazvinga	-11155
▁tichiita	-11156
▁tinonzwa	-11157
▁vachiuya	-11158
▁vakanaka	-11159
▁zvaanoda	-11160
▁Kurudziro	-11161
▁kudzamara	-11162
▁kushumira	-11163
▁rakasimba	-11164
▁vakatenda	-11165
▁venzvimbo	-11166
▁yakadzika	-11167
▁chiwanikwa	-11168
▁yechirwere	-11169
▁Agriculture	-11170
▁kuzadzikisa	-11171
▁pehurumende	-11172
33	-11173
As	-11174
▁?	-11175
cra	-11176
ged	-11177
lee	-11178
nie	-11179
pes	-11180
▁58	-11181
West	-11182
berg	-11183
cted	-11184
loyd	-11185
ming	-11186
wose	-11187
xico	-11188
▁Don	-11189
▁Nje	-11190
▁Rwe	-11191
▁Ver	-11192
▁get	-11193
▁inf	-11194
▁net	-11195
▁vaS	-11196
anani	-11197
arimi	-11198
bheru	-11199
cetam	-11200
kwara	-11201
kwire	-11202
mbire	-11203
mhura	-11204
ongon	-11205
renta	-11206
tenzi	-11207
▁User	-11208
▁ezve	-11209
▁paMu	-11210
▁soku	-11211
mbondi	-11212
popota	-11213
steron	-11214
vengwa	-11215
▁Dress	-11216
▁Mazwi	-11217
▁Youth	-11218
▁unoku	-11219
gariswa	-11220
izvozvi	-11221
sungira	-11222
▁digita	-11223
▁dzaiva	-11224
▁kurasa	-11225
▁neZanu	-11226
▁unongo	-11227
▁wavana	-11228
▁yavana	-11229
endarira	-11230
kosheswa	-11231
tarisisa	-11232
tsamwira	-11233
ustralia	-11234
▁Acetate	-11235
▁Chicken	-11236
▁akatiza	-11237
▁chaidzo	-11238
▁chikepe	-11239
▁dzedare	-11240
▁mishanu	-11241
▁muchida	-11242
▁muchiso	-11243
▁neshiri	-11244
▁pavhiki	-11245
▁rinoita	-11246
▁unonzwa	-11247
chamhembe	-11248
chipatara	-11249
kanganiso	-11250
pindirana	-11251
▁Makadini	-11252
▁asingadi	-11253
▁chishuwo	-11254
▁dzinongo	-11255
▁kuEurope	-11256
▁nemafuta	-11257
▁pazviuru	-11258
malgamated	-11259
▁Instagram	-11260
▁Marketing	-11261
▁akaremara	-11262
▁rechitatu	-11263
▁rinokosha	-11264
▁vachitiwo	-11265
▁vadzokere	-11266
bhadhariswa	-11267
▁mumwechete	-11268
▁paIsiraeri	-11269
▁zvekusvika	-11270
bhabhatidzwa	-11271
▁dzinodarika	-11272
▁kwezvirwere	-11273
▁muBhaibheri	-11274
▁vakaverengwa	-11275
▁kwedambudziko	-11276
▁chemutungamiri	-11277
▁vachiratidzira	-11278
):	-11279
Al	-11280
900	-11281
art	-11282
avo	-11283
ero	-11284
iye	-11285
lim	-11286
pot	-11287
rgy	-11288
▁64	-11289
▁ju	-11290
Moyo	-11291
chwa	-11292
cket	-11293
reri	-11294
tata	-11295
▁22.	-11296
▁Bvu	-11297
▁Dri	-11298
▁Mat	-11299
▁Sam	-11300
bhiri	-11301
kubva	-11302
mwisa	-11303
▁Ivai	-11304
▁Jack	-11305
▁Road	-11306
▁Sema	-11307
▁also	-11308
▁kusi	-11309
▁weMa	-11310
Mbudzi	-11311
dikani	-11312
govana	-11313
manuel	-11314
mhinga	-11315
rayiro	-11316
shaisa	-11317
vambwa	-11318
warire	-11319
yanisi	-11320
▁Mhuka	-11321
▁Sarah	-11322
▁asara	-11323
▁asipo	-11324
▁fundo	-11325
▁hwave	-11326
▁mhuru	-11327
▁ndeya	-11328
▁recep	-11329
▁wandi	-11330
dzivisi	-11331
pererwa	-11332
▁Muchin	-11333
▁bhanga	-11334
▁huremu	-11335
▁ndiine	-11336
▁rainge	-11337
▁yeimba	-11338
ctionary	-11339
donhedza	-11340
▁muvengi	-11341
▁nemunin	-11342
▁senyika	-11343
▁vachine	-11344
kurumidze	-11345
▁inoramba	-11346
▁mahwindo	-11347
▁navarume	-11348
▁wakakura	-11349
sakarurama	-11350
▁Masaraure	-11351
▁chokusika	-11352
▁community	-11353
▁muchetura	-11354
▁vachinzwa	-11355
▁vemunyika	-11356
▁vesangano	-11357
▁zvichibva	-11358
▁munaKristu	-11359
▁nepamusana	-11360
▁yakaenzana	-11361
▁redzimhosva	-11362
▁yekuAmerica	-11363
▁yekutengesa	-11364
▁VaConstantino	-11365
▁mumayunivhesiti	-11366
-20	-11367
Dai	-11368
IMB	-11369
eli	-11370
olo	-11371
pri	-11372
pwe	-11373
uth	-11374
▁Nu	-11375
▁aa	-11376
Ndai	-11377
bhia	-11378
buku	-11379
dung	-11380
ibhi	-11381
kiya	-11382
omba	-11383
omen	-11384
rial	-11385
sema	-11386
zove	-11387
▁Die	-11388
▁Par	-11389
▁Roo	-11390
▁naO	-11391
▁reB	-11392
▁ung	-11393
binet	-11394
dende	-11395
hundi	-11396
pfuti	-11397
rwise	-11398
state	-11399
sunda	-11400
tondi	-11401
vhisi	-11402
vosve	-11403
yemwe	-11404
▁CAPS	-11405
▁Chip	-11406
▁Euro	-11407
▁Hamu	-11408
▁Kuma	-11409
▁VaRu	-11410
▁kari	-11411
▁kiyi	-11412
▁nego	-11413
▁waJo	-11414
itiswa	-11415
jiniya	-11416
ridine	-11417
tsanga	-11418
vember	-11419
▁Mimwe	-11420
▁Round	-11421
▁Simbi	-11422
▁cheap	-11423
▁jecha	-11424
▁kacho	-11425
▁kuche	-11426
▁ndeyo	-11427
▁nehun	-11428
▁urefu	-11429
▁vabve	-11430
DeMbare	-11431
omesera	-11432
riculum	-11433
wendung	-11434
▁Please	-11435
▁Policy	-11436
▁bvudzi	-11437
▁inguva	-11438
▁ishoma	-11439
▁paushe	-11440
▁ukaona	-11441
▁vaibva	-11442
▁wakare	-11443
kondohwe	-11444
mbongoro	-11445
publican	-11446
remerera	-11447
▁Michina	-11448
▁VaNcube	-11449
▁Welcome	-11450
▁akarova	-11451
▁akavaka	-11452
▁inotora	-11453
▁kanonzi	-11454
▁kunyepa	-11455
▁kuzoona	-11456
▁maronge	-11457
▁munenge	-11458
▁munyama	-11459
▁wedzera	-11460
▁wenyaya	-11461
▁Dianabol	-11462
▁Kudzidza	-11463
▁Kusiyana	-11464
▁Ndakanga	-11465
▁kunodiwa	-11466
▁nemusoro	-11467
▁nomwedzi	-11468
▁shandisa	-11469
▁yekugara	-11470
▁dhayamita	-11471
▁kuBritain	-11472
▁kusimudza	-11473
▁musimboti	-11474
▁nemutambo	-11475
▁pamadhora	-11476
▁parunhare	-11477
▁vanotenga	-11478
▁yekurwisa	-11479
▁zvandaona	-11480
▁Hyperbaric	-11481
▁Mozambique	-11482
▁makiromita	-11483
▁vechikwata	-11484
itungamirira	-11485
▁vanosangana	-11486
▁zvinotaurwa	-11487
▁nevanasikana	-11488
▁semuenzaniso	-11489
▁nemhirizhonga	-11490
▁mushandirapamwe	-11491
))	-11492
ns	-11493
-10	-11494
▁$4	-11495
▁MA	-11496
▁Zo	-11497
2015	-11498
antu	-11499
gola	-11500
hota	-11501
test	-11502
vest	-11503
vhen	-11504
vuri	-11505
wing	-11506
▁Gla	-11507
▁Hwa	-11508
▁Mas	-11509
▁dis	-11510
Human	-11511
ciety	-11512
dondo	-11513
dzeri	-11514
dzura	-11515
eneti	-11516
hembe	-11517
quare	-11518
sanyu	-11519
zanga	-11520
▁Kuna	-11521
▁cheM	-11522
hambwe	-11523
kororo	-11524
murova	-11525
uchika	-11526
▁Peace	-11527
▁Thank	-11528
▁VaJob	-11529
▁Zvese	-11530
▁ndisa	-11531
▁reCCC	-11532
▁tsuro	-11533
▁yandi	-11534
andanga	-11535
bhakera	-11536
tarirwa	-11537
▁Blythe	-11538
▁Boxing	-11539
▁akadzi	-11540
▁ataura	-11541
▁chaipo	-11542
▁mafomu	-11543
▁mafuro	-11544
▁musati	-11545
▁nemoyo	-11546
▁pavari	-11547
▁vababa	-11548
▁vakaku	-11549
sukuwere	-11550
zviitira	-11551
▁Kufamba	-11552
▁akakura	-11553
▁dzatino	-11554
▁dzisiri	-11555
▁havaoni	-11556
▁inoenda	-11557
▁ndeyeku	-11558
▁vatendi	-11559
▁voltage	-11560
▁zvataka	-11561
▁kwevhiki	-11562
▁mabhanga	-11563
▁magariro	-11564
▁namakore	-11565
▁nembudzi	-11566
▁yakabuda	-11567
▁yakawana	-11568
▁Amsterdam	-11569
▁Sekutaura	-11570
▁Vakataura	-11571
▁Vatsigiri	-11572
▁aIsiraeri	-11573
▁dzekurima	-11574
▁kudzokoro	-11575
▁kumuzinda	-11576
▁rakaumbwa	-11577
▁rakawanda	-11578
▁akakumbira	-11579
▁kurongedza	-11580
▁kushanduka	-11581
▁vakarurama	-11582
▁zvakasikwa	-11583
▁nekugadzira	-11584
▁zvakaenzana	-11585
▁zvinodarika	-11586
▁kusawirirana	-11587
▁tinokurudzira	-11588
▁pachishandiswa	-11589
FS	-11590
VA	-11591
VD	-11592
-0.	-11593
Ray	-11594
▁6,	-11595
▁Up	-11596
0771	-11597
dota	-11598
haya	-11599
hibi	-11600
ibva	-11601
lele	-11602
rian	-11603
tava	-11604
vone	-11605
▁Tur	-11606
▁Uka	-11607
▁bhu	-11608
▁hel	-11609
▁igo	-11610
cheni	-11611
ether	-11612
jinga	-11613
kadza	-11614
pfuya	-11615
▁Caps	-11616
▁Real	-11617
▁Team	-11618
▁azvo	-11619
▁eChi	-11620
▁rune	-11621
▁timu	-11622
▁uhwo	-11623
Rwanda	-11624
alinen	-11625
andura	-11626
chaita	-11627
mbassa	-11628
pfimba	-11629
rancis	-11630
▁Asika	-11631
▁Endai	-11632
▁Inoti	-11633
▁Isaka	-11634
▁Scien	-11635
▁abuda	-11636
▁agara	-11637
▁chisa	-11638
▁kumun	-11639
▁dzvene	-11640
▁kujeri	-11641
▁nembwa	-11642
▁padiki	-11643
▁rukuru	-11644
▁vanono	-11645
▁yawana	-11646
pfekedza	-11647
tsamwisa	-11648
▁Control	-11649
▁Mubaiwa	-11650
▁Mugwadi	-11651
▁Nditumi	-11652
▁Plastic	-11653
▁Tinoona	-11654
▁kuMbare	-11655
▁kwaJesu	-11656
▁kwekusa	-11657
▁mafaira	-11658
▁mubishi	-11659
▁ndinoku	-11660
▁panonzi	-11661
▁vamambo	-11662
▁vandino	-11663
▁vashora	-11664
▁wakabva	-11665
▁yehondo	-11666
▁zvirevo	-11667
▁kuwanisa	-11668
▁mafirimu	-11669
▁nekutora	-11670
▁vadzidze	-11671
▁vanonzwa	-11672
▁wechechi	-11673
▁wekomiti	-11674
▁wemurume	-11675
mangwanani	-11676
▁Anwendung	-11677
▁makanzura	-11678
▁mukanzuru	-11679
▁muverengi	-11680
▁paaritari	-11681
▁uchenjeri	-11682
▁yemitambo	-11683
kangofanana	-11684
▁Dictionary	-11685
▁anotambira	-11686
▁dzemitambo	-11687
▁dzesarudzo	-11688
▁ichangobva	-11689
▁nokururama	-11690
▁vakabatana	-11691
▁nekuwedzera	-11692
▁vakanyoresa	-11693
▁Nditumireiwo	-11694
▁dzinofanirwa	-11695
▁tinotarisira	-11696
▁yekupedzisira	-11697
OA	-11698
ox	-11699
fil	-11700
org	-11701
▁99	-11702
▁Sy	-11703
diah	-11704
dish	-11705
hemi	-11706
heyo	-11707
hope	-11708
indu	-11709
kupe	-11710
noku	-11711
soni	-11712
zero	-11713
▁(19	-11714
▁(50	-11715
▁Apg	-11716
▁ISO	-11717
▁naG	-11718
dongo	-11719
jerai	-11720
nhira	-11721
redhi	-11722
rongi	-11723
▁Beau	-11724
▁Maga	-11725
▁Town	-11726
▁need	-11727
▁ruku	-11728
▁tepi	-11729
dzirai	-11730
eorgia	-11731
rowser	-11732
rukuro	-11733
tsirwa	-11734
tsiura	-11735
unyuta	-11736
▁Motor	-11737
▁bhuru	-11738
▁vaaka	-11739
▁zvati	-11740
Izvozvi	-11741
bhuroni	-11742
shafati	-11743
vakirwa	-11744
▁Joseph	-11745
▁Wakati	-11746
▁centre	-11747
▁kuhama	-11748
▁mbishi	-11749
▁module	-11750
▁murudo	-11751
▁nameso	-11752
▁nehafu	-11753
▁nokuna	-11754
▁vakari	-11755
dziridza	-11756
tsiridza	-11757
vharirwa	-11758
▁Kaziwai	-11759
▁VaFarai	-11760
▁emhando	-11761
▁kwenhau	-11762
▁makomba	-11763
▁mumwoyo	-11764
▁ndakaku	-11765
▁nechiso	-11766
▁pasinei	-11767
▁tichiri	-11768
▁uchiita	-11769
yangarika	-11770
yeuchidza	-11771
▁Industry	-11772
▁director	-11773
▁dzaMwari	-11774
▁inzvimbo	-11775
▁ndinoona	-11776
▁nedzidzo	-11777
▁nekubuda	-11778
▁nekurima	-11779
▁vangadai	-11780
▁Ndinodawo	-11781
▁Ukrainian	-11782
▁akamirira	-11783
▁pagungano	-11784
tsanangudza	-11785
▁Conference	-11786
▁VaChiwenga	-11787
▁zvekuroora	-11788
▁epurasitiki	-11789
▁kupemberera	-11790
▁yakawedzera	-11791
▁zvakataurwa	-11792
▁Professional	-11793
▁vakashamiswa	-11794
▁pamudyandigere	-11795
im	-11796
2).	-11797
ANG	-11798
Uno	-11799
est	-11800
rge	-11801
▁Ul	-11802
▁el	-11803
Kuti	-11804
kose	-11805
orca	-11806
▁12.	-11807
▁Edi	-11808
▁its	-11809
▁key	-11810
▁twu	-11811
▁ura	-11812
▁yeH	-11813
cript	-11814
svava	-11815
vhiti	-11816
▁Bill	-11817
▁Hero	-11818
▁Itai	-11819
▁naJa	-11820
▁paro	-11821
▁ruri	-11822
▁yeru	-11823
▁zvan	-11824
Kariba	-11825
angani	-11826
urirwa	-11827
yerere	-11828
zobuda	-11829
zvimwe	-11830
▁Bvisa	-11831
▁Josia	-11832
▁Kwema	-11833
▁Lager	-11834
▁Panel	-11835
▁Phiri	-11836
▁china	-11837
▁enhau	-11838
▁hwava	-11839
▁iende	-11840
▁ngano	-11841
▁paino	-11842
▁rwedu	-11843
▁vhara	-11844
▁yambo	-11845
▁zviso	-11846
Chegutu	-11847
pindire	-11848
▁Kuwana	-11849
▁Nether	-11850
▁chinja	-11851
▁gorosi	-11852
▁imwewo	-11853
▁kurira	-11854
▁kwaShe	-11855
▁metres	-11856
▁ndokun	-11857
▁tinaro	-11858
▁yasara	-11859
▁yatiri	-11860
chinetsa	-11861
gumburwa	-11862
▁Charity	-11863
▁Nemhaka	-11864
▁akarara	-11865
▁dzeZanu	-11866
▁kusinga	-11867
▁kwechin	-11868
▁nebanga	-11869
▁uchaona	-11870
▁vakadya	-11871
▁vakarwa	-11872
▁yavanhu	-11873
▁akabvisa	-11874
▁akafamba	-11875
▁inotaura	-11876
▁patafura	-11877
▁yenhabvu	-11878
▁zvisungo	-11879
simbaradza	-11880
▁ekuzvarwa	-11881
▁kuyambira	-11882
▁ndokusaka	-11883
▁netsvimbo	-11884
▁rinotaura	-11885
▁kukiriniki	-11886
▁rezveutano	-11887
▁rwakakwana	-11888
▁vachichema	-11889
▁zvekutamba	-11890
▁Mukuwedzera	-11891
▁kubhururuka	-11892
▁vakawandisa	-11893
▁digitaalinen	-11894
▁kumaodzanyemba	-11895
▁zvinokanganisa	-11896
▁zvinonyangadza	-11897
▁pamhenderekedzo	-11898
OD	-11899
Po	-11900
TS	-11901
asy	-11902
rse	-11903
ump	-11904
zza	-11905
▁ID	-11906
▁II	-11907
▁Ly	-11908
▁au	-11909
2014	-11910
Seke	-11911
bora	-11912
dufu	-11913
fore	-11914
lias	-11915
lism	-11916
▁2-1	-11917
▁Hwe	-11918
▁Nei	-11919
▁ink	-11920
▁muM	-11921
▁paM	-11922
▁rea	-11923
▁waG	-11924
Press	-11925
betse	-11926
bhori	-11927
dzing	-11928
isira	-11929
kokwa	-11930
minal	-11931
tambe	-11932
▁Coin	-11933
▁Esau	-11934
▁Siwa	-11935
▁argu	-11936
▁mapu	-11937
▁masi	-11938
▁mave	-11939
▁naHa	-11940
▁uswa	-11941
inenge	-11942
rudzai	-11943
rukure	-11944
tholic	-11945
tsikwa	-11946
▁Dzaka	-11947
▁Japan	-11948
▁Nkomo	-11949
▁Shure	-11950
▁VaMun	-11951
▁azive	-11952
▁chama	-11953
▁naMai	-11954
▁naVaM	-11955
▁paive	-11956
▁pauri	-11957
▁pwere	-11958
▁senge	-11959
▁tiite	-11960
▁zvipi	-11961
▁zviya	-11962
batirwo	-11963
hanyeri	-11964
ingango	-11965
mirates	-11966
mmanuel	-11967
ptember	-11968
regedza	-11969
tsikisa	-11970
▁Havana	-11971
▁Upenyu	-11972
▁achaku	-11973
▁apinde	-11974
▁irambe	-11975
▁neguta	-11976
▁ngadzi	-11977
▁tisati	-11978
Karadhea	-11979
fukidzwa	-11980
raramisa	-11981
▁Mhlanga	-11982
▁Mutumbi	-11983
▁aimbova	-11984
▁hurombo	-11985
▁hutongi	-11986
▁ichocho	-11987
▁kubaiwa	-11988
▁nenjuzu	-11989
▁rakabva	-11990
▁rakaoma	-11991
▁vataure	-11992
▁vatenge	-11993
▁zvinove	-11994
paresheni	-11995
▁Kufanana	-11996
▁Tinonzwa	-11997
▁chouviri	-11998
▁fetereza	-11999
▁kweCovid	-12000
▁nemazuva	-12001
▁pamukova	-12002
▁yeupenyu	-12003
perembudzi	-12004
▁Australia	-12005
▁Executive	-12006
▁Operation	-12007
▁achitamba	-12008
▁maJehovha	-12009
▁makanzuru	-12010
▁customized	-12011
▁dzinosvika	-12012
▁kuvabereki	-12013
▁mubhadharo	-12014
▁muongororo	-12015
▁zvinonwisa	-12016
▁Mashonaland	-12017
▁akashandisa	-12018
▁mabhizimusi	-12019
▁yakawanikwa	-12020
▁dzakatevedzana	-12021
OL	-12022
▁04	-12023
▁FM	-12024
▁ZV	-12025
▁bw	-12026
enne	-12027
gaba	-12028
gayo	-12029
lane	-12030
lica	-12031
pple	-12032
yina	-12033
▁30.	-12034
▁Bel	-12035
▁Eve	-12036
▁chu	-12037
▁uni	-12038
Yandi	-12039
bhoti	-12040
manje	-12041
tehwe	-12042
tsumo	-12043
tumbu	-12044
▁Mira	-12045
▁Muni	-12046
▁Sand	-12047
▁Slot	-12048
▁Uchi	-12049
▁cheT	-12050
▁neVa	-12051
▁nguo	-12052
▁pepa	-12053
▁test	-12054
▁wati	-12055
▁when	-12056
cision	-12057
gistra	-12058
koroko	-12059
yowani	-12060
▁Akava	-12061
▁Chete	-12062
▁Click	-12063
▁Falls	-12064
▁Inter	-12065
▁chamu	-12066
▁chati	-12067
▁dende	-12068
▁mhete	-12069
▁neiko	-12070
▁rwava	-12071
▁voita	-12072
dururwa	-12073
kwayana	-12074
yorerwa	-12075
zotanga	-12076
▁Akanga	-12077
▁achizo	-12078
▁kubaya	-12079
▁musana	-12080
▁ruwoko	-12081
▁seizvi	-12082
▁uchaku	-12083
▁wemufi	-12084
▁yekupa	-12085
Emmerson	-12086
Mudzimai	-12087
batikana	-12088
pfuurira	-12089
rukureta	-12090
simudzwa	-12091
simukire	-12092
sketball	-12093
▁Charter	-12094
▁Siwardi	-12095
▁Ziyambi	-12096
▁bonuses	-12097
▁kwababa	-12098
▁takaita	-12099
▁utariri	-12100
▁wanhasi	-12101
▁yaJudha	-12102
Community	-12103
Highfield	-12104
▁CarYandi	-12105
▁Motokari	-12106
▁Standard	-12107
▁akatamba	-12108
▁chivakwa	-12109
▁kuderera	-12110
▁nematare	-12111
▁ngochani	-12112
▁vaimbova	-12113
▁weAsiria	-12114
▁Vechidiki	-12115
▁achichema	-12116
▁kuyambuka	-12117
▁ndakanzwa	-12118
▁sezvavaka	-12119
▁tsarukano	-12120
▁vanowanzo	-12121
▁wemutambo	-12122
▁zvakazara	-12123
▁Gamuchirai	-12124
▁Washington	-12125
▁akaberekwa	-12126
▁kunofanira	-12127
▁kutendeuka	-12128
▁zvavakaita	-12129
▁zvichiitwa	-12130
▁Netherlands	-12131
▁Zvechokwadi	-12132
▁kumanikidza	-12133
▁vakadzokera	-12134
▁yakazvipira	-12135
▁akakurumbira	-12136
▁nezvitanhatu	-12137
▁dzakabudirira	-12138
▁kunoongororwa	-12139
▁kushungurudza	-12140
lm	-12141
00.	-12142
CAF	-12143
ZiG	-12144
clo	-12145
gas	-12146
lif	-12147
uyi	-12148
zia	-12149
▁57	-12150
▁KU	-12151
▁Py	-12152
▁sp	-12153
0716	-12154
bson	-12155
fora	-12156
gero	-12157
hysi	-12158
kere	-12159
liam	-12160
mere	-12161
tent	-12162
yari	-12163
▁Her	-12164
▁Men	-12165
▁Tex	-12166
▁fai	-12167
▁ran	-12168
▁weN	-12169
bhasi	-12170
bheki	-12171
konde	-12172
kumba	-12173
nguva	-12174
ongai	-12175
ongwa	-12176
ptide	-12177
tumba	-12178
yerwa	-12179
zenza	-12180
▁Iran	-12181
▁Type	-12182
▁Zhou	-12183
▁anoi	-12184
▁kuKa	-12185
▁mara	-12186
▁sipo	-12187
▁than	-12188
▁tiva	-12189
▁yeMa	-12190
diniko	-12191
girozi	-12192
murume	-12193
muudza	-12194
▁Festi	-12195
▁Money	-12196
▁irege	-12197
▁ndefu	-12198
▁rinhi	-12199
▁yaida	-12200
▁zvata	-12201
gochani	-12202
pikicha	-12203
zambuko	-12204
▁Akandi	-12205
▁Martin	-12206
▁VaItai	-12207
▁kadiki	-12208
▁kunopa	-12209
▁neboka	-12210
▁varapi	-12211
▁variko	-12212
▁yakare	-12213
▁zvandi	-12214
robhoamu	-12215
unyanzvi	-12216
▁Austria	-12217
▁Fitness	-12218
▁Product	-12219
▁akamupa	-12220
▁akasara	-12221
▁haagoni	-12222
▁hatinga	-12223
▁idzodzo	-12224
▁kudyara	-12225
▁machena	-12226
▁masango	-12227
▁nemaoko	-12228
▁ratorwa	-12229
▁remwana	-12230
▁wavanhu	-12231
▁zvinori	-12232
Ichokwadi	-12233
dzivirire	-12234
▁Masvingo	-12235
▁Ndezvipi	-12236
▁Pakarepo	-12237
▁Vaimbove	-12238
▁kukudzwa	-12239
▁kwedenda	-12240
▁mubhedha	-12241
▁ndokuita	-12242
▁pamhosva	-12243
▁vakafara	-12244
▁vakavuya	-12245
▁yakagara	-12246
▁zvakabva	-12247
▁Ndokusaka	-12248
▁anodanana	-12249
▁kuchitiwo	-12250
▁kukambani	-12251
▁kurongeka	-12252
▁paramende	-12253
▁wakataura	-12254
▁yavanenge	-12255
▁zvemhando	-12256
▁inogadzira	-12257
▁mumiririri	-12258
▁nevadzidzi	-12259
▁rakasiyana	-12260
▁havakwanise	-12261
▁nemukuwasha	-12262
▁vaFirisitia	-12263
▁vasingazive	-12264
▁anotsinhirwa	-12265
▁kuManicaland	-12266
▁zvinonakidza	-12267
EL	-12268
jin	-12269
▁$2	-12270
▁$5	-12271
▁74	-12272
▁nh	-12273
bles	-12274
gine	-12275
muni	-12276
pisi	-12277
rene	-12278
tton	-12279
yiko	-12280
ziri	-12281
▁CCC	-12282
▁Mab	-12283
▁Maj	-12284
▁Mes	-12285
▁ait	-12286
▁reN	-12287
bhegi	-12288
creen	-12289
gedhi	-12290
hapwa	-12291
jaira	-12292
laria	-12293
vange	-12294
zenge	-12295
▁bepa	-12296
▁ekwa	-12297
▁high	-12298
▁vain	-12299
▁veko	-12300
▁vemi	-12301
fakose	-12302
gorosi	-12303
muromo	-12304
tireza	-12305
▁April	-12306
▁Nyamu	-12307
▁Profi	-12308
▁Rudzi	-12309
▁Under	-12310
▁Video	-12311
▁epasi	-12312
▁metal	-12313
▁nevai	-12314
▁nevan	-12315
▁ngari	-12316
▁shavi	-12317
Namibia	-12318
chinjwa	-12319
tsigire	-12320
▁Murimi	-12321
▁Public	-12322
▁VaPaul	-12323
▁ndaida	-12324
▁nekune	-12325
▁nemaka	-12326
▁panoda	-12327
▁ravano	-12328
▁sezvin	-12329
▁should	-12330
▁yagara	-12331
Soromoni	-12332
chuchusi	-12333
kanganwe	-12334
manimani	-12335
▁Democra	-12336
▁England	-12337
▁Russian	-12338
▁kumunda	-12339
▁mabhiza	-12340
▁matongo	-12341
▁mugomba	-12342
▁ndakato	-12343
▁nehanya	-12344
▁nesimbi	-12345
▁nezvehu	-12346
▁returns	-12347
▁watanga	-12348
▁yekunwa	-12349
mbassador	-12350
rrigation	-12351
▁Electric	-12352
▁Jonatani	-12353
▁chekudya	-12354
▁handizvo	-12355
▁hwamanda	-12356
▁kutsanya	-12357
▁nemawoko	-12358
▁paanenge	-12359
▁pabvunzo	-12360
▁pehusiku	-12361
▁yazivisa	-12362
▁zvinondi	-12363
▁kwehutano	-12364
▁kwemitemo	-12365
▁reTwitter	-12366
▁vakakwira	-12367
▁wakakwana	-12368
▁yakapinda	-12369
▁zvavanoti	-12370
▁zvezvinhu	-12371
Mwanakomana	-12372
▁chakatanga	-12373
▁kunyunyuta	-12374
▁mukurarama	-12375
▁Kuburikidza	-12376
▁Ndinoshanda	-12377
▁dzimotokari	-12378
▁dzinopfuura	-12379
▁vakavimbisa	-12380
▁kumaporofita	-12381
▁navaIsiraeri	-12382
▁pavanakomana	-12383
▁yekubhadhara	-12384
▁dzematongerwo	-12385
▁kukwikwidzana	-12386
▁zvinobudirira	-12387
▁zvokuyananisa	-12388
!"	-12389
34	-12390
88	-12391
Ye	-12392
die	-12393
tur	-12394
▁Gh	-12395
Vano	-12396
iita	-12397
jiva	-12398
rimo	-12399
▁11.	-12400
▁neK	-12401
dhori	-12402
dzaka	-12403
gombe	-12404
muita	-12405
tasvi	-12406
urazi	-12407
weden	-12408
▁2011	-12409
▁AIDS	-12410
▁Gara	-12411
▁Maho	-12412
▁Stra	-12413
▁edza	-12414
▁haka	-12415
▁kuwa	-12416
▁muMa	-12417
durura	-12418
onaldo	-12419
orivhi	-12420
tumire	-12421
wirira	-12422
zvimba	-12423
▁VaGod	-12424
▁chire	-12425
▁funga	-12426
▁kamba	-12427
▁unova	-12428
mission	-12429
vigirwa	-12430
waniswe	-12431
zotaura	-12432
zvizive	-12433
▁Mapato	-12434
▁emaoko	-12435
▁kumhan	-12436
▁mitsva	-12437
▁muligi	-12438
▁vanofa	-12439
▁vasisa	-12440
▁veguta	-12441
▁yaitwa	-12442
▁zvavai	-12443
itengesa	-12444
kirinika	-12445
kunakuna	-12446
lication	-12447
mangwiza	-12448
wandirwa	-12449
▁Dzamara	-12450
▁Mutauro	-12451
▁Stanley	-12452
▁Trading	-12453
▁chitupa	-12454
▁dziripo	-12455
▁inopiwa	-12456
▁kurwizi	-12457
▁mudzimu	-12458
▁ndinova	-12459
▁yapinda	-12460
tapurirwa	-12461
taurirane	-12462
▁Chigumba	-12463
▁Chiitiko	-12464
▁Shamwari	-12465
▁VaMorgan	-12466
▁ichiripo	-12467
▁kukwezva	-12468
▁kusvitsa	-12469
▁kwezvino	-12470
▁nenzombe	-12471
▁yamakomo	-12472
▁yekurara	-12473
▁chinodiwa	-12474
▁kunorapwa	-12475
▁pamitambo	-12476
▁pesarudzo	-12477
▁vakauraya	-12478
▁zvekurima	-12479
▁zvikwambo	-12480
coronavirus	-12481
paradzanisa	-12482
▁Federation	-12483
▁chitendero	-12484
▁sezvakaita	-12485
▁sezvandaka	-12486
▁vabhadhare	-12487
▁yeNational	-12488
▁hunoratidza	-12489
▁ichasangana	-12490
▁vanotsigira	-12491
▁zvinoriumba	-12492
▁muWashington	-12493
▁nemachiremba	-12494
▁zvechipfambi	-12495
▁zvekutengesa	-12496
▁kunyatsoshanda	-12497
▁vachitungamira	-12498
▁zvichikonzerwa	-12499
38	-12500
Is	-12501
GMP	-12502
mia	-12503
▁77	-12504
▁Sk	-12505
▁jo	-12506
0779	-12507
bola	-12508
cies	-12509
doka	-12510
dutu	-12511
mmer	-12512
yowa	-12513
▁ZiG	-12514
▁dan	-12515
▁muC	-12516
Mbuya	-12517
Media	-12518
churu	-12519
mando	-12520
mhara	-12521
monds	-12522
nergy	-12523
tugal	-12524
udzai	-12525
vrons	-12526
yange	-12527
yikwa	-12528
▁Meta	-12529
▁VaGu	-12530
▁Wall	-12531
▁Yako	-12532
▁poly	-12533
▁yaMa	-12534
Bhaari	-12535
gumisa	-12536
herera	-12537
ondira	-12538
simasi	-12539
stanon	-12540
svomhu	-12541
▁2017,	-12542
▁Email	-12543
▁endai	-12544
▁hunge	-12545
▁ndeve	-12546
▁rombo	-12547
▁yadzo	-12548
▁zvigo	-12549
Hebheru	-12550
▁Akaita	-12551
▁Dzimba	-12552
▁Malawi	-12553
▁Muimbi	-12554
▁Pharma	-12555
▁Spring	-12556
▁akadya	-12557
▁atorwa	-12558
▁kamuri	-12559
▁maneja	-12560
▁vakoti	-12561
▁Mapfumo	-12562
▁achizvi	-12563
▁chemari	-12564
▁ichinzi	-12565
▁kutyisi	-12566
▁kwavana	-12567
▁mavanga	-12568
▁musambo	-12569
▁ndarama	-12570
▁redunhu	-12571
▁rwezasi	-12572
▁vharafu	-12573
▁weWorld	-12574
▁website	-12575
▁zvingwa	-12576
onzwisisa	-12577
▁Language	-12578
▁Ndibatei	-12579
▁Zvichida	-12580
▁kunoreva	-12581
▁kupomera	-12582
▁kuvakafa	-12583
▁mugungwa	-12584
▁vachango	-12585
▁yeJohane	-12586
inwamhanga	-12587
▁chinoitwa	-12588
▁kechipiri	-12589
▁kukwirira	-12590
▁makondomu	-12591
▁navaRevhi	-12592
▁wekanzuru	-12593
▁zvitsvene	-12594
kurudzirawo	-12595
▁chishamiso	-12596
▁havafanire	-12597
▁hwakasimba	-12598
▁nebudiriro	-12599
▁nemukomana	-12600
▁wemuHarare	-12601
▁makakatanwa	-12602
▁revechidiki	-12603
▁rokutengesa	-12604
▁vakadzingwa	-12605
katipoteredza	-12606
▁mumadhorobha	-12607
▁Confederation	-12608
▁chakagadzirwa	-12609
▁nezvekuburitswa	-12610
SS	-12611
dc	-12612
plo	-12613
ppy	-12614
tta	-12615
▁$7	-12616
▁59	-12617
▁Dh	-12618
▁ou	-12619
0778	-12620
Love	-12621
cano	-12622
engo	-12623
llow	-12624
malo	-12625
papa	-12626
time	-12627
vani	-12628
▁(20	-12629
▁Gir	-12630
▁Ray	-12631
▁Sum	-12632
▁Vir	-12633
▁maa	-12634
▁zin	-12635
cilia	-12636
endwa	-12637
fukun	-12638
vhiri	-12639
wedhi	-12640
▁Arts	-12641
▁Mudz	-12642
▁Ropa	-12643
▁Sale	-12644
▁Supp	-12645
▁char	-12646
▁cheG	-12647
▁mufa	-12648
▁naTa	-12649
▁ruka	-12650
▁site	-12651
▁want	-12652
▁yeKu	-12653
Rufaro	-12654
katira	-12655
kukutu	-12656
mboona	-12657
pfunga	-12658
presen	-12659
rugare	-12660
▁Valen	-12661
▁nemin	-12662
▁pfumo	-12663
▁ukuru	-12664
▁yaizo	-12665
dinetsa	-12666
fashamu	-12667
kanetsa	-12668
pembera	-12669
sarudze	-12670
tsurana	-12671
▁Canada	-12672
▁Inzwai	-12673
▁Mukati	-12674
▁Rental	-12675
▁kwauno	-12676
▁ndaisa	-12677
▁nekufa	-12678
▁vabude	-12679
▁vanzwe	-12680
▁zvadzo	-12681
Budiriro	-12682
▁Kubvira	-12683
▁Program	-12684
▁akavata	-12685
▁mitumbi	-12686
▁ndikava	-12687
▁nenguvo	-12688
▁pachayo	-12689
▁vemuzvi	-12690
▁yakandi	-12691
▁zviyero	-12692
▁Catholic	-12693
▁Exchange	-12694
▁akarohwa	-12695
▁bwaMwari	-12696
▁kumasowe	-12697
▁matsotsi	-12698
▁munogona	-12699
▁nemaziso	-12700
▁ngaafone	-12701
▁panopera	-12702
▁paunenge	-12703
▁richibva	-12704
▁vateveri	-12705
▁akatarira	-12706
▁chibayiro	-12707
▁vachitora	-12708
▁vemudunhu	-12709
▁revashandi	-12710
▁vachifunga	-12711
▁valsiraeri	-12712
▁zvinozoita	-12713
▁Akaenderera	-12714
▁kushamisika	-12715
▁muvakidzani	-12716
▁sezvinoitwa	-12717
▁tichitarisa	-12718
▁vakaroorana	-12719
▁chinofanirwa	-12720
▁hwokugadzira	-12721
▁nechikonzero	-12722
▁nevadzidzisi	-12723
▁Pakupedzisira	-12724
▁nemwanasikana	-12725
▁cheCoronavirus	-12726
MB	-12727
GIS	-12728
mei	-12729
▁Im	-12730
fumi	-12731
kuma	-12732
kuto	-12733
mane	-12734
stry	-12735
suma	-12736
▁Lan	-12737
▁naK	-12738
▁pfa	-12739
▁ver	-12740
Biden	-12741
Gadhi	-12742
dhine	-12743
handi	-12744
hendi	-12745
kwane	-12746
pfuta	-12747
siswa	-12748
▁2009	-12749
▁June	-12750
▁neFC	-12751
▁paMa	-12752
▁post	-12753
▁sere	-12754
bvunzi	-12755
domasi	-12756
gwirei	-12757
ilding	-12758
mirire	-12759
panana	-12760
tendwa	-12761
yangwa	-12762
zivise	-12763
▁Chiko	-12764
▁Child	-12765
▁Muzvi	-12766
▁beans	-12767
▁benzi	-12768
▁evana	-12769
▁mbiru	-12770
▁pairi	-12771
▁raano	-12772
▁semvu	-12773
▁yavai	-12774
Efuremu	-12775
fambire	-12776
kwazisa	-12777
lympics	-12778
manheru	-12779
mboenda	-12780
pinduka	-12781
tambire	-12782
vhareji	-12783
▁Golden	-12784
▁Thanks	-12785
▁hainga	-12786
▁hotera	-12787
▁kusara	-12788
▁ndezva	-12789
▁pakare	-12790
▁tinoku	-12791
▁vadaro	-12792
▁vatapi	-12793
vaimbove	-12794
▁Dzvanya	-12795
▁Kunyora	-12796
▁account	-12797
▁anobuda	-12798
▁hunonzi	-12799
▁magamba	-12800
▁newaini	-12801
▁panhamo	-12802
▁randaka	-12803
▁vakundi	-12804
▁zviitwe	-12805
▁zvisere	-12806
rumbidzwa	-12807
sarudzika	-12808
▁Masteron	-12809
▁chiShona	-12810
▁chinobva	-12811
▁kupikisa	-12812
▁ndecheku	-12813
▁pokugara	-12814
▁vasiyane	-12815
▁zvokwadi	-12816
ondirakiti	-12817
▁Cypionate	-12818
▁VaPatrick	-12819
▁Vanotizve	-12820
▁nemaitiro	-12821
▁remagweta	-12822
▁yakakunda	-12823
▁yakapihwa	-12824
▁zvinobuda	-12825
▁Munofanira	-12826
▁VaMwonzora	-12827
▁kuburitswa	-12828
▁kuriritira	-12829
▁mumotokari	-12830
▁nemapoinzi	-12831
terevhizheni	-12832
▁Zvigadzirwa	-12833
▁idambudziko	-12834
▁kumasangano	-12835
▁zvinorwadza	-12836
▁Yakagadzirwa	-12837
AL	-12838
OR	-12839
TC	-12840
WE	-12841
ac	-12842
0),	-12843
6).	-12844
bus	-12845
dys	-12846
itb	-12847
sub	-12848
vis	-12849
▁AC	-12850
▁Sc	-12851
ashi	-12852
hura	-12853
jana	-12854
rain	-12855
rapi	-12856
sted	-12857
tius	-12858
zipa	-12859
▁Bon	-12860
▁Dhe	-12861
▁muN	-12862
▁neW	-12863
▁peC	-12864
ander	-12865
biswa	-12866
enene	-12867
gital	-12868
gonye	-12869
pungu	-12870
sambo	-12871
shing	-12872
zaini	-12873
▁2008	-12874
▁godo	-12875
▁meya	-12876
▁naMi	-12877
▁regi	-12878
▁requ	-12879
Gukura	-12880
guruva	-12881
inatha	-12882
munini	-12883
ongova	-12884
rimisa	-12885
ulture	-12886
▁ariko	-12887
▁kavha	-12888
▁wakan	-12889
▁yaisa	-12890
▁zvomu	-12891
iridzwa	-12892
jubheki	-12893
varaira	-12894
varindi	-12895
▁Anenge	-12896
▁Castle	-12897
▁Manufa	-12898
▁Tapota	-12899
▁bhinzi	-12900
▁kudoma	-12901
▁muguva	-12902
▁namano	-12903
▁ndiite	-12904
▁papeji	-12905
▁tiwane	-12906
▁vaingo	-12907
▁zviite	-12908
endimita	-12909
sitiriti	-12910
▁Factory	-12911
▁Limited	-12912
▁VaDavid	-12913
▁Wedzera	-12914
▁fashoni	-12915
▁kundipa	-12916
▁kuumbwa	-12917
▁munyoro	-12918
▁nekuisa	-12919
▁richava	-12920
▁zvidiki	-12921
▁Dhanyeri	-12922
▁Southern	-12923
▁akatadza	-12924
▁chakadai	-12925
▁havagoni	-12926
▁hunogona	-12927
▁kumagumo	-12928
▁kuvarume	-12929
▁kwavanhu	-12930
▁mutsaona	-12931
▁nekuwana	-12932
▁nemhando	-12933
▁pamakomo	-12934
▁vachidya	-12935
▁yekurapa	-12936
sungirirwa	-12937
▁anoonekwa	-12938
▁kumukadzi	-12939
▁madekwana	-12940
▁vasingadi	-12941
▁weDynamos	-12942
▁zvidhinha	-12943
▁zvinogara	-12944
▁akadzokera	-12945
▁matomatisi	-12946
▁ndangariro	-12947
▁wakafanana	-12948
▁ichabatsira	-12949
▁kudzingiswa	-12950
▁kurambidzwa	-12951
▁okupedzisira	-12952
▁neHighlanders	-12953
-9	-12954
65	-12955
Ar	-12956
fg	-12957
7).	-12958
bic	-12959
lip	-12960
▁85	-12961
▁98	-12962
▁AR	-12963
Gutu	-12964
code	-12965
dava	-12966
deme	-12967
face	-12968
fumo	-12969
iner	-12970
rank	-12971
▁(10	-12972
▁29,	-12973
▁Asa	-12974
▁Ski	-12975
▁VaJ	-12976
chaya	-12977
depen	-12978
gwaru	-12979
onesa	-12980
pemha	-12981
unior	-12982
vhume	-12983
▁1980	-12984
▁Abra	-12985
▁Biti	-12986
▁Blue	-12987
▁Chan	-12988
▁Java	-12989
▁Kamu	-12990
▁Maxi	-12991
▁Part	-12992
▁crea	-12993
▁naNa	-12994
▁nera	-12995
▁pasa	-12996
Zambia	-12997
andiko	-12998
ilbert	-12999
tering	-13000
untain	-13001
▁Musha	-13002
▁Ndiro	-13003
▁Table	-13004
▁Thoko	-13005
▁Usiku	-13006
▁avari	-13007
▁maiva	-13008
▁ndewa	-13009
▁neavo	-13010
▁using	-13011
▁wemba	-13012
gashira	-13013
katyama	-13014
zvenhau	-13015
▁Timoti	-13016
▁dziine	-13017
▁korona	-13018
▁kudawo	-13019
▁kuneta	-13020
▁kuripa	-13021
▁ndihwo	-13022
▁pamoto	-13023
▁rizere	-13024
▁turusi	-13025
▁ukobvu	-13026
▁wevaka	-13027
▁October	-13028
▁billion	-13029
▁kukanda	-13030
▁makandi	-13031
▁mundiro	-13032
▁nokuita	-13033
▁pakaita	-13034
▁panyama	-13035
▁rugwaro	-13036
▁vangani	-13037
dambarefu	-13038
singazivi	-13039
▁Ndakaona	-13040
▁Shanghai	-13041
▁mumatope	-13042
▁nhanhatu	-13043
▁rwakanga	-13044
▁yechando	-13045
shingirira	-13046
▁Kutengesa	-13047
▁anonyanya	-13048
▁hydraulic	-13049
▁nemutengo	-13050
▁nevatengi	-13051
▁zvicherwa	-13052
bvunzurudza	-13053
▁Genotropin	-13054
▁Kuongorora	-13055
▁Munyaradzi	-13056
▁dzokudenga	-13057
▁muKwayedza	-13058
▁vakasimuka	-13059
▁weNational	-13060
▁zvinosvika	-13061
▁Mufananidzo	-13062
▁chinonyanya	-13063
▁inotengeswa	-13064
▁kumakambani	-13065
▁kunoshamisa	-13066
▁nemutauriri	-13067
▁yaVaMnangagwa	-13068
ep	-13069
Nga	-13070
cca	-13071
cen	-13072
css	-13073
ctu	-13074
uke	-13075
▁67	-13076
enai	-13077
goge	-13078
ined	-13079
reti	-13080
sari	-13081
stRi	-13082
tein	-13083
ueen	-13084
unzi	-13085
▁10,	-13086
▁Bud	-13087
▁Bur	-13088
▁Eno	-13089
▁Met	-13090
▁VaL	-13091
▁ape	-13092
▁dia	-13093
▁oxi	-13094
cally	-13095
dhiya	-13096
jects	-13097
lates	-13098
mabwe	-13099
pinga	-13100
riday	-13101
shima	-13102
shuwa	-13103
usiku	-13104
ussss	-13105
vedza	-13106
yanyi	-13107
▁Aiwa	-13108
▁Augu	-13109
▁Show	-13110
▁firi	-13111
▁meta	-13112
▁reHe	-13113
▁undi	-13114
cember	-13115
papiro	-13116
pupuri	-13117
▁Enter	-13118
▁Heano	-13119
▁Ndava	-13120
▁Tandi	-13121
▁audza	-13122
▁huswa	-13123
▁ndiva	-13124
▁nebwe	-13125
▁neman	-13126
▁pango	-13127
Rubheni	-13128
bhanoni	-13129
ctional	-13130
dhirowa	-13131
paradzi	-13132
stRider	-13133
tramine	-13134
▁Akabva	-13135
▁Ambuya	-13136
▁Commer	-13137
▁Memory	-13138
▁Office	-13139
▁Rwendo	-13140
▁Street	-13141
▁angava	-13142
▁aramba	-13143
▁kamera	-13144
▁kusaka	-13145
▁kwairi	-13146
▁ndaita	-13147
▁reSADC	-13148
▁sezita	-13149
▁yamaka	-13150
llington	-13151
vandudze	-13152
▁Muchena	-13153
▁Ndiraya	-13154
▁Society	-13155
▁akawira	-13156
▁asingan	-13157
▁chinoda	-13158
▁dzaitwa	-13159
▁ndichin	-13160
▁neWorld	-13161
▁utsanzi	-13162
▁wakazvi	-13163
▁zvaiita	-13164
▁zvapera	-13165
▁Mangudya	-13166
▁Province	-13167
▁akachema	-13168
▁kumusana	-13169
▁kwevamwe	-13170
▁musungwa	-13171
▁neRussia	-13172
▁rusarura	-13173
▁uchienda	-13174
▁vakanzwa	-13175
▁vazukuru	-13176
▁yakatora	-13177
▁yekuwana	-13178
komborerwa	-13179
zadzikiswa	-13180
zvakaitika	-13181
▁Dariussss	-13182
▁acharamba	-13183
▁akabvunza	-13184
▁akatakura	-13185
▁kudzorera	-13186
▁kuziviswa	-13187
▁matambiro	-13188
▁nezvisere	-13189
▁pasiwedhi	-13190
▁sekutaura	-13191
▁yakavakwa	-13192
▁Chitambara	-13193
▁Trenbolone	-13194
▁androgenic	-13195
▁dzichaitwa	-13196
▁kwakaitika	-13197
▁kwematunhu	-13198
▁nepamuviri	-13199
▁zvakatanga	-13200
▁Engineering	-13201
▁akamutevera	-13202
▁chiremerera	-13203
▁mashiripiti	-13204
▁ruremekedzo	-13205
▁chinoratidza	-13206
▁yakasununguka	-13207
▁vachikurudzira	-13208
▁wemizambiringa	-13209
LC	-13210
Or	-13211
3).	-13212
4).	-13213
IMF	-13214
nap	-13215
sal	-13216
▁07	-13217
▁8,	-13218
buro	-13219
mbai	-13220
pher	-13221
rald	-13222
yawi	-13223
▁24.	-13224
▁Jet	-13225
▁Red	-13226
▁Sil	-13227
▁bwu	-13228
▁fil	-13229
▁muH	-13230
▁swi	-13231
Gokwe	-13232
bvume	-13233
chiti	-13234
cilla	-13235
iling	-13236
jecha	-13237
lifor	-13238
manga	-13239
mmand	-13240
rwiri	-13241
▁Alum	-13242
▁VaGi	-13243
▁cheC	-13244
▁rawo	-13245
Hapana	-13246
budise	-13247
kokera	-13248
mental	-13249
tropin	-13250
tsimba	-13251
tsveri	-13252
▁2018,	-13253
▁Agnes	-13254
▁Banda	-13255
▁Fadza	-13256
▁Ganda	-13257
▁Ndiwe	-13258
▁ekuma	-13259
▁inoku	-13260
▁kudii	-13261
▁month	-13262
▁tangi	-13263
angzhou	-13264
kwanira	-13265
romonzi	-13266
tenderi	-13267
▁Anonzi	-13268
▁Chechi	-13269
▁Dzidza	-13270
▁Mateko	-13271
▁Series	-13272
▁Tsitsi	-13273
▁chubhu	-13274
▁mabiko	-13275
▁mumoto	-13276
▁mwando	-13277
▁napama	-13278
▁ndinoi	-13279
▁nezana	-13280
▁rakapa	-13281
▁umambo	-13282
▁yepiri	-13283
▁zvekun	-13284
kambaira	-13285
teverera	-13286
▁Tinashe	-13287
▁anoreva	-13288
▁chisati	-13289
▁inoitwa	-13290
▁kungoti	-13291
▁rwemari	-13292
▁shuviro	-13293
▁tirambe	-13294
▁vachati	-13295
▁yakwana	-13296
sanangura	-13297
tevedzere	-13298
▁Chishanu	-13299
▁February	-13300
▁Muchinda	-13301
▁Vhidhiyo	-13302
▁dzichiti	-13303
▁kurwadza	-13304
▁kutambwa	-13305
▁nekugara	-13306
▁nemapato	-13307
▁nenyasha	-13308
▁yetsvina	-13309
▁zvazvino	-13310
▁abhadhare	-13311
▁handisati	-13312
▁kufanirwa	-13313
▁kukuvadza	-13314
▁kurovedza	-13315
▁kusanduka	-13316
▁kushomeka	-13317
▁muGermany	-13318
▁neDynamos	-13319
▁nekurohwa	-13320
▁nesirivha	-13321
▁vakarohwa	-13322
▁vemumusha	-13323
▁yemutambo	-13324
tabhenakeri	-13325
▁anosangana	-13326
▁haakwanise	-13327
▁igadzirise	-13328
▁kuruzhinji	-13329
▁kutsigirwa	-13330
▁kwehuwandu	-13331
▁Dariussssss	-13332
▁muHurumende	-13333
▁nekubatsira	-13334
▁nerunyararo	-13335
▁rezvemitemo	-13336
▁vemakambani	-13337
▁wasachigaro	-13338
▁kufungidzira	-13339
▁Kuchengetedza	-13340
▁wakasununguka	-13341
▁wekupedzisira	-13342
▁dzakakurumbira	-13343
▁mumatambudziko	-13344
▁vanotsanangura	-13345
▁yepamusorosoro	-13346
▁cheParirenyatwa	-13347
Bi	-13348
DO	-13349
▁;	-13350
Iwe	-13351
lie	-13352
lou	-13353
oba	-13354
quo	-13355
uta	-13356
▁09	-13357
▁72	-13358
▁95	-13359
▁SC	-13360
▁eS	-13361
0717	-13362
Caps	-13363
crea	-13364
fect	-13365
feve	-13366
hiro	-13367
lowe	-13368
lsea	-13369
miso	-13370
onye	-13371
pemb	-13372
phen	-13373
roto	-13374
ssor	-13375
tech	-13376
tide	-13377
tisi	-13378
wire	-13379
▁30,	-13380
▁Avo	-13381
▁Ehe	-13382
▁Key	-13383
▁Mha	-13384
▁Pet	-13385
▁Tal	-13386
▁uva	-13387
▁weD	-13388
Zvita	-13389
house	-13390
ighty	-13391
ships	-13392
▁Here	-13393
▁Masa	-13394
▁Most	-13395
▁VaGa	-13396
▁Zifa	-13397
▁info	-13398
▁inte	-13399
rukiso	-13400
sainzi	-13401
zamara	-13402
▁Pachi	-13403
▁Promo	-13404
▁anofa	-13405
▁hwese	-13406
▁kuNew	-13407
▁kweru	-13408
▁micro	-13409
▁ndamu	-13410
▁ndive	-13411
▁okuti	-13412
▁ramai	-13413
▁smart	-13414
▁usiri	-13415
▁utore	-13416
▁vadzo	-13417
canoate	-13418
lection	-13419
pembere	-13420
vhurika	-13421
▁Bishop	-13422
▁Makomo	-13423
▁Tsamba	-13424
▁aiziva	-13425
▁hapasi	-13426
▁inyika	-13427
▁kunoda	-13428
▁kupota	-13429
▁kutuka	-13430
▁miriwo	-13431
▁nehana	-13432
▁ravana	-13433
▁zvinge	-13434
Kisimusi	-13435
itbridge	-13436
lifornia	-13437
mboitika	-13438
radzikwa	-13439
regerera	-13440
▁Nigeria	-13441
▁Swedish	-13442
▁emakore	-13443
▁ichaita	-13444
▁kucheka	-13445
▁kweropa	-13446
▁marasha	-13447
▁neshanu	-13448
▁process	-13449
▁rwaamai	-13450
▁through	-13451
▁vadzoka	-13452
▁vamwene	-13453
butramine	-13454
garivhume	-13455
▁Diamonds	-13456
▁Festival	-13457
▁Mushandi	-13458
▁achisiya	-13459
▁emagetsi	-13460
▁inonwisa	-13461
▁kwakadai	-13462
▁memwedzi	-13463
▁mukamuri	-13464
▁ndokuona	-13465
▁nemasoja	-13466
▁nevaroyi	-13467
▁property	-13468
▁richange	-13469
▁sezvaano	-13470
▁vakapiwa	-13471
▁vedzimba	-13472
▁yekunaya	-13473
▁zvakandi	-13474
▁zvichiri	-13475
▁zvimbuzi	-13476
▁akapondwa	-13477
▁kuvimbika	-13478
▁kwehomoni	-13479
▁ndichibva	-13480
▁vanorwara	-13481
▁Ndinotenda	-13482
▁kumadzimai	-13483
▁kwehupfumi	-13484
▁mendenenzi	-13485
▁muChinhoyi	-13486
▁panofanira	-13487
▁vemuHarare	-13488
▁yevashandi	-13489
▁Ndinobatika	-13490
▁dzekutsvaga	-13491
▁kwakasiyana	-13492
▁dhipatimendi	-13493
▁mapurasitiki	-13494
▁reDemocratic	-13495
▁zvokugadzirwa	-13496
singanzwisisike	-13497
Za	-13498
yg	-13499
:13	-13500
ECD	-13501
bun	-13502
cky	-13503
lyn	-13504
ols	-13505
▁mw	-13506
base	-13507
biki	-13508
fesa	-13509
inea	-13510
lect	-13511
lisa	-13512
nani	-13513
rini	-13514
rofu	-13515
taku	-13516
toko	-13517
vert	-13518
▁800	-13519
▁Hun	-13520
▁Mbi	-13521
▁Sun	-13522
▁fea	-13523
▁nep	-13524
▁veA	-13525
▁wor	-13526
▁www	-13527
bhani	-13528
bhine	-13529
bvumo	-13530
enger	-13531
falls	-13532
humbu	-13533
inani	-13534
mbiya	-13535
purwa	-13536
ruvhu	-13537
sions	-13538
zvuru	-13539
▁000.	-13540
▁Care	-13541
▁Kuka	-13542
▁Lily	-13543
▁Long	-13544
▁Pama	-13545
▁aina	-13546
▁bofu	-13547
▁ekun	-13548
▁ihwo	-13549
▁mame	-13550
▁muts	-13551
▁plan	-13552
▁turn	-13553
▁yaai	-13554
budira	-13555
dhiani	-13556
dyarwa	-13557
kwishu	-13558
raidzo	-13559
siyane	-13560
▁Ameni	-13561
▁Conne	-13562
▁Isaya	-13563
▁muNew	-13564
▁ndina	-13565
▁place	-13566
▁tinge	-13567
▁zvaai	-13568
bhuramu	-13569
fundira	-13570
kamurwa	-13571
kurapwa	-13572
putsika	-13573
ruption	-13574
shamisi	-13575
zarurwa	-13576
▁Norman	-13577
▁VaNick	-13578
▁Valley	-13579
▁atange	-13580
▁hwahwa	-13581
▁kutema	-13582
▁munoti	-13583
▁ndanga	-13584
▁ndechi	-13585
▁nemiti	-13586
▁nenhau	-13587
▁nerufu	-13588
▁wakafa	-13589
Champion	-13590
Gumiguru	-13591
mhandara	-13592
popotera	-13593
svedzera	-13594
tsanurwa	-13595
zvinyima	-13596
▁Chamber	-13597
▁Muzondo	-13598
▁Njelele	-13599
▁Nyangwe	-13600
▁VaPeter	-13601
▁configu	-13602
▁dzavaka	-13603
▁kudhura	-13604
▁mijenya	-13605
▁mitsara	-13606
▁namaoko	-13607
▁pazvose	-13608
▁sahwira	-13609
▁totaura	-13610
▁vanotya	-13611
▁wetsiva	-13612
▁zvinomu	-13613
pembenene	-13614
▁achibuda	-13615
▁achitora	-13616
▁chimbuzi	-13617
▁dzeutano	-13618
▁inofamba	-13619
▁kuBuhera	-13620
▁kuMalawi	-13621
▁kungoita	-13622
▁kuzviona	-13623
▁masvingo	-13624
▁mumaruwa	-13625
▁pakukura	-13626
▁vanobata	-13627
▁wakaenda	-13628
Domboshava	-13629
bhadharisa	-13630
chinyakare	-13631
etherlands	-13632
▁Thokozani	-13633
▁achifunga	-13634
▁kumucheto	-13635
▁namatanda	-13636
▁nekurerwa	-13637
▁vachisiya	-13638
▁zvedzidzo	-13639
▁chakaitika	-13640
▁chakasimba	-13641
▁hwepfungwa	-13642
▁kuzvikudza	-13643
▁kwehupenyu	-13644
▁Cherechedza	-13645
▁dzemadzimai	-13646
▁havafanirwe	-13647
▁rerunyararo	-13648
▁vepachikoro	-13649
▁nevanhukadzi	-13650
▁vakashandisa	-13651
▁nevatungamiri	-13652
▁yemizambiringa	-13653
▁kushungurudzika	-13654
ESA	-13655
gby	-13656
sic	-13657
▁06	-13658
▁Bv	-13659
▁Op	-13660
days	-13661
feri	-13662
gain	-13663
jing	-13664
kazi	-13665
kemu	-13666
veve	-13667
▁Non	-13668
▁YEM	-13669
▁naC	-13670
Amori	-13671
garis	-13672
hwine	-13673
ngana	-13674
raswa	-13675
▁Code	-13676
▁Equi	-13677
▁Fair	-13678
▁UNIT	-13679
▁paVa	-13680
▁piri	-13681
▁tech	-13682
canner	-13683
medura	-13684
reland	-13685
rwirwa	-13686
▁Metro	-13687
▁avana	-13688
▁ester	-13689
▁mundo	-13690
▁nyere	-13691
▁rekwa	-13692
▁vaano	-13693
▁vanoi	-13694
onderai	-13695
ongedza	-13696
ongedzo	-13697
onyorwa	-13698
tsekana	-13699
vanonzi	-13700
▁Action	-13701
▁Arabia	-13702
▁Muviri	-13703
▁abvise	-13704
▁chauno	-13705
▁chitsi	-13706
▁dangwe	-13707
▁kanawo	-13708
▁kuibva	-13709
▁kujeka	-13710
▁kuvuya	-13711
▁kuzeya	-13712
▁miseve	-13713
▁okunze	-13714
▁reimba	-13715
▁weSADC	-13716
ingapore	-13717
▁Handisi	-13718
▁Kuumbwa	-13719
▁Musonda	-13720
▁Tatenda	-13721
▁display	-13722
▁kabhoni	-13723
▁kuAfcon	-13724
▁kubhawa	-13725
▁mandiri	-13726
▁mokunge	-13727
▁ndokuva	-13728
▁nekunwa	-13729
▁vafambe	-13730
▁vakatya	-13731
▁yekuzvi	-13732
gamuchire	-13733
simudzire	-13734
tibatsira	-13735
utachiona	-13736
▁Delivery	-13737
▁Movement	-13738
▁Musekiwa	-13739
▁Shenzhen	-13740
▁Vaimbova	-13741
▁kunovaka	-13742
▁kutarira	-13743
▁matsamba	-13744
▁nezvezvi	-13745
▁reSenate	-13746
▁wakaiswa	-13747
▁wandaida	-13748
gadziridza	-13749
hannesburg	-13750
tevedzerwa	-13751
▁Champions	-13752
▁Enanthate	-13753
▁Machinery	-13754
▁Valentine	-13755
▁Zvirongwa	-13756
▁chibereko	-13757
▁kwemafuta	-13758
▁makundano	-13759
▁mumashoko	-13760
▁yakasviba	-13761
▁zvinobata	-13762
Gukurahundi	-13763
dzvinyirira	-13764
▁Kugadzirwa	-13765
▁chidzitiro	-13766
▁mhedzisiro	-13767
▁rakanyorwa	-13768
▁wepamusoro	-13769
▁Zvinotevera	-13770
▁inoenderana	-13771
▁kuvabatsira	-13772
▁Vanachiremba	-13773
▁chinobatsira	-13774
▁inotarisirwa	-13775
▁dzemhirizhonga	-13776
CH	-13777
LE	-13778
:17	-13779
IRA	-13780
ISA	-13781
bit	-13782
bul	-13783
jen	-13784
tex	-13785
uku	-13786
▁76	-13787
able	-13788
arth	-13789
cean	-13790
fiti	-13791
hadi	-13792
iswe	-13793
kate	-13794
onei	-13795
onwa	-13796
rick	-13797
rown	-13798
spho	-13799
tane	-13800
tyle	-13801
uick	-13802
wona	-13803
▁IMF	-13804
▁Sou	-13805
banje	-13806
bvuta	-13807
fungu	-13808
gurwa	-13809
ingan	-13810
kunga	-13811
mhuru	-13812
pende	-13813
tangi	-13814
verti	-13815
wiswa	-13816
yenga	-13817
▁Hall	-13818
▁Izwi	-13819
▁July	-13820
▁Mail	-13821
▁Mako	-13822
▁Nema	-13823
▁Open	-13824
▁free	-13825
▁nesh	-13826
▁paso	-13827
▁pemi	-13828
kotama	-13829
lution	-13830
mudiki	-13831
siirwa	-13832
▁Akamu	-13833
▁Carol	-13834
▁Cooki	-13835
▁Tichi	-13836
▁VaNya	-13837
▁black	-13838
▁chepa	-13839
▁egore	-13840
▁emuno	-13841
▁kambo	-13842
▁vobva	-13843
bhorosi	-13844
chinaya	-13845
panduki	-13846
shavane	-13847
svinura	-13848
vanetsa	-13849
vanzira	-13850
▁Pastor	-13851
▁Vatori	-13852
▁anombo	-13853
▁bookma	-13854
▁chaimo	-13855
▁charac	-13856
▁hatidi	-13857
▁havazi	-13858
▁hwezvi	-13859
▁hwindo	-13860
▁inhibi	-13861
▁mubako	-13862
▁retatu	-13863
▁revana	-13864
▁vaimbo	-13865
▁wokuti	-13866
fungirwa	-13867
ongonzwa	-13868
pindurwa	-13869
zvionera	-13870
▁Express	-13871
▁Munyaya	-13872
▁dzainge	-13873
▁garandi	-13874
▁haticha	-13875
▁hunenge	-13876
▁ichinge	-13877
▁kanenge	-13878
▁kanzura	-13879
▁kukamba	-13880
▁mekuona	-13881
▁ndinomu	-13882
▁ndiwane	-13883
▁svikiro	-13884
▁vachito	-13885
▁vatumwa	-13886
▁wemhuri	-13887
▁zvakava	-13888
anyanduri	-13889
kongiresi	-13890
ongedzera	-13891
remekedze	-13892
taridzika	-13893
▁Hurongwa	-13894
▁November	-13895
▁anowanzo	-13896
▁kuZambia	-13897
▁kudhinda	-13898
▁kuputika	-13899
▁mucheche	-13900
▁nasekuru	-13901
▁rwaMwari	-13902
▁semvumba	-13903
▁vararame	-13904
▁vatsvage	-13905
▁zviitike	-13906
kirogiramu	-13907
yamavhuvhu	-13908
▁Christian	-13909
▁kuurayiwa	-13910
▁vakafamba	-13911
▁Ambassador	-13912
▁anoshamisa	-13913
▁inotsigira	-13914
▁kuchirwere	-13915
▁kwenzvimbo	-13916
▁muNational	-13917
▁muhurukuro	-13918
▁nekutsvaga	-13919
▁nokubwinya	-13920
▁tsananguro	-13921
▁zvendarama	-13922
tambanudzira	-13923
▁namadzimambo	-13924
▁nechikumbiro	-13925
▁wemaWarriors	-13926
▁chipangamazano	-13927
▁kumbunyikidzwa	-13928
FF	-13929
NA	-13930
em	-13931
19.	-13932
8).	-13933
9).	-13934
Rea	-13935
mma	-13936
mne	-13937
ort	-13938
zho	-13939
▁Ph	-13940
▁us	-13941
Muno	-13942
cher	-13943
gate	-13944
ghts	-13945
giso	-13946
goma	-13947
guti	-13948
ideo	-13949
mand	-13950
pise	-13951
reak	-13952
regi	-13953
tric	-13954
tune	-13955
vepo	-13956
▁25,	-13957
▁Clo	-13958
▁Gal	-13959
▁Lar	-13960
▁Sco	-13961
▁exi	-13962
▁yaA	-13963
Zviri	-13964
batso	-13965
bvuku	-13966
dyisa	-13967
inary	-13968
irini	-13969
onawo	-13970
risis	-13971
sandu	-13972
shore	-13973
yambu	-13974
zarus	-13975
▁Hari	-13976
▁Pamu	-13977
▁Ruth	-13978
▁Sefa	-13979
▁VaEd	-13980
▁into	-13981
▁paai	-13982
▁seri	-13983
▁team	-13984
Dzimwe	-13985
bhodha	-13986
ckdown	-13987
listat	-13988
topher	-13989
ystems	-13990
zviisa	-13991
▁Haisi	-13992
▁Mauto	-13993
▁Photo	-13994
▁Ruoko	-13995
▁artic	-13996
▁asiya	-13997
▁nezwi	-13998
▁njuzu	-13999
▁taita	-14000
buditsa	-14001
chigare	-14002
sarurwa	-14003
tsanura	-14004
viriswa	-14005
▁Amazon	-14006
▁Cotton	-14007
▁Flight	-14008
▁Madrid	-14009
▁Mhosva	-14010
▁Return	-14011
▁UNITED	-14012
▁Webcam	-14013
▁ashaya	-14014
▁dzanga	-14015
▁husope	-14016
▁hwacho	-14017
▁kasino	-14018
▁kurema	-14019
▁nerudo	-14020
▁nokusa	-14021
▁nyuchi	-14022
▁raJesu	-14023
▁tinova	-14024
▁vasere	-14025
▁vasiye	-14026
▁vatino	-14027
▁yekumu	-14028
▁zvaizo	-14029
gressive	-14030
kanamata	-14031
tegories	-14032
▁Ndakamu	-14033
▁Pandaka	-14034
▁Vakandi	-14035
▁Zimunya	-14036
▁chavaka	-14037
▁inhengo	-14038
▁mundima	-14039
▁ndaenda	-14040
▁nemimba	-14041
▁pakurwa	-14042
▁vanhuwo	-14043
▁zvakamu	-14044
vhenekera	-14045
▁Madungwe	-14046
▁dzekunze	-14047
▁hwemunhu	-14048
▁kurasika	-14049
▁kurongwa	-14050
▁kuvhurwa	-14051
▁mukurapa	-14052
▁mukurima	-14053
▁namabasa	-14054
▁neHarare	-14055
▁nemapazi	-14056
▁pagungwa	-14057
▁pakureba	-14058
▁vechechi	-14059
▁wemukuru	-14060
▁yekutora	-14061
▁zvandiri	-14062
fananidzwa	-14063
purovhinzi	-14064
▁Handizive	-14065
▁Mudetembo	-14066
▁inflation	-14067
▁kundirova	-14068
▁mutembere	-14069
▁nekupihwa	-14070
▁nemaonero	-14071
▁tikwanise	-14072
▁wekodzero	-14073
▁yakakwira	-14074
▁zvishongo	-14075
▁Kuvandudza	-14076
▁akagadzira	-14077
▁chisarudzo	-14078
▁kwesarudzo	-14079
▁ndakatanga	-14080
▁nechidimbu	-14081
▁nezvipfuwo	-14082
▁pachivanhu	-14083
▁rechirwere	-14084
▁yekushanda	-14085
testosterone	-14086
▁Kugadzirisa	-14087
▁Vanotengesa	-14088
▁kondirakiti	-14089
▁makombiyuta	-14090
▁vakapindura	-14091
▁vasingagoni	-14092
▁vasingazivi	-14093
▁yakaburitsa	-14094
▁chehurumende	-14095
▁rwamabvazuva	-14096
▁nemifananidzo	-14097
▁vemabhizimusi	-14098
▁zvakanyanyisa	-14099
▁nekuchengetedza	-14100
▁vanofungidzirwa	-14101
js	-14102
lt	-14103
ERA	-14104
gua	-14105
oro	-14106
ved	-14107
yle	-14108
▁EU	-14109
▁af	-14110
aran	-14111
indo	-14112
itia	-14113
tock	-14114
ubai	-14115
yimo	-14116
zeni	-14117
zone	-14118
▁Tag	-14119
▁boo	-14120
▁bwe	-14121
▁den	-14122
▁paD	-14123
Asset	-14124
Nguva	-14125
Title	-14126
anzva	-14127
donje	-14128
gonhi	-14129
hachi	-14130
kando	-14131
lland	-14132
llers	-14133
mbane	-14134
mhare	-14135
miswe	-14136
shopu	-14137
strum	-14138
sunge	-14139
ukira	-14140
▁Chat	-14141
▁Mano	-14142
▁cheB	-14143
▁dutu	-14144
▁furo	-14145
▁haru	-14146
▁kapu	-14147
▁kufe	-14148
▁look	-14149
▁reLa	-14150
▁yato	-14151
dhadhi	-14152
inomwe	-14153
itirwe	-14154
rirana	-14155
zarira	-14156
▁Other	-14157
▁iwaya	-14158
▁yeMDC	-14159
▁zvoga	-14160
mbonzwa	-14161
zivisai	-14162
▁Chiefs	-14163
▁Rugare	-14164
▁ndedze	-14165
▁pevana	-14166
▁purazi	-14167
▁svosve	-14168
▁vasipo	-14169
▁waamai	-14170
▁yedare	-14171
poration	-14172
▁aimbove	-14173
▁akazara	-14174
▁kuhondo	-14175
▁nechipo	-14176
▁nekuchi	-14177
▁nousiku	-14178
▁tasvika	-14179
▁vandaka	-14180
▁zvayaka	-14181
dhudhudhu	-14182
dziridzwa	-14183
sungunuka	-14184
tatsurana	-14185
tenderana	-14186
▁Mavhinga	-14187
▁mbongoro	-14188
▁mukirasi	-14189
▁ndakange	-14190
▁ndichamu	-14191
▁vatariri	-14192
▁vatongwe	-14193
▁yemazuva	-14194
▁zvemusha	-14195
bourfields	-14196
▁Muchikamu	-14197
▁Ramaphosa	-14198
▁VaMasimba	-14199
▁WordPress	-14200
▁akatevera	-14201
▁dzemhando	-14202
▁inoyerera	-14203
▁kudzosera	-14204
▁ndinonzwa	-14205
▁nendarira	-14206
▁vasangana	-14207
▁wakaramba	-14208
▁zvichange	-14209
vhundutsira	-14210
▁Curriculum	-14211
▁kuChipinge	-14212
▁makasitoma	-14213
▁achitambira	-14214
▁nemakanzuru	-14215
▁rinofanirwa	-14216
▁anotarisirwa	-14217
▁dzokubhejera	-14218
▁vakarasikirwa	-14219
▁nezvematongerwo	-14220
EO	-14221
xu	-14222
ACC	-14223
bei	-14224
cat	-14225
hoo	-14226
sca	-14227
sec	-14228
tre	-14229
vey	-14230
vic	-14231
▁79	-14232
▁Yu	-14233
▁ce	-14234
9.99	-14235
band	-14236
hemu	-14237
mide	-14238
pire	-14239
rant	-14240
roof	-14241
unze	-14242
yril	-14243
▁21.	-14244
▁Sub	-14245
▁Vin	-14246
▁eMa	-14247
▁ken	-14248
▁spa	-14249
▁tho	-14250
▁uta	-14251
gango	-14252
hodha	-14253
ondai	-14254
ruman	-14255
thema	-14256
tsuro	-14257
vhiya	-14258
▁2022	-14259
▁Advo	-14260
▁Nemi	-14261
▁Rail	-14262
▁Roku	-14263
▁Sign	-14264
▁VaRe	-14265
▁bata	-14266
▁jaya	-14267
▁kuse	-14268
▁kute	-14269
▁naKa	-14270
▁nave	-14271
▁nepe	-14272
▁nzou	-14273
▁remo	-14274
▁saVa	-14275
▁sand	-14276
▁show	-14277
▁sora	-14278
▁vaMu	-14279
dzanga	-14280
dzorwa	-14281
onekwi	-14282
rsonal	-14283
siteri	-14284
▁Mande	-14285
▁Ndoro	-14286
▁Order	-14287
▁dzive	-14288
▁kuNor	-14289
▁mechi	-14290
▁ndiVa	-14291
▁pairs	-14292
▁pezva	-14293
▁vaito	-14294
▁yabva	-14295
bhineri	-14296
chenura	-14297
chingwa	-14298
kunetsa	-14299
▁Bridge	-14300
▁Kubata	-14301
▁Ruvara	-14302
▁Shasha	-14303
▁carbon	-14304
▁faindi	-14305
▁hameno	-14306
▁kugomo	-14307
▁kwavai	-14308
▁kwekun	-14309
▁majaya	-14310
▁sebato	-14311
▁unondi	-14312
▁vavana	-14313
▁vavari	-14314
▁vedare	-14315
▁yainzi	-14316
Victoria	-14317
vhoterwa	-14318
▁Chivero	-14319
▁January	-14320
▁Khumalo	-14321
▁Kutenga	-14322
▁Mumwewo	-14323
▁Prosper	-14324
▁Richard	-14325
▁Tawanda	-14326
▁Vakanga	-14327
▁acetate	-14328
▁chavari	-14329
▁hunoita	-14330
▁kutambu	-14331
▁kwayaka	-14332
▁mambure	-14333
▁mumhepo	-14334
▁naMambo	-14335
▁nemwoyo	-14336
▁nguruve	-14337
Liverpool	-14338
Zimpapers	-14339
bhaibheri	-14340
dangariro	-14341
diridzira	-14342
pandukira	-14343
▁Tsanangu	-14344
▁akaroora	-14345
▁kukwidza	-14346
▁kutyorwa	-14347
▁machechi	-14348
▁nemuviri	-14349
▁nitrogen	-14350
▁rakajeka	-14351
▁ruponeso	-14352
▁vaifamba	-14353
▁vanorima	-14354
▁yedzidzo	-14355
▁zvisikwa	-14356
▁akaonekwa	-14357
▁inopfuura	-14358
▁mapikicha	-14359
▁mubhokisi	-14360
▁muzvikamu	-14361
▁ngavarege	-14362
▁vachagara	-14363
▁vanovimba	-14364
▁wakakosha	-14365
▁yakananga	-14366
▁yendarama	-14367
▁zvibayiro	-14368
▁Chikonzero	-14369
▁dingindira	-14370
▁nechekuita	-14371
▁kusunungura	-14372
▁kwemakungwa	-14373
▁kwevabereki	-14374
▁mumakundano	-14375
▁inotonhorera	-14376
▁chemaWarriors	-14377
▁zvinozivikanwa	-14378
Fe	-14379
fy	-14380
lk	-14381
ud	-14382
HGH	-14383
Uye	-14384
▁(9	-14385
▁08	-14386
▁5-	-14387
▁5:	-14388
▁69	-14389
▁SH	-14390
▁ag	-14391
▁rs	-14392
ency	-14393
ille	-14394
ivhi	-14395
meya	-14396
mure	-14397
nual	-14398
turo	-14399
vati	-14400
yeka	-14401
zeye	-14402
ziro	-14403
▁26,	-14404
▁Fil	-14405
▁Fol	-14406
▁Lee	-14407
▁Lou	-14408
▁Off	-14409
▁mus	-14410
▁neU	-14411
▁pas	-14412
▁waH	-14413
chava	-14414
liswa	-14415
liver	-14416
mbare	-14417
risti	-14418
scrip	-14419
serwa	-14420
trans	-14421
ukama	-14422
venox	-14423
▁2021	-14424
▁Cash	-14425
▁Disa	-14426
▁Full	-14427
▁Hove	-14428
▁Inno	-14429
▁Logo	-14430
▁Main	-14431
▁Make	-14432
▁Meso	-14433
▁Pose	-14434
▁Site	-14435
▁Uyai	-14436
▁help	-14437
▁hune	-14438
▁most	-14439
▁raMa	-14440
bikisa	-14441
dzikin	-14442
kristu	-14443
kugara	-14444
kuziva	-14445
lympic	-14446
pepeti	-14447
ramisa	-14448
rative	-14449
shanje	-14450
verend	-14451
▁Asiwo	-14452
▁Faith	-14453
▁Girls	-14454
▁Guide	-14455
▁Jobho	-14456
▁Saint	-14457
▁elect	-14458
▁kwaai	-14459
▁naEri	-14460
▁paChi	-14461
▁rsquo	-14462
▁ugare	-14463
▁uzive	-14464
▁vaimu	-14465
▁zvamu	-14466
Pandaka	-14467
batidza	-14468
chetere	-14469
minetsi	-14470
mupinyi	-14471
yorerwo	-14472
▁Daniel	-14473
▁Square	-14474
▁huripo	-14475
▁itange	-14476
▁kubato	-14477
▁maduku	-14478
▁makare	-14479
▁nembeu	-14480
▁peimba	-14481
▁takati	-14482
▁wainge	-14483
▁yakana	-14484
apostora	-14485
oldenone	-14486
tateguru	-14487
▁Betting	-14488
▁Ronaldo	-14489
▁Verenga	-14490
▁chapupu	-14491
▁kuGokwe	-14492
▁kunhivi	-14493
▁mukuona	-14494
▁ndanzwa	-14495
▁nerongo	-14496
▁netambo	-14497
▁pakudya	-14498
▁rubatso	-14499
▁sezvava	-14500
▁vachazo	-14501
dzikunura	-14502
kweretesa	-14503
shambidza	-14504
tendeseka	-14505
unganidze	-14506
▁Mamiriro	-14507
▁Mountain	-14508
▁Mumakore	-14509
▁Wikidata	-14510
▁kupokana	-14511
▁kwakange	-14512
▁kwemaawa	-14513
▁mumapoka	-14514
▁ndinongo	-14515
▁nenjodzi	-14516
▁pasvondo	-14517
▁Panzvimbo	-14518
▁Priscilla	-14519
▁Professor	-14520
▁dzevakuru	-14521
▁kuparidza	-14522
▁mutorongo	-14523
▁nezvitatu	-14524
▁sikarudzi	-14525
▁vabatsire	-14526
▁vakwanisa	-14527
▁vezvitoro	-14528
▁yehupenyu	-14529
▁yekupinda	-14530
▁zvakadini	-14531
▁zvisineyi	-14532
komberedzwa	-14533
▁akaratidza	-14534
▁inokonzera	-14535
▁kuvhenekwa	-14536
▁marezinesi	-14537
▁neBulawayo	-14538
▁nezvokudya	-14539
tsanangurira	-14540
▁achiratidza	-14541
▁akatsinhira	-14542
▁kwavakaitwa	-14543
▁rezvekurima	-14544
▁yakavimbika	-14545
▁zvokuvakisa	-14546
▁kunovhenekwa	-14547
▁kuremekedzwa	-14548
▁pakatarisana	-14549
▁rakatarisana	-14550
▁wemushakabvu	-14551
▁yaVaEmmerson	-14552
▁zvibvumirano	-14553
▁mukugadzirisa	-14554
▁tichishandisa	-14555
▁navanachiremba	-14556
▁akasiyanasiyana	-14557
HT	-14558
RL	-14559
-50	-14560
1).	-14561
ANU	-14562
One	-14563
Wil	-14564
bum	-14565
imi	-14566
mva	-14567
▁3:	-14568
▁84	-14569
2020	-14570
Anti	-14571
atar	-14572
goti	-14573
guwo	-14574
hiwa	-14575
mela	-14576
olet	-14577
sape	-14578
unts	-14579
yepe	-14580
▁(''	-14581
▁0-0	-14582
▁18,	-14583
▁24,	-14584
▁27,	-14585
▁Add	-14586
▁Nhu	-14587
▁twe	-14588
bviri	-14589
color	-14590
dziki	-14591
hungu	-14592
itals	-14593
leeve	-14594
phoid	-14595
sadza	-14596
zombo	-14597
zorwa	-14598
▁Bere	-14599
▁Gift	-14600
▁Huru	-14601
▁Indi	-14602
▁Nama	-14603
▁VaHa	-14604
▁VaJe	-14605
▁Woku	-14606
▁Yose	-14607
▁Zvai	-14608
▁mafe	-14609
▁mayo	-14610
▁naZe	-14611
▁paye	-14612
▁yamu	-14613
▁yapa	-14614
dariki	-14615
davado	-14616
kistan	-14617
rivacy	-14618
singwi	-14619
upreme	-14620
yester	-14621
zvezvi	-14622
▁River	-14623
▁Tanga	-14624
▁nashe	-14625
▁parti	-14626
▁under	-14627
▁zvaya	-14628
hangeri	-14629
paridzi	-14630
pfaidzo	-14631
rambira	-14632
reazari	-14633
sandura	-14634
sendeka	-14635
tendere	-14636
▁Dzidzo	-14637
▁Easter	-14638
▁Gladys	-14639
▁Komiti	-14640
▁adzoka	-14641
▁adzoke	-14642
▁apihwe	-14643
▁husina	-14644
▁nefuma	-14645
▁nezera	-14646
▁nhanho	-14647
▁output	-14648
▁rainzi	-14649
▁tsanga	-14650
▁wepasi	-14651
▁zviine	-14652
Chevrons	-14653
Chokwadi	-14654
gondohwe	-14655
ramisira	-14656
zvirimwa	-14657
▁Handidi	-14658
▁Magwaro	-14659
▁Mugwaro	-14660
▁akasika	-14661
▁chevana	-14662
▁gadzira	-14663
▁haazive	-14664
▁kuraira	-14665
▁kuvigwa	-14666
▁kuyeuka	-14667
▁mabhiri	-14668
▁mumvuri	-14669
▁ndinoto	-14670
▁rasvika	-14671
▁sabhuku	-14672
▁specifi	-14673
▁vabvuma	-14674
▁vachaku	-14675
▁vupenyu	-14676
▁yambiro	-14677
kurukurwa	-14678
mbichimbi	-14679
ramatongo	-14680
rongedzwa	-14681
▁Comments	-14682
▁Election	-14683
▁Nhetembo	-14684
▁ichienda	-14685
▁kuRussia	-14686
▁kugovera	-14687
▁kupurazi	-14688
▁kuzogara	-14689
▁nekuvapa	-14690
[...]
