<pad>	0
<s>	0
</s>	0
<unk>	0
an	-0
ku	-1
ak	-2
ra	-3
▁ku	-4
in	-5
▁m	-6
ri	-7
▁n	-8
ch	-9
dz	-10
wa	-11
zv	-12
va	-13
ti	-14
aka	-15
re	-16
we	-17
am	-18
ro	-19
▁p	-20
si	-21
en	-22
▁mu	-23
on	-24
▁zv	-25
ye	-26
ana	-27
ta	-28
▁u	-29
''	-30
ga	-31
▁k	-32
is	-33
hu	-34
ka	-35
ino	-36
▁v	-37
chi	-38
ru	-39
mb	-40
dzi	-41
ha	-42
da	-43
▁M	-44
▁i	-45
▁a	-46
▁ne	-47
un	-48
te	-49
ma	-50
se	-51
ya	-52
di	-53
▁ma	-54
ano	-55
▁uye	-56
sh	-57
zi	-58
▁va	-59
ba	-60
gu	-61
sa	-62
oku	-63
▁K	-64
▁ch	-65
hi	-66
dza	-67
▁pa	-68
vi	-69
yo	-70
'''	-71
▁C	-72
mu	-73
ge	-74
rwa	-75
▁N	-76
ani	-77
▁(	-78
ko	-79
▁aka	-80
to	-81
▁y	-82
▁kana	-83
▁S	-84
de	-85
he	-86
mi	-87
pa	-88
▁kuti	-89
ho	-90
▁A	-91
and	-92
ve	-93
isa	-94
zvi	-95
▁I	-96
mwe	-97
ako	-98
▁ye	-99
go	-100
▁r	-101
▁T	-102
▁kun	-103
ura	-104
▁zvi	-105
▁w	-106
anga	-107
▁pam	-108
so	-109
▁chi	-110
yi	-111
▁V	-112
▁P	-113
ona	-114
mba	-115
po	-116
▁Z	-117
▁dz	-118
▁ino	-119
zvo	-120
fu	-121
ki	-122
amb	-123
▁na	-124
ane	-125
ts	-126
cha	-127
ita	-128
vo	-129
wi	-130
tu	-131
▁1	-132
no	-133
▁'''	-134
▁re	-135
le	-136
▁Ku	-137
▁we	-138
▁B	-139
▁noku	-140
pe	-141
▁mun	-142
ake	-143
▁kwe	-144
wan	-145
ine	-146
iri	-147
wo	-148
▁e	-149
▁ano	-150
ten	-151
▁ndi	-152
▁2	-153
anhu	-154
▁D	-155
▁vaka	-156
do	-157
▁vano	-158
ina	-159
▁R	-160
▁b	-161
akan	-162
▁zvino	-163
▁H	-164
kuru	-165
ose	-166
ing	-167
▁Ma	-168
▁J	-169
du	-170
▁Mu	-171
▁kub	-172
gadzi	-173
soro	-174
ang	-175
ama	-176
▁h	-177
yu	-178
kwa	-179
▁U	-180
dzo	-181
▁s	-182
me	-183
tsi	-184
reva	-185
mbo	-186
▁wa	-187
▁yaka	-188
▁che	-189
mo	-190
▁kwa	-191
ira	-192
..	-193
▁se	-194
▁ha	-195
rira	-196
la	-197
▁G	-198
ung	-199
iswa	-200
▁pamu	-201
▁t	-202
00	-203
angu	-204
amu	-205
li	-206
era	-207
shand	-208
ere	-209
yika	-210
es	-211
za	-212
▁iri	-213
pi	-214
eri	-215
fa	-216
▁ya	-217
▁zvaka	-218
▁E	-219
▁F	-220
er	-221
or	-222
▁Chi	-223
▁ru	-224
▁in	-225
vha	-226
dzwa	-227
▁L	-228
gona	-229
▁Zv	-230
zita	-231
anda	-232
ron	-233
▁c	-234
ji	-235
it	-236
▁pamusoro	-237
zu	-238
iti	-239
enge	-240
▁W	-241
amba	-242
svi	-243
zo	-244
lo	-245
▁o	-246
▁uno	-247
wari	-248
▁-	-249
wana	-250
▁hu	-251
inhu	-252
pfu	-253
eho	-254
▁no	-255
▁pe	-256
inga	-257
akanga	-258
sha	-259
yan	-260
ambo	-261
zuva	-262
sira	-263
hin	-264
ehovha	-265
oko	-266
vu	-267
dhi	-268
bu	-269
▁kubva	-270
ce	-271
viri	-272
enyu	-273
gwa	-274
mbi	-275
▁zve	-276
one	-277
tanga	-278
▁ra	-279
▁asi	-280
ish	-281
▁ri	-282
akati	-283
al	-284
▁f	-285
▁zva	-286
zvimbo	-287
uro	-288
▁mi	-289
ar	-290
guva	-291
ke	-292
▁zita	-293
fani	-294
).	-295
st	-296
che	-297
▁ro	-298
ter	-299
▁kureva	-300
▁rino	-301
▁/	-302
▁Va	-303
pu	-304
▁vane	-305
oni	-306
zwi	-307
ai	-308
gi	-309
basa	-310
▁Zvino	-311
ze	-312
cho	-313
▁Y	-314
▁si	-315
▁vanoti	-316
wanda	-317
▁nd	-318
▁3	-319
▁kw	-320
kun	-321
01	-322
enda	-323
tari	-324
bva	-325
akanaka	-326
ren	-327
▁ari	-328
kura	-329
iso	-330
▁"	-331
tion	-332
ur	-333
ini	-334
▁paku	-335
▁waka	-336
▁nokuti	-337
▁O	-338
et	-339
svika	-340
▁iwe	-341
zira	-342
ol	-343
amwe	-344
fanira	-345
▁Vanhu	-346
pin	-347
...	-348
▁Ch	-349
ry	-350
▁pamwe	-351
mana	-352
yana	-353
gadzirwa	-354
sang	-355
▁munhu	-356
taura	-357
dzera	-358
ari	-359
ck	-360
shu	-361
chin	-362
mbe	-363
shoko	-364
ongo	-365
andi	-366
▁In	-367
co	-368
fan	-369
rati	-370
▁neku	-371
▁nen	-372
▁achi	-373
▁d	-374
▁dzi	-375
▁vachi	-376
▁Jehovha	-377
shandiswa	-378
kana	-379
ende	-380
onga	-381
zhin	-382
▁akati	-383
zhinji	-384
▁un	-385
akomana	-386
▁of	-387
▁vanhu	-388
▁ve	-389
vaka	-390
uri	-391
il	-392
ondo	-393
okuti	-394
dha	-395
wani	-396
▁201	-397
▁ti	-398
▁yeku	-399
vura	-400
▁pasi	-401
tsva	-402
ty	-403
▁...	-404
▁dze	-405
▁kune	-406
she	-407
th	-408
▁Mwari	-409
▁pakati	-410
amiri	-411
▁Kana	-412
▁Pa	-413
pfuura	-414
vanhu	-415
hen	-416
▁chino	-417
tsa	-418
mun	-419
lu	-420
gadziri	-421
ou	-422
aki	-423
onzi	-424
ca	-425
shandisa	-426
je	-427
▁is	-428
▁gu	-429
gore	-430
dzira	-431
▁nguva	-432
▁''	-433
▁kuna	-434
imba	-435
▁Ndi	-436
kira	-437
▁mumwe	-438
▁chete	-439
▁yo	-440
su	-441
han	-442
vhi	-443
▁5	-444
▁iyo	-445
chenge	-446
gara	-447
▁The	-448
▁kuva	-449
bo	-450
▁kuno	-451
siyana	-452
▁raka	-453
famba	-454
tora	-455
▁4	-456
kati	-457
teve	-458
bat	-459
▁ane	-460
bhu	-461
rama	-462
ni	-463
▁pan	-464
tenge	-465
sina	-466
dya	-467
▁Zvi	-468
batsi	-469
▁hwe	-470
▁zvose	-471
at	-472
▁ichi	-473
el	-474
ver	-475
ss	-476
▁Ne	-477
siti	-478
zve	-479
▁dzaka	-480
ci	-481
rera	-482
zwa	-483
▁Mo	-484
▁nzvimbo	-485
▁mo	-486
▁rwe	-487
▁nomu	-488
▁nama	-489
beri	-490
rume	-491
uno	-492
shanda	-493
ando	-494
unga	-495
▁muna	-496
zvozvo	-497
ungwa	-498
bhi	-499
zva	-500
▁basa	-501
▁roku	-502
▁ka	-503
ungu	-504
akore	-505
ent	-506
▁Asi	-507
▁Co	-508
▁he	-509
▁g	-510
para	-511
▁yako	-512
piri	-513
bha	-514
▁zvinhu	-515
ne	-516
dze	-517
▁dzino	-518
rana	-519
Jehovha	-520
fe	-521
ll	-522
singa	-523
tung	-524
tende	-525
gh	-526
ja	-527
ene	-528
▁to	-529
mira	-530
▁nde	-531
kan	-532
vhu	-533
yorwa	-534
fi	-535
▁Ha	-536
▁nema	-537
▁pane	-538
wanikwa	-539
ziva	-540
man	-541
kamu	-542
▁vari	-543
kumi	-544
enga	-545
wanakomana	-546
▁Nd	-547
▁an	-548
▁nem	-549
kidza	-550
▁nokuda	-551
waka	-552
ly	-553
akak	-554
▁imwe	-555
enz	-556
bata	-557
ambi	-558
bvu	-559
▁ta	-560
yanya	-561
shi	-562
papo	-563
wedzera	-564
siraeri	-565
▁the	-566
▁>	-567
▁nyika	-568
Chi	-569
▁dza	-570
rongwa	-571
tatu	-572
▁yoku	-573
▁mari	-574
▁kusvika	-575
anu	-576
bi	-577
▁sa	-578
▁Re	-579
bwe	-580
vana	-581
oo	-582
bere	-583
dai	-584
ena	-585
swa	-586
simba	-587
gadzira	-588
▁vose	-589
bv	-590
▁An	-591
▁me	-592
▁Kun	-593
penyu	-594
ad	-595
wira	-596
yore	-597
ris	-598
▁Nokuti	-599
ambu	-600
▁kuma	-601
▁Se	-602
▁19	-603
sika	-604
were	-605
sham	-606
▁zvikuru	-607
▁mwe	-608
tungamiri	-609
▁chin	-610
ton	-611
▁Ta	-612
▁Ru	-613
Mwari	-614
ipa	-615
oma	-616
▁chinhu	-617
▁iyi	-618
▁simba	-619
▁iye	-620
andu	-621
nyu	-622
▁Mun	-623
shure	-624
pinda	-625
um	-626
▁chai	-627
vara	-628
chengete	-629
esu	-630
be	-631
▁nava	-632
▁zviri	-633
mbu	-634
▁nzira	-635
itwa	-636
akako	-637
▁kuita	-638
▁wake	-639
anisira	-640
▁6	-641
kadzi	-642
▁po	-643
▁zvis	-644
edza	-645
zivi	-646
iva	-647
▁inoti	-648
▁nezvi	-649
eni	-650
▁wako	-651
▁nha	-652
▁kumu	-653
van	-654
▁pano	-655
tima	-656
der	-657
batsira	-658
baba	-659
▁ine	-660
▁pamberi	-661
fanana	-662
mbira	-663
ran	-664
Isiraeri	-665
sisa	-666
tan	-667
▁acha	-668
),	-669
tor	-670
▁kwaka	-671
kwadi	-672
▁zvin	-673
rudzi	-674
▁Aka	-675
▁musi	-676
sun	-677
anguva	-678
▁de	-679
▁ucha	-680
▁muma	-681
daro	-682
id	-683
ir	-684
▁ho	-685
▁zvoku	-686
kon	-687
▁zvichi	-688
tevera	-689
▁mwanakomana	-690
▁zvakanaka	-691
uya	-692
▁ose	-693
ongoro	-694
▁vake	-695
guta	-696
sanganisira	-697
fanani	-698
▁chaka	-699
▁cha	-700
Ma	-701
ise	-702
the	-703
ste	-704
temo	-705
AN	-706
na	-707
▁kura	-708
zvino	-709
000	-710
tse	-711
rika	-712
▁mashoko	-713
saru	-714
tivi	-715
bhe	-716
▁&	-717
us	-718
omu	-719
amusoro	-720
kanwa	-721
▁wangu	-722
▁so	-723
▁Ka	-724
▁avo	-725
pera	-726
▁kudzi	-727
uru	-728
svikira	-729
qu	-730
▁$	-731
▁here	-732
▁nga	-733
▁uchi	-734
ct	-735
hando	-736
tambo	-737
▁vana	-738
rurama	-739
midza	-740
▁izvi	-741
▁uri	-742
china	-743
▁Ba	-744
▁unogona	-745
dzidzi	-746
▁mukuru	-747
▁mvura	-748
shandi	-749
yange	-750
enzan	-751
rai	-752
▁rw	-753
tso	-754
yaya	-755
▁7	-756
tsv	-757
ratidza	-758
▁Uye	-759
0.	-760
▁kufamba	-761
huri	-762
▁van	-763
rt	-764
▁Sa	-765
▁sh	-766
akwa	-767
fananidzo	-768
munhu	-769
sunungu	-770
▁mambo	-771
▁panguva	-772
dura	-773
fungwa	-774
urwa	-775
▁pama	-776
kosha	-777
ong	-778
ristu	-779
▁kusvikira	-780
▁kwazvo	-781
▁KU	-782
▁yedu	-783
▁dzose	-784
▁kure	-785
▁nemi	-786
▁Uno	-787
yanzvi	-788
▁Jesu	-789
▁be	-790
mbwa	-791
▁Jo	-792
▁kuwana	-793
tsika	-794
▁zvinoreva	-795
▁yake	-796
▁yose	-797
▁nyore	-798
zana	-799
bho	-800
▁te	-801
hona	-802
kari	-803
▁zvakan	-804
tic	-805
▁8	-806
unda	-807
tenda	-808
▁mune	-809
▁mukati	-810
▁kushandiswa	-811
ble	-812
▁kubu	-813
▁mazwi	-814
tengesa	-815
▁kuk	-816
▁ndicha	-817
▁hw	-818
▁nh	-819
▁Ipapo	-820
dzana	-821
ishand	-822
▁nechi	-823
▁vacha	-824
itika	-825
pamusoro	-826
ut	-827
▁Mi	-828
visa	-829
▁sezvo	-830
▁zuva	-831
▁vamwe	-832
▁kwaari	-833
▁maviri	-834
mwa	-835
▁ai	-836
rege	-837
▁munyika	-838
▁mazuva	-839
▁De	-840
anidza	-841
▁sei	-842
wanisa	-843
chan	-844
veren	-845
piwa	-846
▁mum	-847
urope	-848
'''.	-849
▁nezv	-850
hwa	-851
▁ndiyo	-852
ted	-853
imbabwe	-854
▁Me	-855
▁tino	-856
▁riri	-857
zivo	-858
amuchi	-859
ng	-860
yama	-861
▁Pro	-862
vhidhi	-863
uka	-864
▁10	-865
▁We	-866
▁co	-867
▁rimwe	-868
koro	-869
ght	-870
▁isu	-871
20	-872
▁Ca	-873
▁muchi	-874
▁kwan	-875
chena	-876
▁ndiye	-877
▁di	-878
nd	-879
diwa	-880
▁kushandisa	-881
duku	-882
ld	-883
▁ndino	-884
yira	-885
▁rokuti	-886
dh	-887
▁9	-888
▁Uni	-889
zivikanwa	-890
cy	-891
rwere	-892
▁wo	-893
-1	-894
▁Vaka	-895
gira	-896
udha	-897
gamuchi	-898
▁izvo	-899
▁reku	-900
horo	-901
▁makore	-902
vari	-903
▁_	-904
▁maka	-905
pp	-906
hara	-907
▁vakanga	-908
kurumidza	-909
▁saka	-910
zera	-911
▁Si	-912
▁kuku	-913
bvun	-914
tengi	-915
misi	-916
▁kut	-917
dzika	-918
▁apo	-919
mm	-920
funga	-921
▁vai	-922
onal	-923
▁eku	-924
▁Na	-925
homa	-926
pana	-927
tengo	-928
rin	-929
angan	-930
▁Ti	-931
dzisa	-932
ishonga	-933
ramba	-934
▁kuenda	-935
denga	-936
tauro	-937
ria	-938
▁akanga	-939
▁kuru	-940
getsi	-941
itiro	-942
▁kwema	-943
▁kupfuura	-944
▁mumu	-945
sva	-946
mp	-947
▁Che	-948
▁•	-949
per	-950
▁do	-951
yora	-952
▁or	-953
▁kupa	-954
simb	-955
▁Ko	-956
futa	-957
pisa	-958
▁ini	-959
▁To	-960
run	-961
ami	-962
▁and	-963
50	-964
▁Izvi	-965
ambani	-966
virira	-967
remu	-968
tenga	-969
▁wechi	-970
simu	-971
▁zvakare	-972
▁ndaka	-973
angwa	-974
roni	-975
unhu	-976
▁kuzvi	-977
▁'	-978
▁zvimwe	-979
chokwadi	-980
VI	-981
▁Tra	-982
enzaniso	-983
tsan	-984
aizvozvo	-985
▁go	-986
enyika	-987
pto	-988
▁.	-989
▁20	-990
▁Ino	-991
Mu	-992
▁muku	-993
buda	-994
▁yavo	-995
lic	-996
ers	-997
▁guru	-998
▁kuburi	-999
kwe	-1000
▁Yaka	-1001
▁Li	-1002
wandu	-1003
▁shoko	-1004
rd	-1005
uni	-1006
▁Fa	-1007
vano	-1008
rwo	-1009
▁woku	-1010
RA	-1011
▁Ro	-1012
▁rwa	-1013
▁mabasa	-1014
▁mamwe	-1015
chete	-1016
rica	-1017
Judha	-1018
▁vakati	-1019
▁fa	-1020
▁zvakawanda	-1021
rei	-1022
▁neva	-1023
wirira	-1024
randa	-1025
▁yakan	-1026
▁nemu	-1027
▁kum	-1028
▁So	-1029
▁makumi	-1030
romo	-1031
▁imi	-1032
versi	-1033
▁kunyange	-1034
▁kweku	-1035
ph	-1036
▁ko	-1037
▁hwa	-1038
tungamirira	-1039
▁+	-1040
zvinhu	-1041
ed	-1042
wn	-1043
zha	-1044
onekwa	-1045
▁chero	-1046
▁gore	-1047
dzisira	-1048
rano	-1049
ratidzo	-1050
redza	-1051
land	-1052
▁La	-1053
inda	-1054
▁Mamwe	-1055
▁2.	-1056
kunda	-1057
▁Te	-1058
▁choku	-1059
▁akan	-1060
tsvene	-1061
▁“	-1062
Zimbabwe	-1063
▁kushanda	-1064
▁ruzivo	-1065
sara	-1066
itira	-1067
hepo	-1068
dziyo	-1069
AK	-1070
eru	-1071
vira	-1072
▁inogona	-1073
▁ga	-1074
sarudza	-1075
ric	-1076
▁ba	-1077
twa	-1078
shan	-1079
guru	-1080
zere	-1081
▁kuburikidza	-1082
pedzisira	-1083
▁Di	-1084
▁Europe	-1085
▁Ra	-1086
▁moto	-1087
hatu	-1088
diri	-1089
▁kwake	-1090
gen	-1091
tano	-1092
tarisa	-1093
dyo	-1094
ranga	-1095
tes	-1096
▁vo	-1097
yoni	-1098
versity	-1099
▁China	-1100
rypto	-1101
▁chikamu	-1102
▁ndiri	-1103
▁chaizvo	-1104
▁j	-1105
ment	-1106
▁yema	-1107
peri	-1108
▁dzimwe	-1109
ven	-1110
ul	-1111
▁He	-1112
tero	-1113
wen	-1114
ropa	-1115
▁naye	-1116
famb	-1117
sangana	-1118
zano	-1119
▁ava	-1120
akisisa	-1121
ting	-1122
havhidhi	-1123
dzirwa	-1124
shanu	-1125
▁anogona	-1126
sv	-1127
log	-1128
taurwa	-1129
▁ts	-1130
muri	-1131
gadzirisa	-1132
tya	-1133
yenge	-1134
▁pfungwa	-1135
▁Ndino	-1136
Ch	-1137
▁–	-1138
gari	-1139
▁Sta	-1140
▁uyu	-1141
onde	-1142
sati	-1143
▁kunze	-1144
izvozvo	-1145
▁Po	-1146
ther	-1147
hoko	-1148
▁200	-1149
batana	-1150
san	-1151
ungi	-1152
▁muri	-1153
▁Naizvozvo	-1154
ser	-1155
▁rake	-1156
▁bo	-1157
horoondo	-1158
cal	-1159
▁nomumwe	-1160
▁No	-1161
ster	-1162
▁Ye	-1163
den	-1164
▁yangu	-1165
▁kubudi	-1166
▁nam	-1167
aneti	-1168
▁X	-1169
und	-1170
ruka	-1171
akakwana	-1172
▁huru	-1173
hiri	-1174
▁rin	-1175
erman	-1176
▁kwen	-1177
▁mwedzi	-1178
▁Ho	-1179
ree	-1180
▁oku	-1181
men	-1182
kera	-1183
rara	-1184
kwanisa	-1185
▁chiri	-1186
▁Ano	-1187
too	-1188
tal	-1189
ongorora	-1190
▁kutaura	-1191
▁(1	-1192
▁paka	-1193
▁100	-1194
▁University	-1195
▁mhando	-1196
▁panyika	-1197
▁nyaya	-1198
▁simbi	-1199
kwata	-1200
up	-1201
TI	-1202
▁ivo	-1203
itiko	-1204
vhe	-1205
▁kwavari	-1206
▁weku	-1207
▁ndoku	-1208
▁Bo	-1209
▁ipapo	-1210
'')	-1211
yiro	-1212
▁nda	-1213
huru	-1214
▁zvigadzirwa	-1215
rwi	-1216
moni	-1217
▁Iwe	-1218
est	-1219
ono	-1220
▁ake	-1221
tional	-1222
tambu	-1223
▁Cha	-1224
▁pasina	-1225
▁guta	-1226
wanzo	-1227
pedza	-1228
hembe	-1229
shamwari	-1230
▁cheku	-1231
▁mb	-1232
▁itsva	-1233
▁vachireva	-1234
DZ	-1235
kwi	-1236
▁Gu	-1237
▁kwo	-1238
▁vaIsiraeri	-1239
▁1.	-1240
win	-1241
ber	-1242
dzidzo	-1243
gan	-1244
▁12	-1245
▁mwana	-1246
▁pachi	-1247
yatso	-1248
rs	-1249
▁ema	-1250
enj	-1251
pan	-1252
goni	-1253
pindura	-1254
▁kukura	-1255
▁baba	-1256
▁kuwedzera	-1257
coin	-1258
pota	-1259
ist	-1260
sana	-1261
▁for	-1262
anidzwa	-1263
▁Q	-1264
huka	-1265
ore	-1266
zara	-1267
pfe	-1268
chine	-1269
bud	-1270
tema	-1271
wu	-1272
▁kuona	-1273
ara	-1274
▁Sh	-1275
▁naJehovha	-1276
erera	-1277
rirai	-1278
enzi	-1279
moto	-1280
▁yenyu	-1281
▁kukuru	-1282
una	-1283
▁kuzo	-1284
shamisa	-1285
dziko	-1286
▁18	-1287
mambo	-1288
Ku	-1289
▁panzvimbo	-1290
ide	-1291
gamuchira	-1292
gere	-1293
▁Do	-1294
▁kuch	-1295
amhembe	-1296
▁wakanga	-1297
dyi	-1298
▁huno	-1299
kirwa	-1300
▁muno	-1301
▁0	-1302
▁Kuti	-1303
▁vazhinji	-1304
▁Iye	-1305
▁akamu	-1306
▁kutu	-1307
▁Ex	-1308
chava	-1309
▁man	-1310
▁Saka	-1311
▁hapana	-1312
▁crypto	-1313
ith	-1314
▁nhasi	-1315
▁Da	-1316
Ind	-1317
rof	-1318
▁apa	-1319
tsvaka	-1320
erusa	-1321
▁15	-1322
dzan	-1323
miro	-1324
hengo	-1325
▁mamiri	-1326
▁matatu	-1327
mvura	-1328
kwazvo	-1329
inei	-1330
▁kutora	-1331
gove	-1332
▁pedyo	-1333
▁Ishe	-1334
torwa	-1335
▁imba	-1336
sununguka	-1337
zvin	-1338
ces	-1339
Indaneti	-1340
lity	-1341
▁zveku	-1342
siri	-1343
piriso	-1344
▁rechi	-1345
hai	-1346
sho	-1347
bati	-1348
▁ndizvo	-1349
diki	-1350
piti	-1351
▁con	-1352
▁mberi	-1353
dro	-1354
umbwa	-1355
akakwirira	-1356
hosva	-1357
don	-1358
▁musha	-1359
▁mit	-1360
▁Tino	-1361
▁wenyu	-1362
▁chimwe	-1363
rokwazvo	-1364
▁kwete	-1365
▁pfu	-1366
ram	-1367
makore	-1368
ame	-1369
com	-1370
garo	-1371
▁Ri	-1372
▁kuri	-1373
▁nezve	-1374
▁mutambo	-1375
fo	-1376
▁2018	-1377
▁Chitima	-1378
▁Noku	-1379
▁navo	-1380
▁tsika	-1381
enderana	-1382
rone	-1383
▁(''	-1384
itcoin	-1385
▁kwamuri	-1386
Re	-1387
toro	-1388
▁dhi	-1389
▁yepamusoro	-1390
gn	-1391
rea	-1392
siku	-1393
konze	-1394
fara	-1395
paradza	-1396
budi	-1397
ring	-1398
ON	-1399
▁shu	-1400
▁#	-1401
201	-1402
andaka	-1403
▁mutengo	-1404
bh	-1405
▁Chin	-1406
▁vadzidzi	-1407
▁Le	-1408
▁Kwe	-1409
▁11	-1410
tani	-1411
tauri	-1412
chinja	-1413
▁akava	-1414
▁yechi	-1415
tera	-1416
umba	-1417
rk	-1418
▁Wa	-1419
ishandisa	-1420
▁kudzo	-1421
▁zvishoma	-1422
udza	-1423
fungi	-1424
▁wakati	-1425
sta	-1426
▁haa	-1427
SA	-1428
▁da	-1429
uraya	-1430
urren	-1431
▁,	-1432
▁bha	-1433
▁Vano	-1434
▁gumi	-1435
▁dzavo	-1436
cu	-1437
▁cho	-1438
▁ana	-1439
miri	-1440
hondo	-1441
zvaka	-1442
vhesiti	-1443
ite	-1444
singaperi	-1445
awa	-1446
▁by	-1447
▁iro	-1448
▁aya	-1449
vakwa	-1450
ord	-1451
sia	-1452
rema	-1453
▁Iyo	-1454
SI	-1455
tiri	-1456
▁hwaka	-1457
pirisiti	-1458
dhara	-1459
sikana	-1460
▁kwavo	-1461
▁iko	-1462
ronga	-1463
takura	-1464
dzivirira	-1465
▁kuda	-1466
farira	-1467
▁vangu	-1468
▁ako	-1469
▁ngaa	-1470
▁Shoko	-1471
▁zvakaipa	-1472
▁muviri	-1473
▁kupinda	-1474
▁kutanga	-1475
EM	-1476
tuma	-1477
▁varume	-1478
les	-1479
▁nhamba	-1480
pasi	-1481
▁Su	-1482
▁mweya	-1483
ererano	-1484
zan	-1485
fura	-1486
tanhatu	-1487
hanya	-1488
▁More	-1489
▁kambani	-1490
▁Au	-1491
gare	-1492
▁nei	-1493
▁maitiro	-1494
▁kwandiri	-1495
▁Lu	-1496
ress	-1497
fadza	-1498
▁mukadzi	-1499
res	-1500
dan	-1501
▁30	-1502
yere	-1503
▁uyo	-1504
pupu	-1505
▁dzake	-1506
She	-1507
ard	-1508
tsvaga	-1509
▁vatengi	-1510
▁ca	-1511
bereka	-1512
▁Dhavhidhi	-1513
▁Gre	-1514
▁inonzi	-1515
kama	-1516
chengetedza	-1517
line	-1518
Ka	-1519
ronge	-1520
▁nehu	-1521
▁mita	-1522
cheka	-1523
tambi	-1524
▁Kristu	-1525
EN	-1526
▁fu	-1527
ction	-1528
Kristu	-1529
▁haana	-1530
chengeta	-1531
makumi	-1532
akakosha	-1533
rofita	-1534
kisi	-1535
yl	-1536
ER	-1537
moyo	-1538
bheri	-1539
univhesiti	-1540
lish	-1541
▁vavo	-1542
99	-1543
▁li	-1544
▁uka	-1545
▁ndiro	-1546
▁richi	-1547
▁anofanira	-1548
▁sezva	-1549
Jo	-1550
▁edu	-1551
frica	-1552
ungano	-1553
dana	-1554
etro	-1555
▁wen	-1556
mende	-1557
bvazuva	-1558
pwa	-1559
sion	-1560
kurumbira	-1561
▁unofanira	-1562
▁on	-1563
▁kwako	-1564
▁kusanganisira	-1565
zisi	-1566
vandu	-1567
mai	-1568
tro	-1569
tsanangu	-1570
▁Un	-1571
▁akaita	-1572
▁mushure	-1573
yara	-1574
hwe	-1575
▁3.	-1576
▁icha	-1577
od	-1578
▁motokari	-1579
▁nezvimwe	-1580
akakodzera	-1581
ulu	-1582
anzi	-1583
▁kubudikidza	-1584
▁En	-1585
▁en	-1586
▁pro	-1587
▁Ga	-1588
▁Kune	-1589
▁ndege	-1590
renda	-1591
sitiri	-1592
▁kugadzira	-1593
jipiti	-1594
▁nenzira	-1595
▁yakanaka	-1596
ire	-1597
pone	-1598
Va	-1599
pen	-1600
yoro	-1601
▁rose	-1602
▁ke	-1603
▁mano	-1604
zimisi	-1605
gumi	-1606
tern	-1607
▁yem	-1608
ant	-1609
hari	-1610
▁dziri	-1611
kare	-1612
sangano	-1613
-2	-1614
sing	-1615
chema	-1616
verenga	-1617
dzai	-1618
bvunzo	-1619
▁paIndaneti	-1620
onyanya	-1621
▁rinoreva	-1622
ishona	-1623
▁pashure	-1624
jo	-1625
▁Ndaka	-1626
gadzirira	-1627
heni	-1628
,000	-1629
▁kuchi	-1630
rwe	-1631
amo	-1632
ridza	-1633
sterone	-1634
ive	-1635
ingo	-1636
▁chitima	-1637
rungu	-1638
batanidzwa	-1639
9.	-1640
ls	-1641
▁Pane	-1642
yisa	-1643
▁dzoku	-1644
wane	-1645
▁Hi	-1646
hora	-1647
pote	-1648
shonga	-1649
▁zvinogona	-1650
▁Ki	-1651
kuna	-1652
gura	-1653
▁mafuta	-1654
▁murume	-1655
▁izwi	-1656
reba	-1657
fanirwa	-1658
haka	-1659
▁pach	-1660
lle	-1661
onge	-1662
▁Mar	-1663
tanda	-1664
amira	-1665
ruoko	-1666
for	-1667
fun	-1668
tra	-1669
IN	-1670
ok	-1671
ganhu	-1672
erusaremu	-1673
▁zvokudya	-1674
vuku	-1675
▁kare	-1676
nglish	-1677
▁0.	-1678
amini	-1679
hindu	-1680
▁Lo	-1681
▁wedu	-1682
kurudzira	-1683
tonga	-1684
▁anoti	-1685
woyo	-1686
▁rudzi	-1687
isi	-1688
dira	-1689
yemba	-1690
▁vako	-1691
▁zhinji	-1692
Mo	-1693
▁16	-1694
ms	-1695
lin	-1696
zasi	-1697
tarira	-1698
iro	-1699
▁pla	-1700
▁nhu	-1701
▁chiedza	-1702
simbisa	-1703
ys	-1704
▁Ja	-1705
tsam	-1706
curren	-1707
budirira	-1708
dia	-1709
zvarwa	-1710
▁kugadzirwa	-1711
site	-1712
▁tiri	-1713
▁hurongwa	-1714
▁Pe	-1715
▁ayo	-1716
chenj	-1717
vel	-1718
▁Be	-1719
▁moyo	-1720
dzerwa	-1721
ora	-1722
▁mazita	-1723
30	-1724
mera	-1725
mbere	-1726
lar	-1727
▁mana	-1728
▁kwangu	-1729
yiwa	-1730
porofita	-1731
▁14	-1732
tachi	-1733
mani	-1734
bvumi	-1735
batanidza	-1736
ctor	-1737
yaka	-1738
zivisa	-1739
▁24	-1740
mbiri	-1741
▁asina	-1742
▁rwaka	-1743
kutanga	-1744
▁wavo	-1745
▁Shona	-1746
fambi	-1747
tosterone	-1748
▁50	-1749
zoro	-1750
▁tat	-1751
▁chigadzirwa	-1752
tarisi	-1753
▁muko	-1754
▁kwenyu	-1755
▁su	-1756
▁up	-1757
▁2019	-1758
zwisisa	-1759
▁Vi	-1760
▁kunyanya	-1761
▁pamwechete	-1762
AKA	-1763
rura	-1764
siya	-1765
▁siyana	-1766
dhe	-1767
ess	-1768
pura	-1769
pro	-1770
▁venyu	-1771
rova	-1772
less	-1773
tswa	-1774
▁mbiri	-1775
tengese	-1776
dwa	-1777
▁Hu	-1778
faro	-1779
hare	-1780
sikwa	-1781
▁ndika	-1782
haraunda	-1783
▁kusa	-1784
▁michina	-1785
▁pin	-1786
▁ndichi	-1787
ance	-1788
mber	-1789
ingwa	-1790
mbani	-1791
▁tattoo	-1792
bhuku	-1793
sangan	-1794
▁Unogona	-1795
▁25	-1796
lock	-1797
dzanyemba	-1798
tamba	-1799
hinduro	-1800
▁kuko	-1801
▁zvema	-1802
2.	-1803
▁nhe	-1804
▁nani	-1805
▁dzakawanda	-1806
▁Zva	-1807
yanga	-1808
sti	-1809
kuti	-1810
▁asinga	-1811
▁nezuva	-1812
ding	-1813
giri	-1814
outh	-1815
''',	-1816
▁rwake	-1817
▁Ini	-1818
▁chii	-1819
uye	-1820
▁Con	-1821
gwaro	-1822
▁uyewo	-1823
kuri	-1824
▁tu	-1825
▁rine	-1826
odzanyemba	-1827
chengeteka	-1828
chishandisa	-1829
▁Vamwe	-1830
goro	-1831
▁hand	-1832
change	-1833
tsetse	-1834
vakadzi	-1835
▁yakawanda	-1836
muka	-1837
▁run	-1838
▁Zvaka	-1839
Mwe	-1840
mwedzi	-1841
dzibaba	-1842
▁Bu	-1843
▁et	-1844
kero	-1845
▁vakawanda	-1846
ratidzwa	-1847
rans	-1848
ermany	-1849
gai	-1850
▁Dzi	-1851
▁nayo	-1852
chose	-1853
mbiro	-1854
rudzo	-1855
▁zvinyorwa	-1856
faniri	-1857
WA	-1858
hau	-1859
sis	-1860
shoma	-1861
▁zvavo	-1862
▁Ndicha	-1863
▁vakan	-1864
▁kuziva	-1865
▁mitambo	-1866
gori	-1867
sere	-1868
▁On	-1869
tive	-1870
vako	-1871
konzera	-1872
tsigira	-1873
▁Machine	-1874
Ba	-1875
dera	-1876
▁nyanzvi	-1877
gadzirirwa	-1878
▁US	-1879
▁ika	-1880
yasha	-1881
▁rako	-1882
▁zvinon	-1883
gra	-1884
▁Nda	-1885
▁Ita	-1886
▁vhi	-1887
▁nhengo	-1888
▁maererano	-1889
hat	-1890
Zulu	-1891
teerera	-1892
tsvakuru	-1893
▁muchina	-1894
▁Ar	-1895
huku	-1896
▁navana	-1897
▁vaviri	-1898
▁cryptocurren	-1899
RI	-1900
zvina	-1901
ture	-1902
rimwe	-1903
▁zvine	-1904
▁im	-1905
▁yava	-1906
▁yakanga	-1907
.,	-1908
ure	-1909
riro	-1910
▁rwen	-1911
▁mutauro	-1912
shandura	-1913
▁apfuura	-1914
▁kumusoro	-1915
▁inoshandiswa	-1916
▁nokukurumidza	-1917
ps	-1918
▁boka	-1919
▁make	-1920
▁mhosva	-1921
xi	-1922
▁am	-1923
kova	-1924
▁hava	-1925
vun	-1926
gungwa	-1927
▁wema	-1928
▁izvozvo	-1929
chis	-1930
kuva	-1931
wder	-1932
▁chis	-1933
▁nesu	-1934
▁tichi	-1935
▁zvicha	-1936
unganidza	-1937
▁munzvimbo	-1938
10	-1939
ff	-1940
▁fe	-1941
▁Web	-1942
▁naA	-1943
inzi	-1944
▁vakuru	-1945
▁New	-1946
▁rinonzi	-1947
vona	-1948
▁ex	-1949
bvisa	-1950
ity	-1951
▁th	-1952
pata	-1953
yste	-1954
▁nesimba	-1955
▁chikwata	-1956
▁neni	-1957
dzidza	-1958
mirira	-1959
teroid	-1960
▁musoro	-1961
▁zvachose	-1962
use	-1963
rumbi	-1964
kra	-1965
▁mhepo	-1966
anya	-1967
80	-1968
wangu	-1969
as	-1970
ft	-1971
▁bu	-1972
▁Pre	-1973
▁mako	-1974
▁mazano	-1975
▁vakamu	-1976
▁pagore	-1977
▁mitauro	-1978
▁nhoroondo	-1979
▁13	-1980
▁upenyu	-1981
▁mhuri	-1982
▁mishonga	-1983
-3	-1984
▁=	-1985
vuya	-1986
dzero	-1987
gwagwa	-1988
▁Kunyange	-1989
▁:	-1990
gadziriswa	-1991
▁kunyika	-1992
tin	-1993
rirwa	-1994
▁Hack	-1995
▁pava	-1996
sikirwa	-1997
dzidzisa	-1998
▁enyu	-1999
In	-2000
hasi	-2001
pakati	-2002
▁ndiko	-2003
cation	-2004
kureva	-2005
▁shand	-2006
▁lo	-2007
▁rangu	-2008
▁vachiti	-2009
angwe	-2010
▁remu	-2011
▁taka	-2012
▁inowanikwa	-2013
mer	-2014
pira	-2015
▁pavo	-2016
▁Bitcoin	-2017
▁akanaka	-2018
▁mang	-2019
▁kuisa	-2020
▁nokusingaperi	-2021
TA	-2022
gle	-2023
▁Al	-2024
▁MaZulu	-2025
▁mashanu	-2026
▁akawanda	-2027
▁l	-2028
tsu	-2029
ence	-2030
bereko	-2031
▁kunge	-2032
▁kwayo	-2033
isha	-2034
undu	-2035
▁Nyika	-2036
▁inopa	-2037
60	-2038
teri	-2039
tino	-2040
kudza	-2041
▁2017	-2042
cs	-2043
ondi	-2044
▁kudya	-2045
▁kuitira	-2046
▁nekuti	-2047
shanyira	-2048
▁ave	-2049
hamba	-2050
tsigi	-2051
▁zviuru	-2052
vandudza	-2053
▁*	-2054
▁refu	-2055
▁shure	-2056
unt	-2057
tengeswa	-2058
▁zvinotaura	-2059
ES	-2060
NO	-2061
min	-2062
wisa	-2063
▁Hol	-2064
▁Mwe	-2065
▁runo	-2066
▁mucha	-2067
hama	-2068
▁you	-2069
poteredza	-2070
▁hun	-2071
onaka	-2072
▁aiva	-2073
furika	-2074
▁etc	-2075
▁steroid	-2076
▁mamiriro	-2077
ous	-2078
refu	-2079
bayiro	-2080
svingo	-2081
fambisa	-2082
▁ruvara	-2083
makumima	-2084
shandisi	-2085
akira	-2086
ringa	-2087
▁dzin	-2088
▁noru	-2089
▁pachena	-2090
▁kudzidza	-2091
▁saizvozvo	-2092
▁zvichireva	-2093
▁zvakanyanya	-2094
▁zvakasiyana	-2095
DA	-2096
logy	-2097
▁Wor	-2098
▁ruoko	-2099
▁je	-2100
erson	-2101
row	-2102
guvo	-2103
▁nou	-2104
tumwa	-2105
▁powder	-2106
▁vanakomana	-2107
▁as	-2108
tamb	-2109
zine	-2110
vhiki	-2111
▁ndiwo	-2112
▁zvinodiwa	-2113
!!	-2114
ande	-2115
▁kuro	-2116
dhin	-2117
▁pindura	-2118
▁akatungamirira	-2119
▁Iko	-2120
▁uchida	-2121
▁sezv	-2122
konzero	-2123
1.	-2124
▁Zita	-2125
▁hama	-2126
19	-2127
jini	-2128
▁car	-2129
▁yemu	-2130
dhu	-2131
guma	-2132
tori	-2133
▁une	-2134
enzana	-2135
Ijipiti	-2136
ger	-2137
yamu	-2138
revo	-2139
yori	-2140
mbamwe	-2141
▁isina	-2142
▁ndivo	-2143
haibheri	-2144
tachiona	-2145
indo	-2146
kwere	-2147
ambudziko	-2148
▁4.	-2149
▁Qu	-2150
mhuri	-2151
angano	-2152
▁yakanakisisa	-2153
▁17	-2154
▁Mozisi	-2155
He	-2156
RE	-2157
tere	-2158
budisa	-2159
▁ZVI	-2160
suo	-2161
dokero	-2162
tariri	-2163
ideo	-2164
batwa	-2165
▁kutende	-2166
pon	-2167
▁al	-2168
idza	-2169
zambi	-2170
deredza	-2171
▁chechi	-2172
▁vakadzi	-2173
▁chinonzi	-2174
▁muZimbabwe	-2175
load	-2176
ziso	-2177
▁hazvi	-2178
anganisa	-2179
lia	-2180
▁le	-2181
jeka	-2182
vimba	-2183
▁kwedu	-2184
▁High	-2185
honasi	-2186
▁chirwere	-2187
Sa	-2188
sign	-2189
▁Akati	-2190
▁mudziyo	-2191
tengeserana	-2192
wer	-2193
▁kus	-2194
▁Maka	-2195
▁kunzwa	-2196
▁kwauri	-2197
tarisira	-2198
▁Ju	-2199
▁Isu	-2200
chain	-2201
▁anonzi	-2202
▁munguva	-2203
port	-2204
pfumi	-2205
pfumbamwe	-2206
DZI	-2207
▁achiti	-2208
kupa	-2209
▁makuru	-2210
▁kazhinji	-2211
des	-2212
ziv	-2213
▁bhi	-2214
▁newe	-2215
simuka	-2216
▁Kubva	-2217
▁Munhu	-2218
▁nekuda	-2219
zhi	-2220
dziro	-2221
▁Chii	-2222
▁unhu	-2223
dziswa	-2224
giramu	-2225
gumisi	-2226
▁dzakasiyana	-2227
▁kubata	-2228
▁zvikamu	-2229
bhizimisi	-2230
▁Ni	-2231
vose	-2232
▁penyu	-2233
▁pazuva	-2234
ED	-2235
▁rwo	-2236
dhiyo	-2237
Pa	-2238
▁zvo	-2239
▁dzeku	-2240
▁vaiva	-2241
▁person	-2242
▁rwendo	-2243
▁chirongwa	-2244
ds	-2245
Bha	-2246
▁angu	-2247
▁mumba	-2248
kumbira	-2249
ks	-2250
tumi	-2251
▁Iyi	-2252
▁ama	-2253
ness	-2254
dzora	-2255
musoro	-2256
▁Nzira	-2257
▁chikuru	-2258
▁mhinduro	-2259
HA	-2260
VA	-2261
cial	-2262
▁Pari	-2263
▁kubha	-2264
▁hakuna	-2265
▁akasiyana	-2266
poka	-2267
▁muA	-2268
▁wose	-2269
dy	-2270
yero	-2271
▁ak	-2272
ftwa	-2273
▁Muku	-2274
▁vanoda	-2275
▁kumativi	-2276
vanakomana	-2277
repo	-2278
▁wacho	-2279
paradzwa	-2280
▁kudenga	-2281
lockchain	-2282
her	-2283
tira	-2284
▁Pla	-2285
▁hau	-2286
pfungwa	-2287
hanzi	-2288
▁wava	-2289
tsamwa	-2290
▁yacho	-2291
gumisiro	-2292
wiri	-2293
▁yen	-2294
▁nhara	-2295
▁renyu	-2296
gomo	-2297
winya	-2298
▁anga	-2299
▁nedzi	-2300
▁anenge	-2301
▁tsi	-2302
▁chake	-2303
rip	-2304
▁Bi	-2305
▁St	-2306
▁nokun	-2307
".	-2308
amata	-2309
bonde	-2310
▁mura	-2311
▁redu	-2312
ternet	-2313
vhuvhu	-2314
▁kunaka	-2315
▁kutenga	-2316
▁ikozvino	-2317
mg	-2318
▁naJ	-2319
▁ropa	-2320
akobho	-2321
ftware	-2322
▁vanofanira	-2323
'',	-2324
▁Zvin	-2325
▁kwechi	-2326
▁zvakadaro	-2327
▁zvirokwazvo	-2328
lack	-2329
▁Go	-2330
tore	-2331
chinda	-2332
▁ndeye	-2333
wizi	-2334
▁nech	-2335
▁kusarudza	-2336
rm	-2337
▁Goo	-2338
▁meku	-2339
▁Tarirai	-2340
bol	-2341
▁KUTI	-2342
▁kundo	-2343
▁hy	-2344
▁Bha	-2345
▁uko	-2346
ins	-2347
ast	-2348
▁gi	-2349
vimbo	-2350
▁navanhu	-2351
any	-2352
cto	-2353
uva	-2354
lect	-2355
▁Ame	-2356
▁bho	-2357
▁bhonasi	-2358
AS	-2359
▁Air	-2360
dunhu	-2361
▁nharaunda	-2362
Shona	-2363
▁kuramba	-2364
''')	-2365
▁dzenyu	-2366
▁chiratidzo	-2367
hy	-2368
gon	-2369
▁2013	-2370
▁with	-2371
▁nezva	-2372
▁havana	-2373
▁yakakwirira	-2374
▁Ke	-2375
▁Col	-2376
vengi	-2377
▁vak	-2378
▁dzako	-2379
▁kuchinja	-2380
ereke	-2381
akidza	-2382
hutano	-2383
▁dzangu	-2384
▁pakutanga	-2385
op	-2386
▁Fe	-2387
▁la	-2388
▁kwoku	-2389
▁°	-2390
buri	-2391
▁Je	-2392
derera	-2393
kis	-2394
▁Ser	-2395
bhura	-2396
rid	-2397
ters	-2398
tions	-2399
rom	-2400
chango	-2401
▁midziyo	-2402
Ne	-2403
reta	-2404
berekwa	-2405
▁nenguva	-2406
ling	-2407
tsau	-2408
zinesi	-2409
▁Train	-2410
▁rinoshandiswa	-2411
yuta	-2412
dzoka	-2413
▁kucha	-2414
▁pakupera	-2415
Ru	-2416
▁kuE	-2417
▁sen	-2418
ystem	-2419
▁Pano	-2420
▁poku	-2421
OS	-2422
▁Ad	-2423
piswa	-2424
wanani	-2425
▁akadai	-2426
▁mh	-2427
▁Nga	-2428
Co	-2429
hun	-2430
▁mhuka	-2431
▁mufananidzo	-2432
-5	-2433
isv	-2434
▁Du	-2435
riva	-2436
▁Fran	-2437
▁kwem	-2438
bvunza	-2439
▁kwenguva	-2440
toma	-2441
▁dis	-2442
▁ushe	-2443
vaki	-2444
▁Kura	-2445
fukidza	-2446
▁Ge	-2447
mberi	-2448
tongo	-2449
shamba	-2450
▁pfupi	-2451
▁nerimwe	-2452
kidzwa	-2453
▁ndo	-2454
ponesa	-2455
▁Mambo	-2456
gumo	-2457
▁Par	-2458
▁kwegore	-2459
wikwi	-2460
▁vedu	-2461
▁ezvinhu	-2462
6.	-2463
saka	-2464
work	-2465
▁maawa	-2466
▁mudzi	-2467
ank	-2468
amhi	-2469
izvo	-2470
raira	-2471
Karenda	-2472
▁mukana	-2473
▁nechokwadi	-2474
upenyu	-2475
zanama	-2476
▁Mumwe	-2477
▁kurutivi	-2478
wnload	-2479
▁ticha	-2480
▁muranda	-2481
▁National	-2482
▁mifananidzo	-2483
py	-2484
▁kuta	-2485
4.	-2486
con	-2487
▁du	-2488
▁fo	-2489
▁For	-2490
akomo	-2491
zvose	-2492
▁semu	-2493
▁dzine	-2494
▁muzvi	-2495
ws	-2496
200	-2497
▁kuvaka	-2498
▁akaenda	-2499
IS	-2500
▁mak	-2501
▁mira	-2502
▁zvakananga	-2503
▁Mwanakomana	-2504
ket	-2505
let	-2506
anho	-2507
puro	-2508
rimi	-2509
tyisa	-2510
cti	-2511
▁tra	-2512
▁Gregori	-2513
▁shanduro	-2514
25	-2515
▁ad	-2516
stan	-2517
▁peji	-2518
▁handi	-2519
▁cryptocurrency	-2520
swe	-2521
rudza	-2522
tumira	-2523
▁mitemo	-2524
endarama	-2525
unoda	-2526
▁muka	-2527
eno	-2528
▁Zi	-2529
musi	-2530
pere	-2531
shai	-2532
▁mazana	-2533
▁unyanzvi	-2534
riri	-2535
▁Zvose	-2536
▁dzidzo	-2537
▁nevanhu	-2538
▁Pi	-2539
fisi	-2540
pati	-2541
seka	-2542
irimu	-2543
isvonaka	-2544
▁kuongorora	-2545
kiti	-2546
▁Van	-2547
mweya	-2548
vhara	-2549
▁CO	-2550
remba	-2551
▁pake	-2552
▁kuuya	-2553
▁Travel	-2554
ral	-2555
▁yai	-2556
bhusa	-2557
mikari	-2558
▁mhiri	-2559
wedzerwa	-2560
▁chokwadi	-2561
ffi	-2562
pfeka	-2563
kwereti	-2564
▁Zvichi	-2565
dasitiri	-2566
▁Chiedza	-2567
lan	-2568
piro	-2569
chero	-2570
▁Face	-2571
▁anon	-2572
akandi	-2573
▁Muchi	-2574
vin	-2575
▁Car	-2576
▁yemi	-2577
▁maguta	-2578
▁huwandu	-2579
▁naizvozvo	-2580
▁nezita	-2581
KU	-2582
Uni	-2583
boka	-2584
▁mushonga	-2585
low	-2586
svib	-2587
▁paru	-2588
▁kamwe	-2589
Jerusaremu	-2590
▁kuve	-2591
▁Nyama	-2592
dzimambo	-2593
sarudzwa	-2594
▁kubatsira	-2595
wit	-2596
▁It	-2597
▁ZV	-2598
simbi	-2599
▁much	-2600
▁inzwi	-2601
-4	-2602
rn	-2603
....	-2604
▁hwake	-2605
▁hi	-2606
▁vechi	-2607
▁Chishona	-2608
tambudziko	-2609
zon	-2610
aniko	-2611
gwara	-2612
▁raJehovha	-2613
rum	-2614
▁chipo	-2615
dzokera	-2616
dhani	-2617
▁Tech	-2618
▁rema	-2619
▁kugara	-2620
▁indasitiri	-2621
ssi	-2622
tongi	-2623
▁inon	-2624
kraine	-2625
▁Hapana	-2626
▁marudzi	-2627
."	-2628
Bet	-2629
angi	-2630
▁Africa	-2631
▁muguta	-2632
▁manomwe	-2633
akwai	-2634
▁Mari	-2635
▁nazvo	-2636
▁zviviri	-2637
xy	-2638
tors	-2639
dimbu	-2640
▁Muna	-2641
▁Zviri	-2642
▁naMwari	-2643
▁vanogona	-2644
▁Joh	-2645
▁pen	-2646
tidza	-2647
▁nyama	-2648
vhidhiyo	-2649
▁nevamwe	-2650
chengetedzwa	-2651
iko	-2652
ork	-2653
▁ge	-2654
▁sezvino	-2655
▁zvisina	-2656
hombe	-2657
akangan	-2658
▁ndicho	-2659
▁paJehovha	-2660
1,	-2661
book	-2662
misa	-2663
irira	-2664
▁enyika	-2665
▁kutarisa	-2666
gin	-2667
▁nhaka	-2668
▁mazhinji	-2669
8.	-2670
''.	-2671
cro	-2672
▁Free	-2673
▁Vana	-2674
batsiro	-2675
▁dzichi	-2676
Ha	-2677
▁qu	-2678
gezi	-2679
ambwe	-2680
▁pose	-2681
▁unga	-2682
chingo	-2683
aminitsi	-2684
▁Zvirokwazvo	-2685
▁1,	-2686
▁nj	-2687
▁Ste	-2688
▁Waka	-2689
15	-2690
YA	-2691
ZVI	-2692
zeve	-2693
▁App	-2694
▁Andro	-2695
▁Zvimwe	-2696
verengwa	-2697
▁shamwari	-2698
▁yaJehovha	-2699
dho	-2700
tunhu	-2701
shumira	-2702
▁wokutanga	-2703
▁ren	-2704
Revhi	-2705
tombo	-2706
▁Zvis	-2707
endere	-2708
reme	-2709
stra	-2710
kumbiro	-2711
tsanangura	-2712
Na	-2713
kumbo	-2714
rikwa	-2715
yeredzi	-2716
bs	-2717
▁em	-2718
dzwe	-2719
kara	-2720
ongwe	-2721
▁Muno	-2722
▁miri	-2723
▁womu	-2724
▁rekuti	-2725
are	-2726
▁st	-2727
▁kup	-2728
▁Cate	-2729
andisa	-2730
▁World	-2731
Zi	-2732
ill	-2733
▁akatanga	-2734
HU	-2735
▁199	-2736
▁Man	-2737
▁tin	-2738
akidzwa	-2739
▁zvakakwana	-2740
kisa	-2741
▁duku	-2742
▁chaiyo	-2743
▁fi	-2744
eren	-2745
kaka	-2746
▁yam	-2747
▁mumi	-2748
tarisirwa	-2749
ruva	-2750
tate	-2751
sango	-2752
▁that	-2753
▁akazvi	-2754
▁kugadzirisa	-2755
-6	-2756
bet	-2757
▁hai	-2758
dzere	-2759
tsuwa	-2760
▁2014	-2761
▁usiku	-2762
mbiyuta	-2763
▁mavara	-2764
▁kubhadhara	-2765
▁PA	-2766
▁100%	-2767
▁idzi	-2768
▁kupi	-2769
2,	-2770
vedza	-2771
yera	-2772
▁Rino	-2773
▁nguvo	-2774
tarisana	-2775
ishandiswa	-2776
",	-2777
okun	-2778
▁pre	-2779
▁Baba	-2780
▁Mushure	-2781
▁chimiro	-2782
▁kukosha	-2783
▁zvisinei	-2784
▁muKarenda	-2785
▁yakagadzirwa	-2786
3.	-2787
▁»	-2788
dzin	-2789
rombo	-2790
▁Medi	-2791
rikira	-2792
bvumira	-2793
eswa	-2794
▁She	-2795
▁are	-2796
bhuru	-2797
itirwa	-2798
▁wehondo	-2799
▁vashandi	-2800
Mi	-2801
▁waIsiraeri	-2802
▁zvakafanana	-2803
Bhe	-2804
cia	-2805
gory	-2806
▁mugo	-2807
▁muto	-2808
▁yayo	-2809
rairwa	-2810
▁kuitwa	-2811
▁Android	-2812
▁kwatiri	-2813
▁vasinga	-2814
▁Kazhinji	-2815
▁pakuwanda	-2816
vai	-2817
▁aro	-2818
chish	-2819
▁romu	-2820
tengesi	-2821
▁wegore	-2822
MA	-2823
all	-2824
rol	-2825
unza	-2826
▁Usa	-2827
▁napa	-2828
bhadha	-2829
simbiswa	-2830
▁kuratidza	-2831
dio	-2832
▁CH	-2833
mail	-2834
▁Nzvimbo	-2835
▁dambudziko	-2836
ind	-2837
▁MU	-2838
▁mhe	-2839
▁one	-2840
reiko	-2841
mhanya	-2842
▁kubvisa	-2843
zambiringa	-2844
▁akafanana	-2845
▁kudz	-2846
onda	-2847
▁bhe	-2848
▁yomu	-2849
andino	-2850
▁chine	-2851
▁kutamba	-2852
▁Zimbabwe	-2853
▁matanhatu	-2854
bile	-2855
enya	-2856
risa	-2857
▁Spe	-2858
kombe	-2859
tsoka	-2860
zvoku	-2861
▁anoita	-2862
▁rakanga	-2863
▁mubvunzo	-2864
lex	-2865
mita	-2866
rongo	-2867
▁rudo	-2868
▁kuchamhembe	-2869
7.	-2870
The	-2871
▁Dz	-2872
kuta	-2873
▁mam	-2874
▁wai	-2875
fadzwa	-2876
▁Laser	-2877
▁zvako	-2878
int	-2879
▁60	-2880
Chin	-2881
rima	-2882
▁bhuku	-2883
5.	-2884
ungo	-2885
usto	-2886
sikati	-2887
▁kwose	-2888
▁pazvi	-2889
cre	-2890
rega	-2891
▁tes	-2892
▁Best	-2893
▁Jose	-2894
▁pacha	-2895
dzidzisi	-2896
▁akataura	-2897
mon	-2898
▁Sei	-2899
bolic	-2900
ganda	-2901
hange	-2902
▁Zuva	-2903
▁pana	-2904
▁raMwari	-2905
RO	-2906
mendi	-2907
▁vava	-2908
romoni	-2909
▁shoma	-2910
inen	-2911
▁With	-2912
▁muti	-2913
▁South	-2914
▁zvisinga	-2915
▁Paku	-2916
kitari	-2917
sk	-2918
chinzi	-2919
puranga	-2920
▁pakarepo	-2921
▁mupirisiti	-2922
dau	-2923
Firi	-2924
▁Zve	-2925
onero	-2926
renje	-2927
▁haanga	-2928
▁vasina	-2929
rumbidza	-2930
▁zvechokwadi	-2931
pla	-2932
▁40	-2933
iswe	-2934
▁ani	-2935
akisa	-2936
mbika	-2937
akanyorwa	-2938
▁Category	-2939
▁blockchain	-2940
Se	-2941
▁5.	-2942
▁sha	-2943
▁Tiri	-2944
▁zvai	-2945
yerera	-2946
bhadhara	-2947
▁mugadziri	-2948
▁pi	-2949
gita	-2950
ingi	-2951
ings	-2952
▁mai	-2953
▁kugu	-2954
budiswa	-2955
kambani	-2956
▁achava	-2957
▁kubatana	-2958
▁zvakanga	-2959
TE	-2960
gs	-2961
cle	-2962
zed	-2963
hene	-2964
xBet	-2965
▁vakaita	-2966
▁nedzimwe	-2967
▁zviratidzo	-2968
ori	-2969
▁muB	-2970
darika	-2971
▁asati	-2972
▁mutsetse	-2973
US	-2974
ome	-2975
dani	-2976
vimb	-2977
▁emu	-2978
chinhu	-2979
▁kudzivirira	-2980
PA	-2981
dra	-2982
▁Fo	-2983
jodzi	-2984
pfuwo	-2985
▁kupisa	-2986
▁zvenyu	-2987
ronde	-2988
zwisi	-2989
▁dzimba	-2990
▁uchava	-2991
ner	-2992
Jesu	-2993
ishi	-2994
▁vaA	-2995
chool	-2996
Mwedzi	-2997
▁izita	-2998
▁nezvimwewo	-2999
12	-3000
▁Fi	-3001
abhu	-3002
▁waA	-3003
▁inenge	-3004
▁zvakarurama	-3005
yam	-3006
yenzi	-3007
▁Izvo	-3008
wanika	-3009
▁kunogona	-3010
▁kuverenga	-3011
bai	-3012
ges	-3013
lti	-3014
son	-3015
ality	-3016
▁pako	-3017
▁isinga	-3018
▁chizere	-3019
▁waMwari	-3020
▁Tu	-3021
antu	-3022
▁mbe	-3023
Europe	-3024
kiseni	-3025
▁zvina	-3026
▁kuedza	-3027
▁kufanana	-3028
40	-3029
eng	-3030
hou	-3031
▁ac	-3032
pore	-3033
bvira	-3034
▁ravo	-3035
angwana	-3036
siro	-3037
vice	-3038
chamu	-3039
▁neimwe	-3040
▁zvinoshamisa	-3041
td	-3042
zika	-3043
▁maf	-3044
▁Izwi	-3045
▁zvam	-3046
▁Nguva	-3047
konzerwa	-3048
yunivhesiti	-3049
▁Nyamavhuvhu	-3050
▁testosterone	-3051
ans	-3052
mhu	-3053
rukwa	-3054
wadhi	-3055
▁Neku	-3056
▁vagere	-3057
anji	-3058
reza	-3059
▁usa	-3060
▁divi	-3061
▁mape	-3062
huwandu	-3063
akakwira	-3064
▁Mashoko	-3065
ongororwa	-3066
▁chipiriso	-3067
▁vave	-3068
rarama	-3069
zororo	-3070
hupenyu	-3071
▁States	-3072
▁injini	-3073
▁vanoshandisa	-3074
hamu	-3075
kepe	-3076
enera	-3077
isati	-3078
rivate	-3079
▁rwoku	-3080
Dhavhidhi	-3081
hurumende	-3082
▁Download	-3083
▁Pamusoro	-3084
zive	-3085
▁neA	-3086
phone	-3087
▁mapa	-3088
huwira	-3089
▁chika	-3090
▁yekutanga	-3091
sino	-3092
tsin	-3093
▁Ivo	-3094
pfeko	-3095
gadzwa	-3096
▁kurwa	-3097
tt	-3098
▁ngo	-3099
pinza	-3100
▁kuMa	-3101
▁waya	-3102
bereki	-3103
▁Metro	-3104
▁mutengi	-3105
▁vaJudha	-3106
▁kunzwisisa	-3107
▁zvichienderana	-3108
KA	-3109
YE	-3110
▁uku	-3111
▁kupu	-3112
▁tine	-3113
▁Mb	-3114
gadza	-3115
rogen	-3116
zombe	-3117
▁icho	-3118
▁somu	-3119
▁Google	-3120
chenjera	-3121
▁kudzora	-3122
▁remucha	-3123
tungamiriri	-3124
tch	-3125
gone	-3126
pora	-3127
▁Nde	-3128
stitu	-3129
tonge	-3130
kangan	-3131
vimbika	-3132
▁Zvanzi	-3133
▁nhumbi	-3134
▁kufunga	-3135
▁zvirongwa	-3136
kia	-3137
▁Yo	-3138
▁Nor	-3139
tarwa	-3140
▁kupara	-3141
gadzikana	-3142
ap	-3143
▁sta	-3144
▁2016	-3145
▁remucharikwa	-3146
xt	-3147
sai	-3148
sed	-3149
▁All	-3150
munda	-3151
▁zvake	-3152
▁nomoto	-3153
tambudzika	-3154
▁inofanira	-3155
ler	-3156
way	-3157
siki	-3158
▁Shi	-3159
▁uine	-3160
andara	-3161
chinji	-3162
shanyi	-3163
▁Nhasi	-3164
▁faira	-3165
ongororo	-3166
sanganisa	-3167
▁akapindura	-3168
IC	-3169
vera	-3170
▁uti	-3171
budzi	-3172
▁echi	-3173
tsvuku	-3174
▁henyu	-3175
▁mwoyo	-3176
end	-3177
wayo	-3178
ungana	-3179
bhironi	-3180
simudzira	-3181
▁z	-3182
▁DZ	-3183
dere	-3184
rist	-3185
▁kwemu	-3186
Germany	-3187
▁pasara	-3188
▁akatora	-3189
tai	-3190
▁at	-3191
attoo	-3192
yambu	-3193
▁Ichi	-3194
▁Time	-3195
▁Sauro	-3196
▁anopa	-3197
▁tsvene	-3198
▁English	-3199
▁mangwanani	-3200
pha	-3201
que	-3202
une	-3203
▁IS	-3204
▁Min	-3205
humbi	-3206
kunze	-3207
▁zana	-3208
▁Paris	-3209
▁rumwe	-3210
verenge	-3211
▁kuEnglish	-3212
uto	-3213
gula	-3214
illa	-3215
zova	-3216
▁Ltd	-3217
sitia	-3218
andira	-3219
chinge	-3220
yoresa	-3221
▁hweku	-3222
▁kubvu	-3223
▁ndipo	-3224
ango	-3225
tsigiro	-3226
▁mumuviri	-3227
GH	-3228
vanga	-3229
▁from	-3230
▁Tattoo	-3231
▁~	-3232
▁500	-3233
▁You	-3234
▁ham	-3235
▁kui	-3236
kwira	-3237
▁haku	-3238
tsvina	-3239
▁racho	-3240
▁magetsi	-3241
▁wakanaka	-3242
▁kugamuchira	-3243
8,	-3244
yn	-3245
keri	-3246
▁VaG	-3247
shiri	-3248
United	-3249
sungwa	-3250
dikanwa	-3251
▁design	-3252
Firisitia	-3253
▁kudarika	-3254
lli	-3255
ook	-3256
zvadzi	-3257
▁pazasi	-3258
▁vanoita	-3259
▁zviitiko	-3260
▁vakasununguka	-3261
16	-3262
▁£	-3263
nje	-3264
imwe	-3265
▁Gra	-3266
▁Tur	-3267
▁huri	-3268
▁kugo	-3269
kurapa	-3270
▁Simba	-3271
▁muripo	-3272
tenderera	-3273
▁muenzaniso	-3274
▁(3	-3275
▁neS	-3276
gariro	-3277
tangwa	-3278
yangwe	-3279
▁Ndiri	-3280
▁kuChi	-3281
tsikana	-3282
▁mutemo	-3283
▁kuitika	-3284
▁kuvanhu	-3285
rangarira	-3286
▁bi	-3287
ries	-3288
▁LED	-3289
▁hwo	-3290
▁bvun	-3291
▁maki	-3292
▁mabhi	-3293
tho	-3294
enje	-3295
▁Net	-3296
▁who	-3297
▁matu	-3298
▁Inter	-3299
▁neche	-3300
▁usinga	-3301
yengetera	-3302
gamuchirwa	-3303
▁inoshanda	-3304
▁unowanikwa	-3305
bra	-3306
key	-3307
lla	-3308
▁vu	-3309
ania	-3310
ware	-3311
▁yama	-3312
ereche	-3313
▁haina	-3314
▁maoko	-3315
▁pangu	-3316
▁rwako	-3317
▁zvedu	-3318
▁fekitari	-3319
▁kutengesa	-3320
▁yemagetsi	-3321
▁Ak	-3322
▁Light	-3323
▁kungo	-3324
▁reChi	-3325
▁yezvi	-3326
hangeri	-3327
▁Pakati	-3328
▁inoita	-3329
▁nenyika	-3330
▁Exchange	-3331
buru	-3332
▁Mus	-3333
▁Sha	-3334
table	-3335
▁wemu	-3336
▁anoda	-3337
▁hwako	-3338
▁sechi	-3339
▁Nhamba	-3340
tevedzana	-3341
▁muMwedzi	-3342
▁pamutemo	-3343
▁makambani	-3344
zer	-3345
▁dzo	-3346
▁kumba	-3347
▁mashoma	-3348
GA	-3349
hili	-3350
sita	-3351
kudzwa	-3352
▁Mweya	-3353
▁Website	-3354
▁varanda	-3355
▁chiitiko	-3356
akanakisisa	-3357
hed	-3358
dziso	-3359
▁naro	-3360
▁puro	-3361
▁uwane	-3362
shanduka	-3363
▁Germany	-3364
sununguko	-3365
▁miriyoni	-3366
▁tsvakuru	-3367
▁kubudirira	-3368
tics	-3369
▁Sezvo	-3370
▁kutsvaka	-3371
indasitiri	-3372
led	-3373
undi	-3374
▁Sci	-3375
dudzi	-3376
rairo	-3377
▁kadhi	-3378
▁Mobile	-3379
▁kunyora	-3380
ngu	-3381
red	-3382
tam	-3383
kwana	-3384
▁Achi	-3385
▁Comp	-3386
▁chou	-3387
▁musa	-3388
▁yeva	-3389
▁mukurumbira	-3390
duru	-3391
▁aci	-3392
Nyika	-3393
isina	-3394
▁vanga	-3395
▁School	-3396
▁mugore	-3397
sanganiswa	-3398
▁chinangwa	-3399
▁inozivikanwa	-3400
mas	-3401
ramu	-3402
▁Hand	-3403
angana	-3404
shinga	-3405
▁dzedu	-3406
▁x	-3407
mbwe	-3408
▁pau	-3409
▁vam	-3410
▁Tari	-3411
govera	-3412
▁sarudzo	-3413
akanyanya	-3414
ood	-3415
▁6.	-3416
▁Or	-3417
▁Ts	-3418
hani	-3419
onate	-3420
press	-3421
▁rika	-3422
▁chiso	-3423
▁zvika	-3424
bhusaiti	-3425
▁bitcoin	-3426
▁nemvura	-3427
▁tarirai	-3428
▁anopfuura	-3429
▁kuchengetedza	-3430
Tu	-3431
WE	-3432
chino	-3433
ridzo	-3434
rmone	-3435
akaita	-3436
shonge	-3437
▁denga	-3438
▁senge	-3439
aritari	-3440
vanzika	-3441
Ta	-3442
bon	-3443
kin	-3444
poli	-3445
▁kur	-3446
girii	-3447
▁nhau	-3448
pesana	-3449
Ukraine	-3450
chenjeri	-3451
▁America	-3452
▁uchishandisa	-3453
11	-3454
9,	-3455
Che	-3456
▁Ap	-3457
bhen	-3458
▁out	-3459
▁Black	-3460
▁kumbo	-3461
▁kundi	-3462
▁nhema	-3463
▁mikana	-3464
Chishona	-3465
▁Panguva	-3466
▁nezvaka	-3467
▁Jerusaremu	-3468
▁nemishonga	-3469
▁kumabvazuva	-3470
wis	-3471
▁Hy	-3472
tiro	-3473
▁Kuno	-3474
▁meso	-3475
▁iripo	-3476
▁Facebook	-3477
▁kutumira	-3478
-0	-3479
7,	-3480
MB	-3481
Ra	-3482
por	-3483
shua	-3484
tain	-3485
▁pezvi	-3486
▁Kukura	-3487
mbiricha	-3488
▁vatambi	-3489
▁yakareba	-3490
▁kusangana	-3491
ves	-3492
▁Is	-3493
ving	-3494
▁ive	-3495
▁nomun	-3496
enderera	-3497
▁zvizhinji	-3498
▁yakasiyana	-3499
SX	-3500
▁Muni	-3501
▁jira	-3502
haridzo	-3503
▁kaviri	-3504
▁Software	-3505
UN	-3506
iyo	-3507
kai	-3508
suru	-3509
ununa	-3510
▁nawo	-3511
▁kubud	-3512
▁kwezvi	-3513
chengetwa	-3514
▁kumaodzanyemba	-3515
Ja	-3516
rus	-3517
thi	-3518
▁(2	-3519
▁Gi	-3520
▁Ve	-3521
▁(1.	-3522
svondo	-3523
▁Regai	-3524
▁Institu	-3525
sunungurwa	-3526
▁mamiriyoni	-3527
hw	-3528
cts	-3529
ded	-3530
▁ur	-3531
sitiki	-3532
ley	-3533
▁AP	-3534
▁KUS	-3535
enter	-3536
▁yepa	-3537
chando	-3538
▁akafa	-3539
▁usina	-3540
▁zvese	-3541
▁remhuri	-3542
Ri	-3543
▁Fu	-3544
▁naI	-3545
▁Musa	-3546
▁voku	-3547
▁Italy	-3548
▁rwangu	-3549
▁European	-3550
▁Bhaibheri	-3551
CH	-3552
dzva	-3553
pamu	-3554
pika	-3555
taka	-3556
▁muS	-3557
rican	-3558
▁chema	-3559
▁hondo	-3560
▁muzana	-3561
▁kuronga	-3562
▁kumhanya	-3563
▁kurarama	-3564
▁rinowanikwa	-3565
bul	-3566
gwe	-3567
▁ki	-3568
gram	-3569
kedza	-3570
ondon	-3571
▁kufa	-3572
Africa	-3573
patimendi	-3574
▁jekiseni	-3575
5,	-3576
come	-3577
hite	-3578
▁naM	-3579
▁ukama	-3580
amiriro	-3581
simudza	-3582
▁muromo	-3583
▁zvinoita	-3584
IT	-3585
bhati	-3586
▁payo	-3587
hofisi	-3588
shizha	-3589
▁Zvoku	-3590
▁ndini	-3591
▁France	-3592
▁Mazano	-3593
▁kubere	-3594
▁kubuda	-3595
▁vakava	-3596
▁munzira	-3597
▁womunhu	-3598
shandurwa	-3599
▁tsvakurudzo	-3600
ary	-3601
cipa	-3602
tama	-3603
yina	-3604
teshi	-3605
tsiva	-3606
▁peku	-3607
▁wayo	-3608
▁Unoda	-3609
▁kunzi	-3610
shandira	-3611
▁yaMwari	-3612
So	-3613
tri	-3614
fuma	-3615
sung	-3616
▁maz	-3617
dhaka	-3618
isoro	-3619
onzwa	-3620
tanho	-3621
national	-3622
tungamira	-3623
▁kushanyira	-3624
▁€	-3625
uku	-3626
▁PC	-3627
▁ar	-3628
▁yeB	-3629
▁zvish	-3630
bhurahamu	-3631
▁Zvichida	-3632
▁kwakanga	-3633
▁kurasikirwa	-3634
soka	-3635
kundi	-3636
▁veku	-3637
▁your	-3638
bvumirano	-3639
gadzirirwo	-3640
ky	-3641
zai	-3642
fudzi	-3643
▁mata	-3644
angira	-3645
bviswa	-3646
dhinda	-3647
▁mimwe	-3648
▁Zvinhu	-3649
▁rubatsiro	-3650
▁yakatanga	-3651
3,	-3652
▁Bra	-3653
▁Bri	-3654
▁waJ	-3655
dzose	-3656
kurwa	-3657
mburu	-3658
▁Anti	-3659
▁gare	-3660
▁chive	-3661
pabonde	-3662
▁ndichaku	-3663
-8	-3664
Te	-3665
▁As	-3666
cies	-3667
furo	-3668
▁Imi	-3669
bvuma	-3670
▁muru	-3671
tonhora	-3672
wedzere	-3673
motokari	-3674
ach	-3675
phi	-3676
ses	-3677
▁vi	-3678
cent	-3679
hema	-3680
pari	-3681
▁iyoyo	-3682
▁zvazvo	-3683
enzanisa	-3684
▁maonero	-3685
▁sangano	-3686
▁tembiricha	-3687
▁munharaunda	-3688
ET	-3689
hwo	-3690
veza	-3691
yoka	-3692
▁Lin	-3693
▁zvayo	-3694
▁kurapwa	-3695
▁kusiyana	-3696
phy	-3697
bele	-3698
riya	-3699
▁Nyaya	-3700
▁Zvisinei	-3701
▁vhidhiyo	-3702
▁zvakadai	-3703
▁Institute	-3704
rapa	-3705
▁Com	-3706
▁Dis	-3707
nology	-3708
▁Jakobho	-3709
▁hazvina	-3710
▁kutenda	-3711
▁murayiro	-3712
▁rakanaka	-3713
▁Unofanira	-3714
▁kuwanikwa	-3715
▁zvibereko	-3716
▁zvichingo	-3717
▁kuturikira	-3718
VC	-3719
hone	-3720
tuka	-3721
▁oga	-3722
ambia	-3723
pping	-3724
sanangu	-3725
70	-3726
pti	-3727
arch	-3728
mire	-3729
enguva	-3730
▁pamuviri	-3731
purasitiki	-3732
Ga	-3733
alth	-3734
kiro	-3735
▁Tes	-3736
▁gra	-3737
▁kuS	-3738
▁nzi	-3739
▁Tora	-3740
▁Ndizvo	-3741
▁yunivhesiti	-3742
cm	-3743
pam	-3744
sero	-3745
tage	-3746
▁Hai	-3747
enesa	-3748
urira	-3749
rongeka	-3750
▁Mazuva	-3751
▁mugove	-3752
▁kwakaita	-3753
▁akabereka	-3754
▁chikonzero	-3755
▁kukanganisa	-3756
pho	-3757
▁Basa	-3758
ziviswa	-3759
▁evanhu	-3760
▁mativi	-3761
▁nyasha	-3762
my	-3763
qui	-3764
▁iP	-3765
make	-3766
Mweya	-3767
danwa	-3768
yengera	-3769
▁musikana	-3770
mal	-3771
ond	-3772
ural	-3773
▁Cor	-3774
▁ten	-3775
▁hari	-3776
▁neru	-3777
▁Kwete	-3778
tambanu	-3779
▁zvinga	-3780
▁pachako	-3781
▁wenyika	-3782
bvi	-3783
mbera	-3784
urawa	-3785
zadza	-3786
▁Imwe	-3787
▁akapa	-3788
▁iwayo	-3789
▁ngava	-3790
▁richa	-3791
yanyisa	-3792
▁vakaenda	-3793
▁rokutanga	-3794
▁Th	-3795
rand	-3796
▁VaL	-3797
▁Somu	-3798
▁jena	-3799
▁Pauro	-3800
▁chako	-3801
▁pavanhu	-3802
▁yokutanga	-3803
▁zvichingodaro	-3804
4,	-3805
Me	-3806
OR	-3807
car	-3808
cer	-3809
izi	-3810
endi	-3811
kuro	-3812
▁Rai	-3813
erero	-3814
▁pari	-3815
▁email	-3816
batsirwa	-3817
isarudzo	-3818
▁kubvira	-3819
▁yenyika	-3820
▁inowanzo	-3821
▁yakakura	-3822
▁kuderedza	-3823
ANA	-3824
ism	-3825
▁ja	-3826
vhun	-3827
▁198	-3828
▁Cho	-3829
▁2020	-3830
▁Mune	-3831
▁haisi	-3832
▁waini	-3833
virirwa	-3834
▁Isiraeri	-3835
ef	-3836
▁Am	-3837
bert	-3838
▁And	-3839
shata	-3840
▁Tine	-3841
▁Produ	-3842
▁chose	-3843
vakanga	-3844
▁nomoyo	-3845
taurirana	-3846
▁pamusika	-3847
▁vakasvika	-3848
kw	-3849
rane	-3850
▁Eri	-3851
▁aku	-3852
wanise	-3853
▁dzema	-3854
▁pombi	-3855
stanbul	-3856
▁bvunzo	-3857
danidzira	-3858
▁zvakaoma	-3859
▁matambudziko	-3860
here	-3861
jera	-3862
pita	-3863
tsara	-3864
▁urwu	-3865
bayira	-3866
bwinya	-3867
shaiwa	-3868
▁chezvi	-3869
▁negore	-3870
▁hupenyu	-3871
▁mutambi	-3872
▁sungano	-3873
▁masvondo	-3874
tsvakurudza	-3875
ishe	-3876
ople	-3877
▁Fit	-3878
▁Swe	-3879
▁Holm	-3880
▁Taka	-3881
▁Trans	-3882
sirivha	-3883
▁zvauno	-3884
DZA	-3885
miti	-3886
ning	-3887
stic	-3888
▁ung	-3889
vonga	-3890
▁Pasi	-3891
mbudzi	-3892
▁vhiki	-3893
vakirwa	-3894
▁akandi	-3895
zvikudza	-3896
Is	-3897
day	-3898
chera	-3899
mazwi	-3900
▁hako	-3901
tariro	-3902
tyairi	-3903
▁Tarira	-3904
▁musika	-3905
▁hormone	-3906
▁Municipa	-3907
▁namakumi	-3908
▁zvakanakisisa	-3909
GO	-3910
▁awa	-3911
▁par	-3912
▁ram	-3913
▁Blog	-3914
▁John	-3915
▁yaiva	-3916
pionate	-3917
tendero	-3918
▁inobva	-3919
▁miviri	-3920
▁handina	-3921
▁inotevera	-3922
▁webhusaiti	-3923
IM	-3924
TS	-3925
Zvi	-3926
ipi	-3927
oly	-3928
sel	-3929
zwe	-3930
▁Ny	-3931
blic	-3932
dust	-3933
round	-3934
▁Ucha	-3935
▁hafu	-3936
▁work	-3937
zation	-3938
▁Taura	-3939
▁munda	-3940
18	-3941
90	-3942
heru	-3943
▁Mac	-3944
▁weA	-3945
inese	-3946
lands	-3947
light	-3948
▁rayo	-3949
lation	-3950
▁bedzi	-3951
▁hwoku	-3952
▁trans	-3953
▁digita	-3954
gy	-3955
bel	-3956
▁Ac	-3957
rini	-3958
▁Dzv	-3959
▁Isa	-3960
▁mag	-3961
▁nai	-3962
mwana	-3963
onoka	-3964
▁hove	-3965
German	-3966
▁ZVINO	-3967
▁tambo	-3968
politan	-3969
▁mutsva	-3970
ox	-3971
▁ab	-3972
voko	-3973
bheru	-3974
▁pema	-3975
tector	-3976
▁Petro	-3977
▁unoda	-3978
▁mapoka	-3979
vhangeri	-3980
mabvazuva	-3981
13	-3982
6,	-3983
har	-3984
▁22	-3985
kota	-3986
tika	-3987
▁Dhi	-3988
▁muP	-3989
▁spe	-3990
▁yeA	-3991
shaya	-3992
tadza	-3993
ungwe	-3994
vhura	-3995
▁muba	-3996
dzimai	-3997
tsanya	-3998
▁kupfu	-3999
kunguru	-4000
▁njanji	-4001
▁muruoko	-4002
▁vakazvi	-4003
▁Soromoni	-4004
▁Vanakomana	-4005
tar	-4006
▁90	-4007
▁Por	-4008
▁web	-4009
▁chipi	-4010
▁rinobva	-4011
▁inonyanya	-4012
▁rutsigiro	-4013
ero	-4014
Tube	-4015
tory	-4016
▁plu	-4017
▁ven	-4018
venga	-4019
▁State	-4020
tumidza	-4021
pararira	-4022
▁zvizere	-4023
▁kwenyika	-4024
▁tinogona	-4025
▁zvinofanira	-4026
77	-4027
zen	-4028
meth	-4029
vapo	-4030
▁Sho	-4031
tsipa	-4032
endesa	-4033
▁zvivi	-4034
▁Uyezve	-4035
▁hwangu	-4036
▁kukwira	-4037
▁kunyatso	-4038
);	-4039
NA	-4040
▁2,	-4041
mine	-4042
▁seku	-4043
mitambo	-4044
▁yakasimba	-4045
.”	-4046
14	-4047
CO	-4048
ONA	-4049
bwa	-4050
zari	-4051
mombe	-4052
indows	-4053
miguru	-4054
▁ganda	-4055
simbiso	-4056
▁achiri	-4057
▁tsitsi	-4058
▁private	-4059
▁inobatsira	-4060
Giri	-4061
▁Gol	-4062
wendo	-4063
▁Next	-4064
▁aive	-4065
▁yaro	-4066
tongwa	-4067
▁chena	-4068
▁dhipo	-4069
▁Center	-4070
▁sokuti	-4071
▁system	-4072
▁uwandu	-4073
kurukuri	-4074
▁mupenyu	-4075
▁panzira	-4076
▁ndichava	-4077
RU	-4078
fari	-4079
▁Our	-4080
▁naE	-4081
▁1000	-4082
▁Fore	-4083
▁Samu	-4084
▁regai	-4085
vimbisa	-4086
▁Medical	-4087
▁akabata	-4088
▁chikoro	-4089
isinga	-4090
YO	-4091
ao	-4092
▁19,	-4093
▁Ber	-4094
anisa	-4095
anisi	-4096
▁Char	-4097
▁Comm	-4098
▁Christ	-4099
▁akaisa	-4100
▁hutano	-4101
▁zvivako	-4102
▁Municipality	-4103
Ro	-4104
TC	-4105
by	-4106
ful	-4107
wai	-4108
▁MA	-4109
▁it	-4110
hori	-4111
pemb	-4112
itawo	-4113
▁pami	-4114
▁ikoko	-4115
▁Afurika	-4116
▁mumaoko	-4117
▁ndinoda	-4118
▁sezvaka	-4119
▁mavhidhiyo	-4120
mari	-4121
▁Pay	-4122
pihwa	-4123
▁'''-	-4124
eneral	-4125
mhanzi	-4126
▁Colle	-4127
▁Mvura	-4128
▁nomunhu	-4129
▁chinyorwa	-4130
▁nechitima	-4131
DI	-4132
cep	-4133
cks	-4134
dini	-4135
▁kan	-4136
irika	-4137
kedzo	-4138
tical	-4139
▁Guta	-4140
▁dzama	-4141
gadziko	-4142
▁kugona	-4143
▁risina	-4144
▁Chirungu	-4145
▁munofanira	-4146
▁yakafanana	-4147
col	-4148
gue	-4149
Ndau	-4150
ject	-4151
pper	-4152
vere	-4153
▁Bel	-4154
▁Nya	-4155
▁naS	-4156
iness	-4157
vhene	-4158
▁tika	-4159
▁Elect	-4160
svibiswa	-4161
▁zvidzidzo	-4162
Gu	-4163
bal	-4164
can	-4165
fema	-4166
indi	-4167
akeri	-4168
hwina	-4169
irasi	-4170
mbore	-4171
rwara	-4172
tapwa	-4173
viswa	-4174
▁tarira	-4175
▁kwemakore	-4176
pf	-4177
spe	-4178
mall	-4179
pamb	-4180
ying	-4181
▁250	-4182
▁300	-4183
▁Apo	-4184
▁Wel	-4185
▁bvu	-4186
putsa	-4187
rwira	-4188
▁pedo	-4189
yorera	-4190
▁waiva	-4191
▁water	-4192
▁jenareta	-4193
▁zvakakodzera	-4194
of	-4195
WAN	-4196
fuka	-4197
logi	-4198
▁Ama	-4199
amera	-4200
rwizi	-4201
▁diki	-4202
▁mbeu	-4203
▁rava	-4204
▁yave	-4205
▁Handi	-4206
▁pechi	-4207
▁mumoyo	-4208
ruzhinji	-4209
▁akatuma	-4210
▁munyori	-4211
▁kururama	-4212
REE	-4213
hovo	-4214
ream	-4215
inless	-4216
manana	-4217
▁rinogona	-4218
▁zvakakosha	-4219
No	-4220
dle	-4221
shwe	-4222
vumo	-4223
▁aine	-4224
▁Dubai	-4225
▁Kuita	-4226
▁utano	-4227
▁Joshua	-4228
erusarema	-4229
▁Mutsvene	-4230
▁Zvakanaka	-4231
mura	-4232
reki	-4233
rusi	-4234
turi	-4235
▁Val	-4236
mumwe	-4237
▁child	-4238
▁Company	-4239
▁chikafu	-4240
▁vanenge	-4241
▁zvitsva	-4242
ideophone	-4243
▁kubereka	-4244
▁kutakura	-4245
▁mutungamiri	-4246
▁Metropolitan	-4247
▁inosanganisira	-4248
.)	-4249
500	-4250
ents	-4251
very	-4252
▁Ham	-4253
kerwa	-4254
zungu	-4255
▁maku	-4256
▁wama	-4257
zviita	-4258
▁Ndira	-4259
▁danho	-4260
▁dzomu	-4261
▁tsoka	-4262
akambani	-4263
kurukura	-4264
wirirana	-4265
ishandiso	-4266
▁chokuita	-4267
▁nenhumbi	-4268
hombekombe	-4269
▁kudzidzisa	-4270
▁unofanirwa	-4271
Ko	-4272
ight	-4273
▁FSX	-4274
▁Fan	-4275
▁Flo	-4276
▁dha	-4277
▁met	-4278
entre	-4279
ridge	-4280
rindi	-4281
▁dura	-4282
▁made	-4283
▁mafa	-4284
boshwe	-4285
▁kutya	-4286
▁shiri	-4287
hedheni	-4288
stralia	-4289
dzidziswa	-4290
▁kukwanisa	-4291
▁Technology	-4292
ud	-4293
▁Wi	-4294
2019	-4295
zing	-4296
▁Uyu	-4297
mukati	-4298
zanane	-4299
▁place	-4300
poneswa	-4301
yambuka	-4302
▁mureza	-4303
▁zvanzi	-4304
▁akawana	-4305
▁mukunda	-4306
▁mumvura	-4307
▁nemamwe	-4308
▁urongwa	-4309
tungamirirwa	-4310
▁Testosterone	-4311
MP	-4312
top	-4313
piki	-4314
tara	-4315
▁Iri	-4316
▁min	-4317
▁East	-4318
▁Mana	-4319
▁Musi	-4320
Mozisi	-4321
rodhani	-4322
sayenzi	-4323
todzana	-4324
▁chichi	-4325
▁muduku	-4326
▁mumakore	-4327
▁Stainless	-4328
fungidzirwa	-4329
rou	-4330
sei	-4331
svo	-4332
bate	-4333
baya	-4334
hana	-4335
▁10.	-4336
tonho	-4337
zanga	-4338
muviri	-4339
akanzwa	-4340
▁tsvuku	-4341
▁muitiro	-4342
▁inokosha	-4343
▁maindasitiri	-4344
24	-4345
ID	-4346
ep	-4347
▁IP	-4348
ames	-4349
▁Kwa	-4350
ments	-4351
penya	-4352
sheni	-4353
▁acid	-4354
▁mutoro	-4355
▁tsvimbo	-4356
▁kufarira	-4357
▁bhizimisi	-4358
▁zvinotevera	-4359
▁navanakomana	-4360
ANO	-4361
ery	-4362
oot	-4363
▁23	-4364
▁Ai	-4365
▁Stu	-4366
pamwe	-4367
▁City	-4368
korora	-4369
wahili	-4370
▁Super	-4371
▁Zvita	-4372
▁madhi	-4373
▁tsvina	-4374
▁miganhu	-4375
▁Ikozvino	-4376
▁masikati	-4377
100	-4378
ongu	-4379
read	-4380
vuri	-4381
wiyo	-4382
▁Cla	-4383
▁One	-4384
dyiwa	-4385
taure	-4386
▁neha	-4387
▁hwema	-4388
▁akaona	-4389
▁nokuva	-4390
tevedzera	-4391
▁kutaurwa	-4392
fungidzira	-4393
▁maminitsi	-4394
▁zvinokosha	-4395
BA	-4396
sor	-4397
▁80	-4398
piko	-4399
tare	-4400
▁Pri	-4401
board	-4402
pamba	-4403
zviri	-4404
▁fuma	-4405
▁Vakati	-4406
▁nezvis	-4407
Chingezi	-4408
▁chirevo	-4409
▁namambo	-4410
▁vachava	-4411
▁yapfuura	-4412
Bhabhironi	-4413
fambidzana	-4414
▁kuvandudza	-4415
▁kuzvidzora	-4416
▁kuzivikanwa	-4417
▁magadzirirwo	-4418
75	-4419
CA	-4420
MS	-4421
▁?	-4422
▁CS	-4423
roup	-4424
tifi	-4425
▁Eng	-4426
▁Pan	-4427
▁Uri	-4428
▁rai	-4429
lette	-4430
oneka	-4431
rudyi	-4432
tation	-4433
▁mwero	-4434
fungiro	-4435
▁mhenyu	-4436
▁Service	-4437
▁chaizvoizvo	-4438
▁anozivikanwa	-4439
65	-4440
ily	-4441
ken	-4442
mic	-4443
yun	-4444
irst	-4445
▁ISO	-4446
right	-4447
shoni	-4448
▁Nokuda	-4449
▁Shandisa	-4450
unganidzwa	-4451
▁waJehovha	-4452
▁kuchengeta	-4453
▁yaIsiraeri	-4454
DF	-4455
HE	-4456
TM	-4457
au	-4458
ult	-4459
▁lu	-4460
edzo	-4461
yano	-4462
ziti	-4463
▁Shu	-4464
▁com	-4465
▁han	-4466
▁tri	-4467
▁comp	-4468
gezera	-4469
▁murenje	-4470
▁yakaipa	-4471
▁kuonekwa	-4472
▁mudzidzi	-4473
▁yakazara	-4474
▁zvakaita	-4475
▁Chamhembe	-4476
▁chakanaka	-4477
▁kunzvimbo	-4478
PS	-4479
XL	-4480
pt	-4481
EMA	-4482
zil	-4483
mart	-4484
▁hake	-4485
▁kero	-4486
dzimba	-4487
engete	-4488
fambira	-4489
▁chacho	-4490
▁makiro	-4491
▁anokosha	-4492
▁kutsvaga	-4493
late	-4494
rame	-4495
▁mah	-4496
▁mud	-4497
▁wem	-4498
dziwa	-4499
komba	-4500
▁rufu	-4501
bvumbi	-4502
▁rwizi	-4503
▁zvive	-4504
▁akagara	-4505
changobva	-4506
▁hurumende	-4507
▁yakatarwa	-4508
▁International	-4509
lea	-4510
lis	-4511
▁mg	-4512
ange	-4513
rani	-4514
xbet	-4515
zeri	-4516
▁net	-4517
eremi	-4518
mutsa	-4519
▁Bank	-4520
▁futi	-4521
tsauka	-4522
▁Chris	-4523
▁muChi	-4524
▁mapuro	-4525
▁navano	-4526
▁Kukadzi	-4527
▁kodzero	-4528
▁Internet	-4529
kurudzirwa	-4530
▁wechipiri	-4531
▁anokwanisa	-4532
▁chinzvimbo	-4533
▁kugutsikana	-4534
▁Rou	-4535
▁uve	-4536
dhura	-4537
kwama	-4538
vabvu	-4539
zhiya	-4540
▁Dire	-4541
▁miti	-4542
▁Chino	-4543
▁mabhuku	-4544
▁zvatino	-4545
sunungura	-4546
▁kutsamwa	-4547
22	-4548
45	-4549
''),	-4550
fuki	-4551
cture	-4552
▁....	-4553
▁ndai	-4554
▁kufara	-4555
▁kuiswa	-4556
okutanga	-4557
▁matanho	-4558
▁pakanga	-4559
▁mibvunzo	-4560
▁hwakanaka	-4561
▁chikwereti	-4562
▁yakarurama	-4563
▁7.	-4564
ball	-4565
lian	-4566
▁PVC	-4567
▁kuB	-4568
▁not	-4569
▁sho	-4570
pfupa	-4571
▁Data	-4572
▁tora	-4573
▁vuye	-4574
vation	-4575
▁Kwaka	-4576
▁hwavo	-4577
▁paaka	-4578
▁tinya	-4579
▁zvaaka	-4580
yangadza	-4581
▁Ndapota	-4582
enzaniswa	-4583
▁Maererano	-4584
▁anowanikwa	-4585
▁pakupedzisira	-4586
):	-4587
ker	-4588
dziva	-4589
tumbi	-4590
▁King	-4591
alinen	-4592
▁bhokisi	-4593
▁kupedza	-4594
▁akasvika	-4595
ate	-4596
lue	-4597
uko	-4598
kutu	-4599
ller	-4600
reji	-4601
stru	-4602
▁Bet	-4603
▁Mak	-4604
▁don	-4605
▁2000	-4606
vhundu	-4607
▁hukama	-4608
▁kumani	-4609
tenderwa	-4610
▁dhipoziti	-4611
Wa	-4612
▁·	-4613
Isra	-4614
enic	-4615
rine	-4616
vika	-4617
▁muT	-4618
udzwa	-4619
▁Paka	-4620
▁Your	-4621
▁doro	-4622
▁Ticha	-4623
▁achin	-4624
▁Indust	-4625
▁maturo	-4626
▁shangu	-4627
zvokwadi	-4628
▁vatauri	-4629
-7	-4630
▁)	-4631
ban	-4632
lls	-4633
roo	-4634
▁Ji	-4635
iria	-4636
China	-4637
dudza	-4638
endai	-4639
panda	-4640
tendi	-4641
▁IZVI	-4642
buruka	-4643
tropin	-4644
▁ndech	-4645
bhokisi	-4646
▁hukuru	-4647
chereche	-4648
▁chigaro	-4649
▁mirairo	-4650
Chamhembe	-4651
akanganwa	-4652
▁kwevanhu	-4653
▁navakuru	-4654
▁Christmas	-4655
▁yeIjipiti	-4656
NC	-4657
IRA	-4658
▁UK	-4659
Bhen	-4660
komo	-4661
rona	-4662
velo	-4663
▁Iva	-4664
▁kuA	-4665
chani	-4666
▁Line	-4667
▁naJo	-4668
purisa	-4669
terial	-4670
▁ndine	-4671
▁usati	-4672
tendeka	-4673
▁System	-4674
▁mwenje	-4675
▁varege	-4676
▁Chinese	-4677
▁rusvingo	-4678
▁kuteerera	-4679
▁kushandura	-4680
▁Somuenzaniso	-4681
▁digitaalinen	-4682
,"	-4683
Ho	-4684
Si	-4685
rg	-4686
▁	-4687
out	-4688
dare	-4689
ruwa	-4690
tiki	-4691
▁Apa	-4692
▁Chu	-4693
bhoni	-4694
count	-4695
rehwa	-4696
vondo	-4697
▁FREE	-4698
dzinga	-4699
zarura	-4700
▁akazo	-4701
miririra	-4702
rongedza	-4703
▁chokuti	-4704
▁vamwari	-4705
▁handinga	-4706
▁nokuveza	-4707
▁Saizvozvo	-4708
▁kukurudzira	-4709
mit	-4710
oney	-4711
roma	-4712
▁Spa	-4713
▁can	-4714
▁iwo	-4715
▁neB	-4716
edzwa	-4717
langa	-4718
vamwe	-4719
wende	-4720
▁Read	-4721
▁gira	-4722
▁muva	-4723
unenge	-4724
▁hanya	-4725
▁hombe	-4726
▁unoku	-4727
kunyora	-4728
▁yokuti	-4729
▁mudunhu	-4730
akakombere	-4731
▁duramazwi	-4732
▁kombiyuta	-4733
▁yakakwana	-4734
▁kutenderera	-4735
▁yakakurumbira	-4736
MT	-4737
os	-4738
yai	-4739
biru	-4740
inal	-4741
pani	-4742
tete	-4743
zvis	-4744
waini	-4745
▁Yeku	-4746
▁kuka	-4747
cetate	-4748
verana	-4749
▁uremu	-4750
ondohwe	-4751
chinjikwa	-4752
▁anoshanda	-4753
▁yakagadzirirwa	-4754
29	-4755
CL	-4756
vid	-4757
mini	-4758
posh	-4759
tapa	-4760
urce	-4761
zini	-4762
▁gon	-4763
hizha	-4764
isasa	-4765
▁Coin	-4766
▁zano	-4767
jamini	-4768
unungu	-4769
▁zvama	-4770
anidzai	-4771
chipiri	-4772
jairika	-4773
▁people	-4774
▁rwenyu	-4775
▁pachake	-4776
gadziriro	-4777
▁nokutengesa	-4778
▁kuchengeteka	-4779
▁kutungamirira	-4780
cb	-4781
▁AC	-4782
▁CE	-4783
bhan	-4784
crip	-4785
fira	-4786
muti	-4787
▁hat	-4788
▁ser	-4789
▁kupe	-4790
furemu	-4791
ission	-4792
▁Kunze	-4793
▁hydro	-4794
▁Zambia	-4795
▁paimba	-4796
tsigirwa	-4797
▁machine	-4798
▁somunhu	-4799
▁pamwedzi	-4800
▁yokugezera	-4801
95	-4802
ek	-4803
lot	-4804
▁26	-4805
▁28	-4806
vane	-4807
▁Bar	-4808
amato	-4809
bhiza	-4810
▁Enda	-4811
dzinza	-4812
unyana	-4813
▁Makore	-4814
▁Online	-4815
▁njodzi	-4816
▁rutivi	-4817
▁Windows	-4818
▁dzinoti	-4819
▁izvozvi	-4820
▁zvitatu	-4821
▁mutopota	-4822
▁Zvinyorwa	-4823
▁wekutanga	-4824
▁inoratidza	-4825
De	-4826
lt	-4827
imbi	-4828
inon	-4829
mhan	-4830
tomu	-4831
▁Dzo	-4832
kanda	-4833
▁2015	-4834
▁muhu	-4835
▁over	-4836
▁rese	-4837
▁vaya	-4838
bhedha	-4839
sikoro	-4840
▁Ndiye	-4841
batsiri	-4842
▁zvechi	-4843
▁Chikamu	-4844
▁nezvino	-4845
▁dhigirii	-4846
▁zvandaka	-4847
ropafadzwa	-4848
▁nomunondo	-4849
▁chikumbiro	-4850
▁purogiramu	-4851
▁yakaderera	-4852
▁mumayunivhesiti	-4853
ZV	-4854
cke	-4855
clu	-4856
▁zi	-4857
foni	-4858
jira	-4859
▁Kin	-4860
▁Park	-4861
▁Save	-4862
▁hamu	-4863
▁zven	-4864
▁Mazwi	-4865
yiridzo	-4866
▁father	-4867
▁College	-4868
chinangwa	-4869
ropafadza	-4870
▁Ndianiko	-4871
▁kutsigira	-4872
▁yakaisvonaka	-4873
Di	-4874
PE	-4875
ety	-4876
las	-4877
nge	-4878
▁NE	-4879
▁VA	-4880
▁sp	-4881
▁ipi	-4882
dzama	-4883
dzing	-4884
zvema	-4885
▁Size	-4886
▁Word	-4887
poresa	-4888
▁dzika	-4889
▁yeChi	-4890
▁Varume	-4891
varaidza	-4892
▁yakaoma	-4893
35	-4894
vh	-4895
gun	-4896
tis	-4897
val	-4898
▁35	-4899
ship	-4900
tapu	-4901
▁Cli	-4902
▁Day	-4903
▁kuM	-4904
▁rem	-4905
shona	-4906
▁imwi	-4907
▁kuts	-4908
▁hwose	-4909
▁Health	-4910
▁akabva	-4911
▁kumira	-4912
▁kureba	-4913
bhadharo	-4914
▁kukunda	-4915
bhururuka	-4916
▁chiremba	-4917
▁zvirwere	-4918
▁Kuwedzera	-4919
ito	-4920
Baba	-4921
rose	-4922
vuka	-4923
▁Cup	-4924
▁VaN	-4925
rambe	-4926
▁Vose	-4927
ishanu	-4928
patara	-4929
ungani	-4930
▁wakan	-4931
▁United	-4932
▁chando	-4933
▁kusina	-4934
▁rugare	-4935
▁tarisa	-4936
zvakaipa	-4937
▁nemhuri	-4938
▁masangano	-4939
▁kwakakurudzira	-4940
Ken	-4941
nap	-4942
▁70	-4943
▁Up	-4944
isai	-4945
▁flo	-4946
▁mis	-4947
▁per	-4948
ering	-4949
vious	-4950
▁Chis	-4951
▁Wire	-4952
▁venyika	-4953
▁yakakodzera	-4954
eld	-4955
hwi	-4956
vho	-4957
yer	-4958
dent	-4959
viga	-4960
chechi	-4961
vharwa	-4962
▁seiko	-4963
paridza	-4964
rudzika	-4965
▁tsamba	-4966
▁Mutengo	-4967
▁ndinoti	-4968
kanganisa	-4969
kubatsira	-4970
▁mukomana	-4971
▁nendarama	-4972
▁pakufamba	-4973
▁paJerusaremu	-4974
ju	-4975
lus	-4976
tia	-4977
▁45	-4978
▁8.	-4979
essi	-4980
▁196	-4981
▁Mat	-4982
▁sem	-4983
donha	-4984
▁Forex	-4985
▁mvumo	-4986
dzivisa	-4987
▁avanhu	-4988
▁firimu	-4989
▁vasati	-4990
▁chingwa	-4991
▁inopisa	-4992
▁nemhaka	-4993
▁mharidzo	-4994
▁rinotaura	-4995
▁zvakasimba	-4996
Be	-4997
▁21	-4998
posi	-4999
rere	-5000
▁Max	-5001
▁Via	-5002
▁vol	-5003
rambi	-5004
windo	-5005
zvara	-5006
▁Fara	-5007
▁foni	-5008
▁hati	-5009
▁kuye	-5010
▁more	-5011
▁pomu	-5012
▁vema	-5013
erenga	-5014
▁asiri	-5015
▁zvipo	-5016
▁tafura	-5017
lsiraeri	-5018
▁General	-5019
▁Ijipiti	-5020
▁akapinda	-5021
▁mangwana	-5022
▁Chirongwa	-5023
munharaunda	-5024
lk	-5025
bit	-5026
kam	-5027
▁Ari	-5028
▁col	-5029
dziri	-5030
orana	-5031
sinei	-5032
sunga	-5033
▁will	-5034
homoni	-5035
▁pfuma	-5036
▁Chimwe	-5037
▁London	-5038
▁nezvose	-5039
▁kutevera	-5040
▁Abhurahamu	-5041
▁anoshandiswa	-5042
▁==	-5043
ines	-5044
rome	-5045
tini	-5046
vata	-5047
▁Per	-5048
▁ese	-5049
irine	-5050
kunge	-5051
▁Cana	-5052
▁misi	-5053
bility	-5054
▁Ngati	-5055
▁Dzimwe	-5056
▁aigona	-5057
endarira	-5058
▁Munguva	-5059
▁muganhu	-5060
▁neshoko	-5061
▁anabolic	-5062
Ge	-5063
sur	-5064
▁Af	-5065
hail	-5066
hira	-5067
hole	-5068
kure	-5069
▁amu	-5070
▁emi	-5071
ender	-5072
homas	-5073
pindi	-5074
sviki	-5075
▁Raka	-5076
▁gasi	-5077
▁this	-5078
▁kushu	-5079
irisita	-5080
▁marara	-5081
▁chisina	-5082
▁kubwinya	-5083
▁zvinenge	-5084
▁hanzvadzi	-5085
▁nevakadzi	-5086
-9	-5087
amp	-5088
hura	-5089
meri	-5090
▁God	-5091
▁Win	-5092
gumbu	-5093
▁Gore	-5094
ingava	-5095
mbundu	-5096
▁dombo	-5097
tumirwa	-5098
▁German	-5099
▁nomusi	-5100
bhabhati	-5101
▁Quality	-5102
▁pamwero	-5103
▁ndakanga	-5104
▁nezvinhu	-5105
▁chinopiswa	-5106
pfa	-5107
▁Vu	-5108
▁py	-5109
trol	-5110
todza	-5111
▁Post	-5112
▁Rail	-5113
▁name	-5114
▁rega	-5115
▁yega	-5116
anomwe	-5117
wanisi	-5118
wisana	-5119
▁KUSVI	-5120
▁White	-5121
▁kwava	-5122
▁mabha	-5123
▁otoma	-5124
▁panze	-5125
shumiri	-5126
swedera	-5127
▁Sokuti	-5128
▁kukopa	-5129
▁Maitiro	-5130
▁Vakadzi	-5131
▁achiita	-5132
▁mutumwa	-5133
▁Previous	-5134
▁nyeredzi	-5135
▁zvinangwa	-5136
▁zvinoshandiswa	-5137
Rus	-5138
ils	-5139
zhe	-5140
▁27	-5141
▁4,	-5142
▁9.	-5143
2018	-5144
Roma	-5145
sale	-5146
▁Bus	-5147
▁VaS	-5148
▁paA	-5149
tsime	-5150
▁Mwen	-5151
▁vama	-5152
graphy	-5153
tswana	-5154
▁mombe	-5155
▁multi	-5156
Afurika	-5157
dzosera	-5158
▁Crypto	-5159
▁achida	-5160
▁kurapa	-5161
▁ndiani	-5162
chinomwe	-5163
▁kurudyi	-5164
▁vakauya	-5165
▁yakaita	-5166
▁remakore	-5167
▁Kushandisa	-5168
pic	-5169
dzei	-5170
lori	-5171
▁bwa	-5172
▁ina	-5173
ating	-5174
genic	-5175
roora	-5176
▁ishe	-5177
▁neye	-5178
▁vomu	-5179
mukira	-5180
▁Water	-5181
▁agere	-5182
▁machi	-5183
tangira	-5184
▁Ndicho	-5185
▁Nyasha	-5186
▁masere	-5187
▁zvinoti	-5188
▁kukonzera	-5189
▁otomatiki	-5190
▁wemazanama	-5191
Gi	-5192
Mar	-5193
ele	-5194
rch	-5195
arth	-5196
drau	-5197
ward	-5198
zuru	-5199
▁whi	-5200
manda	-5201
setse	-5202
▁Auto	-5203
▁huni	-5204
▁custo	-5205
▁rwiyo	-5206
draulic	-5207
hailand	-5208
tevedza	-5209
▁Josefa	-5210
▁akauya	-5211
▁vachin	-5212
akawanda	-5213
▁mubhuku	-5214
48	-5215
Ti	-5216
dam	-5217
din	-5218
pot	-5219
tel	-5220
tun	-5221
gent	-5222
vapa	-5223
▁150	-5224
▁Lea	-5225
▁Tri	-5226
▁bro	-5227
▁omu	-5228
amiso	-5229
teere	-5230
▁muts	-5231
tendai	-5232
▁idzva	-5233
▁Mbudzi	-5234
▁mapeji	-5235
▁unonzi	-5236
▁Airport	-5237
▁Pashure	-5238
▁waJudha	-5239
▁nomufaro	-5240
▁imwechete	-5241
▁chinokosha	-5242
▁kumadokero	-5243
bin	-5244
box	-5245
ffe	-5246
net	-5247
now	-5248
▁3,	-5249
▁nu	-5250
umbi	-5251
▁Hau	-5252
▁kuf	-5253
▁mba	-5254
▁rou	-5255
shing	-5256
sviba	-5257
yirwa	-5258
▁ezvi	-5259
▁reMa	-5260
ration	-5261
shanga	-5262
▁arege	-5263
▁inter	-5264
▁nadzo	-5265
▁nheyo	-5266
▁ruzha	-5267
akwikwi	-5268
dudzira	-5269
▁Chinhu	-5270
▁mamita	-5271
▁makadhi	-5272
▁ndeimwe	-5273
▁pamazuva	-5274
▁nezvishoma	-5275
▁vapirisiti	-5276
▁vanokwanisa	-5277
Go	-5278
hiko	-5279
tubu	-5280
yuka	-5281
zaru	-5282
▁Mba	-5283
▁paS	-5284
amire	-5285
mbura	-5286
▁chem	-5287
endege	-5288
wegura	-5289
▁Danho	-5290
▁Micro	-5291
▁Union	-5292
tendera	-5293
▁gungwa	-5294
▁makwai	-5295
▁murege	-5296
▁Ndinoku	-5297
▁kunyoresa	-5298
▁kutarisira	-5299
▁napamusoro	-5300
▁kukurumidza	-5301
21	-5302
FA	-5303
AKAN	-5304
maka	-5305
mara	-5306
▁Har	-5307
pindu	-5308
pment	-5309
rench	-5310
ssian	-5311
▁Jeho	-5312
▁akai	-5313
▁napo	-5314
▁neho	-5315
arabhu	-5316
zorora	-5317
▁Mwana	-5318
▁Power	-5319
▁inova	-5320
▁nhume	-5321
▁achaita	-5322
▁vachiri	-5323
▁kubviswa	-5324
▁mubayiro	-5325
chengetera	-5326
▁yakachena	-5327
lf	-5328
fer	-5329
nel	-5330
nze	-5331
pei	-5332
▁(5	-5333
▁Ab	-5334
▁SA	-5335
uchi	-5336
▁pcb	-5337
▁sub	-5338
ctory	-5339
vanda	-5340
▁Trip	-5341
▁time	-5342
▁Uyewo	-5343
▁zvezvi	-5344
▁kunobva	-5345
▁kunoita	-5346
▁zvinoda	-5347
▁yechipiri	-5348
tsanangurwa	-5349
▁neshamwari	-5350
DE	-5351
▁CA	-5352
GONA	-5353
divi	-5354
idzo	-5355
▁Bhe	-5356
▁mar	-5357
▁waM	-5358
▁Asia	-5359
▁have	-5360
kunzwa	-5361
tsaura	-5362
▁ngoro	-5363
▁nzeve	-5364
dzisiro	-5365
dzitiro	-5366
▁akando	-5367
▁tariro	-5368
▁upamhi	-5369
zvinyorwa	-5370
▁detector	-5371
▁dzakanga	-5372
▁mashizha	-5373
▁haufaniri	-5374
▁madzibaba	-5375
▁!!	-5376
enna	-5377
hini	-5378
rosi	-5379
▁Bit	-5380
▁Ter	-5381
▁Jona	-5382
▁Design	-5383
▁Thomas	-5384
dyidzana	-5385
mazanama	-5386
▁kuvimba	-5387
▁kuzorwa	-5388
▁matanda	-5389
▁mumunda	-5390
▁network	-5391
▁vaRevhi	-5392
▁internet	-5393
▁anoshandisa	-5394
▁wechimazanama	-5395
VE	-5396
900	-5397
MWE	-5398
▁Ya	-5399
fomu	-5400
rove	-5401
tupa	-5402
▁nya	-5403
▁Live	-5404
▁amai	-5405
▁ivhu	-5406
▁mose	-5407
Kenani	-5408
androl	-5409
cheche	-5410
torera	-5411
▁Ndiyo	-5412
▁gumbo	-5413
▁kunon	-5414
▁raive	-5415
▁Casino	-5416
▁Kurume	-5417
▁kudaro	-5418
tongerwo	-5419
▁chitoro	-5420
▁kutonga	-5421
▁kuvakwa	-5422
▁hwevanhu	-5423
▁dzakanaka	-5424
47	-5425
Ca	-5426
ESE	-5427
lat	-5428
ype	-5429
▁..	-5430
muno	-5431
▁Fin	-5432
▁Mil	-5433
▁Nem	-5434
▁VaM	-5435
▁pem	-5436
vezwa	-5437
▁kumi	-5438
▁masa	-5439
▁pahu	-5440
ziviso	-5441
▁hachi	-5442
▁kwomu	-5443
▁ndima	-5444
dzingwa	-5445
▁Herero	-5446
▁changu	-5447
▁kuumba	-5448
▁vatatu	-5449
▁yekuti	-5450
akakomba	-5451
burukira	-5452
▁vakando	-5453
chamhembe	-5454
▁mutyairi	-5455
Bhenjamini	-5456
▁Chinyorwa	-5457
▁yeZimbabwe	-5458
17	-5459
DM	-5460
sy	-5461
cel	-5462
cra	-5463
yon	-5464
▁bw	-5465
mati	-5466
onia	-5467
stal	-5468
▁VaT	-5469
▁has	-5470
▁mus	-5471
chinj	-5472
hydro	-5473
▁Just	-5474
amaria	-5475
anhasi	-5476
▁mhaka	-5477
▁raiva	-5478
▁tsime	-5479
▁vanon	-5480
▁yaive	-5481
vhiring	-5482
zadzisa	-5483
▁Mabasa	-5484
▁akaipa	-5485
▁pachin	-5486
▁Russian	-5487
androlone	-5488
▁Muenzaniso	-5489
▁kunakidzwa	-5490
Ze	-5491
▁IN	-5492
▁SE	-5493
▁pu	-5494
Fara	-5495
Fran	-5496
humb	-5497
side	-5498
zwai	-5499
▁197	-5500
▁400	-5501
▁HGH	-5502
▁its	-5503
▁neE	-5504
Bantu	-5505
antha	-5506
shesa	-5507
temwa	-5508
vamba	-5509
vushe	-5510
▁Muko	-5511
▁mute	-5512
▁Farao	-5513
▁bhora	-5514
▁naShe	-5515
▁naani	-5516
▁inyika	-5517
▁kubvun	-5518
paradzan	-5519
▁kuwanda	-5520
▁noruoko	-5521
▁anotaura	-5522
▁ramangwana	-5523
rl	-5524
dom	-5525
lone	-5526
▁Ana	-5527
▁COB	-5528
▁Den	-5529
▁pur	-5530
▁sam	-5531
amily	-5532
iddle	-5533
mirwa	-5534
▁Hard	-5535
▁Swit	-5536
▁Tsva	-5537
▁idzo	-5538
▁Vacha	-5539
▁Video	-5540
▁ngozi	-5541
bhejera	-5542
eremiya	-5543
▁Kutanga	-5544
▁mafaira	-5545
▁namafuta	-5546
pl	-5547
sau	-5548
▁>>	-5549
▁At	-5550
pane	-5551
ties	-5552
wiwa	-5553
hanho	-5554
rwisa	-5555
wanza	-5556
▁anti	-5557
amirwa	-5558
mazuva	-5559
yakare	-5560
kuraira	-5561
shamiswa	-5562
berekerwa	-5563
▁akasimuka	-5564
▁kunyangwe	-5565
▁kwemazuva	-5566
▁ndechokuti	-5567
▁zvinodhaka	-5568
An	-5569
ERE	-5570
HAN	-5571
bia	-5572
bve	-5573
▁Cy	-5574
jaya	-5575
▁Ten	-5576
bhiti	-5577
kupai	-5578
▁Seri	-5579
▁Haiwa	-5580
▁chido	-5581
zerland	-5582
▁kudiwa	-5583
▁misika	-5584
▁kudzoka	-5585
tonhorera	-5586
▁yemhando	-5587
▁zvichava	-5588
▁zvipfeko	-5589
enderedzwa	-5590
▁pachigaro	-5591
▁Fananidzai	-5592
▁zvepabonde	-5593
TO	-5594
cor	-5595
set	-5596
dine	-5597
lass	-5598
▁Bro	-5599
▁Kan	-5600
▁all	-5601
▁por	-5602
danho	-5603
tange	-5604
▁Para	-5605
▁data	-5606
▁down	-5607
▁kosi	-5608
mbozha	-5609
shanya	-5610
▁India	-5611
▁chemu	-5612
▁kunwa	-5613
Israeri	-5614
wendefa	-5615
▁mufaro	-5616
▁akadana	-5617
▁michero	-5618
▁Gumiguru	-5619
▁madzimambo	-5620
CD	-5621
▁Wo	-5622
hoto	-5623
teni	-5624
▁Glo	-5625
▁OEM	-5626
▁Wal	-5627
▁tsa	-5628
dumbu	-5629
inian	-5630
istri	-5631
uropu	-5632
▁poda	-5633
▁word	-5634
akakon	-5635
angura	-5636
▁Tsika	-5637
▁imbwa	-5638
▁kweva	-5639
goverwa	-5640
▁haunga	-5641
▁kwacho	-5642
▁vaduku	-5643
▁vagari	-5644
▁mugodhi	-5645
▁munondo	-5646
▁zvinopa	-5647
shingaira	-5648
▁Nhoroondo	-5649
▁kubudiswa	-5650
▁Akatungamirira	-5651
OKU	-5652
lam	-5653
▁By	-5654
▁Pu	-5655
▁ni	-5656
roro	-5657
▁Mon	-5658
▁she	-5659
▁uch	-5660
▁umo	-5661
merwa	-5662
rendi	-5663
▁fomu	-5664
▁mati	-5665
illage	-5666
▁Metal	-5667
▁Scien	-5668
pfuvura	-5669
▁online	-5670
▁pagomo	-5671
▁kwezuva	-5672
▁vanogara	-5673
makumimairi	-5674
▁rokusangana	-5675
▁nekukurumidza	-5676
23	-5677
5%	-5678
CI	-5679
LE	-5680
Cha	-5681
Mat	-5682
apo	-5683
but	-5684
Hara	-5685
base	-5686
cade	-5687
ders	-5688
kore	-5689
zhou	-5690
▁Ava	-5691
▁VaK	-5692
tings	-5693
▁Mang	-5694
▁Manu	-5695
▁pamo	-5696
▁yehu	-5697
▁asiwo	-5698
▁bhiri	-5699
▁haasi	-5700
▁kunet	-5701
▁mangu	-5702
logical	-5703
▁kutiza	-5704
▁pabasa	-5705
chisvika	-5706
muenzaniso	-5707
▁kwezvinhu	-5708
▁inowedzera	-5709
Je	-5710
nu	-5711
chu	-5712
got	-5713
ssss	-5714
▁Raw	-5715
▁UYE	-5716
▁Vhi	-5717
▁Wil	-5718
▁gre	-5719
ingbo	-5720
kuita	-5721
▁Code	-5722
▁inga	-5723
▁rima	-5724
▁soku	-5725
▁tree	-5726
Russia	-5727
okunge	-5728
yarara	-5729
▁hauna	-5730
▁minda	-5731
▁mundi	-5732
▁yauno	-5733
▁Joseph	-5734
▁bhodhi	-5735
▁chinon	-5736
▁kuchera	-5737
▁vakabva	-5738
▁Istanbul	-5739
▁utachiona	-5740
Fi	-5741
Ke	-5742
UR	-5743
cka	-5744
via	-5745
shwa	-5746
▁Bio	-5747
▁Dai	-5748
▁app	-5749
Farao	-5750
chiri	-5751
dhomu	-5752
fambe	-5753
harma	-5754
vambo	-5755
▁Ruka	-5756
tafura	-5757
▁Chipo	-5758
▁David	-5759
▁Shand	-5760
▁chedu	-5761
▁naiye	-5762
batsire	-5763
▁kupera	-5764
▁maziso	-5765
▁Chimiro	-5766
▁dzakadai	-5767
▁kwaMwari	-5768
▁hutachiona	-5769
OL	-5770
cam	-5771
ham	-5772
hazi	-5773
mbed	-5774
Sauro	-5775
cking	-5776
mized	-5777
vigwa	-5778
▁pave	-5779
ambure	-5780
angani	-5781
rumini	-5782
▁dunhu	-5783
▁hunhu	-5784
buritsa	-5785
pikicha	-5786
▁asvika	-5787
▁misoro	-5788
▁muimba	-5789
▁rugwaro	-5790
▁runhare	-5791
▁zviripo	-5792
▁inzvimbo	-5793
▁sezvaaka	-5794
▁musangano	-5795
▁zvinowanzo	-5796
▁Muchidzidzo	-5797
Zv	-5798
▁×	-5799
pfi	-5800
pri	-5801
ros	-5802
▁1:	-5803
▁us	-5804
9.00	-5805
cine	-5806
gium	-5807
wend	-5808
▁Sam	-5809
onana	-5810
▁Prof	-5811
▁chen	-5812
▁hwen	-5813
Moabhu	-5814
entral	-5815
public	-5816
andicha	-5817
▁mukaka	-5818
▁mutero	-5819
▁neimba	-5820
▁plugin	-5821
krainian	-5822
ungirira	-5823
▁pamaoko	-5824
▁shongwe	-5825
ruminiyamu	-5826
▁nehuwandu	-5827
▁pamarudzi	-5828
▁mabhizimisi	-5829
▁©	-5830
gar	-5831
ons	-5832
tus	-5833
kere	-5834
king	-5835
ones	-5836
▁May	-5837
▁ima	-5838
huruu	-5839
lator	-5840
mitemo	-5841
vikiro	-5842
▁Chero	-5843
▁nomwe	-5844
wandisa	-5845
wendung	-5846
▁Ningbo	-5847
pamutemo	-5848
▁musinga	-5849
▁nemunhu	-5850
▁netsika	-5851
▁paruoko	-5852
▁vavengi	-5853
▁Roulette	-5854
▁exchange	-5855
▁mitsetse	-5856
▁ongororo	-5857
▁software	-5858
▁reChiNdau	-5859
▁inogadzirwa	-5860
▁kudzivirirwa	-5861
II	-5862
▁Ul	-5863
▁Ze	-5864
▁Hot	-5865
▁Key	-5866
▁ugo	-5867
atani	-5868
cheto	-5869
hashi	-5870
▁Rudo	-5871
▁muta	-5872
rowser	-5873
tengwa	-5874
vambwa	-5875
▁Aroni	-5876
▁Green	-5877
dhindwa	-5878
▁dzicha	-5879
▁ishoko	-5880
▁kusiya	-5881
▁tapota	-5882
▁Handina	-5883
▁pachavo	-5884
▁wakaita	-5885
▁rworudyi	-5886
▁yakaiswa	-5887
▁aruminiyamu	-5888
MU	-5889
vy	-5890
Ame	-5891
gic	-5892
met	-5893
▁My	-5894
bage	-5895
dhea	-5896
rami	-5897
▁CNC	-5898
▁Edu	-5899
▁Sur	-5900
Vanhu	-5901
dzeri	-5902
pfuma	-5903
zekia	-5904
▁Geor	-5905
anyika	-5906
danana	-5907
pikira	-5908
▁Rimwe	-5909
▁Steel	-5910
▁bheji	-5911
▁kumwe	-5912
kuvadza	-5913
▁pakuti	-5914
miririri	-5915
yananisa	-5916
▁bhatiri	-5917
▁nemazwi	-5918
▁chiteshi	-5919
▁kushamba	-5920
▁pazvinhu	-5921
▁bhizinesi	-5922
▁Kubudirira	-5923
▁mushandisi	-5924
Ju	-5925
ah	-5926
INO	-5927
fil	-5928
ids	-5929
tyi	-5930
ghts	-5931
mple	-5932
reve	-5933
svin	-5934
word	-5935
▁Art	-5936
▁gwa	-5937
bhiya	-5938
rinda	-5939
yadhi	-5940
▁Acha	-5941
▁Paul	-5942
▁Than	-5943
▁User	-5944
▁kufu	-5945
▁mase	-5946
▁vamu	-5947
ctiona	-5948
shambi	-5949
svomhu	-5950
▁Night	-5951
▁Rudzi	-5952
▁dzayo	-5953
▁rabha	-5954
chenesa	-5955
▁nehama	-5956
▁nzombe	-5957
shandiro	-5958
▁Zvadaro	-5959
▁havanga	-5960
▁kudzivisa	-5961
▁rakaumbwa	-5962
▁kukurukura	-5963
ndi	-5964
Bata	-5965
gani	-5966
kune	-5967
onya	-5968
revi	-5969
uses	-5970
yota	-5971
▁195	-5972
▁Run	-5973
▁San	-5974
▁his	-5975
dzimu	-5976
konzi	-5977
▁hope	-5978
▁kute	-5979
▁weva	-5980
gumine	-5981
injini	-5982
▁light	-5983
▁maari	-5984
▁mabhe	-5985
▁taura	-5986
▁unoti	-5987
▁zviyo	-5988
itrogen	-5989
▁Ndiani	-5990
▁ichava	-5991
▁zvangu	-5992
ineering	-5993
▁Ndinoda	-5994
▁mitengo	-5995
▁ndapota	-5996
▁nezvoku	-5997
chishanda	-5998
verengeka	-5999
▁Anwendung	-6000
▁ushamwari	-6001
enderekedzo	-6002
▁muporofita	-6003
▁kuongororwa	-6004
Bo	-6005
mh	-6006
ny	-6007
ww	-6008
clo	-6009
▁km	-6010
ambe	-6011
fano	-6012
flex	-6013
kono	-6014
mori	-6015
▁Cle	-6016
▁map	-6017
▁muN	-6018
▁off	-6019
amuri	-6020
itari	-6021
▁Kuru	-6022
▁PASI	-6023
▁kupo	-6024
kundwa	-6025
▁Custo	-6026
▁inoda	-6027
▁nacho	-6028
anthate	-6029
▁chaiwo	-6030
▁vakafa	-6031
▁KUSVIRA	-6032
manikidza	-6033
▁kumirira	-6034
▁vasikana	-6035
▁kutonhora	-6036
▁zvakajeka	-6037
gadziridzwa	-6038
ANG	-6039
lly	-6040
▁Dr	-6041
▁Ph	-6042
cess	-6043
inge	-6044
tter	-6045
▁Dha	-6046
▁IYO	-6047
▁USA	-6048
chael	-6049
dhoro	-6050
fundo	-6051
reche	-6052
wenzi	-6053
zwika	-6054
▁Moto	-6055
▁Snap	-6056
▁mutu	-6057
▁turn	-6058
▁upfu	-6059
ambira	-6060
batira	-6061
yamita	-6062
▁Multi	-6063
▁Tenga	-6064
▁akasa	-6065
▁hangu	-6066
▁kwehu	-6067
▁tenzi	-6068
kombore	-6069
tandard	-6070
▁kusika	-6071
akwanisa	-6072
▁vatorwa	-6073
▁nemitemo	-6074
▁yakajeka	-6075
▁bhasikoro	-6076
▁mupfungwa	-6077
▁kuverengwa	-6078
▁zvakaitika	-6079
▁kukubatsira	-6080
37	-6081
HO	-6082
Li	-6083
To	-6084
ars	-6085
asi	-6086
get	-6087
pai	-6088
▁BS	-6089
▁Sp	-6090
lant	-6091
roti	-6092
▁Bur	-6093
▁Maz	-6094
▁cam	-6095
uyisa	-6096
zvari	-6097
▁Mako	-6098
▁ibwe	-6099
gement	-6100
kurira	-6101
witter	-6102
▁kunga	-6103
▁mwaka	-6104
▁shanu	-6105
mbidzai	-6106
yaradza	-6107
▁Develo	-6108
▁Mafuta	-6109
▁ungano	-6110
ungamiri	-6111
▁bhatani	-6112
▁richiti	-6113
pemberera	-6114
▁chakaipa	-6115
▁yakaitwa	-6116
▁chisimbiso	-6117
▁kutengeswa	-6118
ac	-6119
▁Gh	-6120
▁TV	-6121
▁op	-6122
▁pm	-6123
ping	-6124
▁bon	-6125
▁neu	-6126
▁reS	-6127
bhari	-6128
dziya	-6129
rasha	-6130
zinda	-6131
▁News	-6132
▁muho	-6133
anhatu	-6134
dhende	-6135
garava	-6136
▁March	-6137
▁ZVAKA	-6138
▁areka	-6139
▁aripo	-6140
▁count	-6141
▁hasha	-6142
▁nziyo	-6143
endeswa	-6144
▁iPhone	-6145
▁Hazvina	-6146
▁Inogona	-6147
▁kupfeka	-6148
▁nezveku	-6149
▁yevanhu	-6150
▁zvakati	-6151
▁akaramba	-6152
▁naMozisi	-6153
▁nechimwe	-6154
▁pakukura	-6155
▁uchapupu	-6156
▁kusimbisa	-6157
▁kumanikidzwa	-6158
bus	-6159
eth	-6160
tle	-6161
▁29	-6162
▁Im	-6163
▁Nh	-6164
amai	-6165
dian	-6166
kwen	-6167
sito	-6168
▁GMT	-6169
▁Pen	-6170
▁awo	-6171
▁muU	-6172
▁vaE	-6173
anase	-6174
kongo	-6175
mbova	-6176
siria	-6177
tande	-6178
tures	-6179
▁Kupa	-6180
▁Offi	-6181
▁maro	-6182
▁rama	-6183
dhudhu	-6184
▁Ndivo	-6185
▁akari	-6186
▁bhegi	-6187
▁rweku	-6188
rogenic	-6189
▁yakati	-6190
▁yekare	-6191
▁masimba	-6192
▁muridzi	-6193
shomanana	-6194
▁makwikwi	-6195
▁Evhangeri	-6196
▁makemikari	-6197
▁vachitamba	-6198
▁nechinangwa	-6199
▁weBhabhironi	-6200
88	-6201
xe	-6202
▁mm	-6203
jeri	-6204
koko	-6205
rong	-6206
▁YEM	-6207
▁neP	-6208
akona	-6209
baric	-6210
dombo	-6211
forma	-6212
pande	-6213
renga	-6214
▁Huru	-6215
▁dzen	-6216
Harare	-6217
AKANAKA	-6218
▁ngaaku	-6219
▁Network	-6220
▁panobva	-6221
▁zvavano	-6222
▁American	-6223
▁Business	-6224
▁vatsvene	-6225
rondedzera	-6226
▁Ukrainian	-6227
▁zvichaita	-6228
▁kugoverana	-6229
▁kwaJehovha	-6230
▁dzakakwirira	-6231
▁kusunungurwa	-6232
▁zvakagadzirwa	-6233
▁anosanganisira	-6234
Su	-6235
zh	-6236
dye	-6237
ney	-6238
▁2:	-6239
▁cy	-6240
ANYA	-6241
door	-6242
form	-6243
time	-6244
▁Rol	-6245
▁USD	-6246
▁yeG	-6247
India	-6248
jenya	-6249
shami	-6250
▁Abhi	-6251
▁sema	-6252
dzikun	-6253
enjera	-6254
sirose	-6255
▁Check	-6256
▁Judha	-6257
▁metal	-6258
▁saizi	-6259
▁Mwedzi	-6260
▁manzwi	-6261
▁naIshe	-6262
▁nemari	-6263
fication	-6264
▁zviduku	-6265
▁zvokuti	-6266
engetedza	-6267
▁Kudzidza	-6268
▁akarurama	-6269
▁vagadziri	-6270
▁vakatanga	-6271
cherechedza	-6272
▁Zviratidzo	-6273
ray	-6274
▁El	-6275
▁af	-6276
▁ng	-6277
bhii	-6278
ging	-6279
rufu	-6280
▁ach	-6281
▁waN	-6282
vhima	-6283
▁Imba	-6284
▁Last	-6285
▁Shen	-6286
▁Wall	-6287
▁goho	-6288
▁pedu	-6289
▁vese	-6290
▁wemi	-6291
bhoamu	-6292
kristu	-6293
varume	-6294
▁Chika	-6295
▁hwehu	-6296
▁isati	-6297
pumburu	-6298
zvinzwa	-6299
▁kuguma	-6300
▁pavana	-6301
▁matombo	-6302
Jorodhani	-6303
▁Tsanangu	-6304
▁zvaunoda	-6305
▁mapikicha	-6306
▁nenzvimbo	-6307
▁wakarurama	-6308
▁zvinowanikwa	-6309
Hu	-6310
ST	-6311
web	-6312
'').	-6313
cing	-6314
pepa	-6315
tock	-6316
▁Bho	-6317
▁isa	-6318
bvise	-6319
itire	-6320
kanwi	-6321
tasva	-6322
tsiga	-6323
▁Coun	-6324
▁hazv	-6325
▁uone	-6326
▁wega	-6327
▁danda	-6328
tsaurwa	-6329
▁anouya	-6330
▁apedza	-6331
▁hamuna	-6332
▁matsva	-6333
▁zanane	-6334
▁zvaano	-6335
tsaurira	-6336
▁Michina	-6337
▁Sarudza	-6338
▁bumbiro	-6339
▁kuvhara	-6340
▁nemhepo	-6341
▁voltage	-6342
andakadzi	-6343
▁kwekudya	-6344
▁muEurope	-6345
chengetedze	-6346
▁zvemagetsi	-6347
▁munhoroondo	-6348
LA	-6349
-19	-6350
raw	-6351
sen	-6352
bika	-6353
fati	-6354
pona	-6355
▁600	-6356
▁Des	-6357
▁Mag	-6358
▁ang	-6359
▁iOS	-6360
▁vhu	-6361
cular	-6362
musha	-6363
zvipi	-6364
▁Good	-6365
▁gomo	-6366
▁wese	-6367
Zigula	-6368
kwezva	-6369
ramisa	-6370
▁Group	-6371
▁North	-6372
vupenyu	-6373
▁dzechi	-6374
▁kutari	-6375
▁kuvana	-6376
▁makomo	-6377
▁ndeche	-6378
▁sezvam	-6379
Pirisita	-6380
▁Kambani	-6381
▁YouTube	-6382
▁imhando	-6383
▁yandaka	-6384
▁nomukadzi	-6385
▁zvakaitwa	-6386
▁mirayiridzo	-6387
▁rusununguko	-6388
We	-6389
-10	-6390
ali	-6391
ooo	-6392
par	-6393
phe	-6394
tat	-6395
tio	-6396
aiva	-6397
rust	-6398
sera	-6399
andin	-6400
dhari	-6401
godhi	-6402
ports	-6403
vices	-6404
▁siri	-6405
▁zvou	-6406
rayira	-6407
tember	-6408
yowani	-6409
▁ndiku	-6410
▁recep	-6411
▁uende	-6412
roorana	-6413
▁Minist	-6414
▁centre	-6415
▁girazi	-6416
▁mukoma	-6417
tendeuka	-6418
▁Science	-6419
▁anobata	-6420
▁kwemvura	-6421
▁yaKristu	-6422
▁zvichida	-6423
▁zvikurusei	-6424
kurukurirana	-6425
▁zvebhizimisi	-6426
ME	-6427
ml	-6428
203	-6429
UVA	-6430
cen	-6431
lor	-6432
ony	-6433
tha	-6434
atch	-6435
bato	-6436
kiso	-6437
rene	-6438
tish	-6439
▁Nen	-6440
▁USB	-6441
▁chu	-6442
ather	-6443
frika	-6444
ingle	-6445
oogle	-6446
socia	-6447
vanze	-6448
vudza	-6449
▁Mura	-6450
▁Tags	-6451
▁Tina	-6452
▁insu	-6453
▁zvem	-6454
▁Kuzvi	-6455
kunyuka	-6456
▁Church	-6457
▁navose	-6458
▁neropa	-6459
tumidzwa	-6460
▁Wedzera	-6461
▁akabuda	-6462
▁chiduku	-6463
▁ziviswa	-6464
dzokorora	-6465
▁Chingezi	-6466
▁mudzimai	-6467
▁romukova	-6468
▁kudzokera	-6469
▁kumashure	-6470
▁mutengesi	-6471
▁rekutanga	-6472
▁makiromita	-6473
▁mubhadharo	-6474
MO	-6475
anz	-6476
ick	-6477
rop	-6478
vis	-6479
▁(4	-6480
▁32	-6481
▁au	-6482
dari	-6483
wiro	-6484
▁Ndo	-6485
▁Pol	-6486
▁Ver	-6487
▁Vol	-6488
▁cor	-6489
▁weS	-6490
dhora	-6491
mical	-6492
thern	-6493
tsira	-6494
zwira	-6495
▁Home	-6496
▁Mart	-6497
▁Sara	-6498
tsauko	-6499
zhizha	-6500
▁Bhuku	-6501
▁kwemi	-6502
▁ngoni	-6503
▁nzara	-6504
▁paine	-6505
▁rwuno	-6506
amatira	-6507
vonekwa	-6508
▁Mwenje	-6509
▁mafomu	-6510
▁magumo	-6511
perbaric	-6512
▁vanobva	-6513
▁vavanhu	-6514
▁yakadai	-6515
▁muUnited	-6516
▁namazana	-6517
▁zvinonzi	-6518
▁akangwara	-6519
▁kwakanaka	-6520
▁Blockchain	-6521
▁kuruboshwe	-6522
henderekedzo	-6523
▁mwanasikana	-6524
▁zvakanyorwa	-6525
▁akasununguka	-6526
▁kufambidzana	-6527
/0	-6528
Le	-6529
▁;	-6530
▁bh	-6531
▁ou	-6532
Kana	-6533
rire	-6534
zhen	-6535
▁120	-6536
▁Bow	-6537
▁Gar	-6538
▁ago	-6539
▁muC	-6540
▁Muri	-6541
▁back	-6542
▁rave	-6543
▁voga	-6544
amwari	-6545
▁Ndine	-6546
▁rakan	-6547
▁Kunzwa	-6548
▁anobva	-6549
▁rinoti	-6550
▁zororo	-6551
ridzirwa	-6552
tambudza	-6553
▁Mukadzi	-6554
▁nomweya	-6555
▁sarudza	-6556
▁yamambo	-6557
bhenakeri	-6558
tachiwana	-6559
▁kubudisa	-6560
▁mutariri	-6561
▁uchawana	-6562
▁vakagara	-6563
▁chezvinhu	-6564
▁kakawanda	-6565
rusununguko	-6566
▁nechipiriso	-6567
IK	-6568
tee	-6569
▁0,	-6570
▁jo	-6571
9.99	-6572
hibi	-6573
itwe	-6574
mina	-6575
tuke	-6576
▁Ani	-6577
▁eva	-6578
▁muE	-6579
▁naH	-6580
▁ona	-6581
Chewa	-6582
rerwa	-6583
shama	-6584
shora	-6585
▁Copy	-6586
▁Icho	-6587
▁uite	-6588
▁unon	-6589
Ziyoni	-6590
batani	-6591
▁ngati	-6592
▁nhatu	-6593
▁Brazil	-6594
▁Master	-6595
▁mapepa	-6596
▁mubati	-6597
▁nenzwi	-6598
yadziswa	-6599
▁kutambu	-6600
▁nhambwe	-6601
▁Jeremiya	-6602
▁VaZigula	-6603
▁Vadzidzi	-6604
▁akakwana	-6605
shongedzwa	-6606
▁dhayamita	-6607
mwanakomana	-6608
▁anoratidza	-6609
▁yakachengeteka	-6610
CT	-6611
Nd	-6612
Vu	-6613
ked	-6614
len	-6615
mir	-6616
▁Em	-6617
▁Ng	-6618
berg	-6619
bine	-6620
deya	-6621
dori	-6622
ffic	-6623
meso	-6624
sive	-6625
toni	-6626
▁fun	-6627
▁kuP	-6628
▁mho	-6629
▁Guru	-6630
▁Supp	-6631
▁Vane	-6632
▁acho	-6633
▁kwai	-6634
▁poly	-6635
gether	-6636
mbidza	-6637
putika	-6638
zviona	-6639
▁First	-6640
▁dzava	-6641
▁neChi	-6642
▁urege	-6643
kwirira	-6644
▁Dzvuku	-6645
▁Mhando	-6646
angariro	-6647
injiniya	-6648
▁choupfu	-6649
▁mutsara	-6650
▁rinenge	-6651
▁Chivabvu	-6652
▁Kushanda	-6653
▁kukangan	-6654
▁kunyorwa	-6655
▁norugare	-6656
▁migumisiro	-6657
▁namadzibaba	-6658
▁chibvumirano	-6659
▁vachishandisa	-6660
▁vakakurumbira	-6661
?"	-6662
OW	-6663
199	-6664
ece	-6665
guo	-6666
ili	-6667
▁31	-6668
▁Kw	-6669
orld	-6670
poti	-6671
▁Bhi	-6672
▁Mwa	-6673
▁Top	-6674
▁but	-6675
▁sun	-6676
petwa	-6677
▁Mini	-6678
▁Prin	-6679
▁West	-6680
▁vach	-6681
bolone	-6682
loride	-6683
vember	-6684
zaruka	-6685
▁Hongu	-6686
▁kwama	-6687
▁utsan	-6688
yengeri	-6689
▁muropa	-6690
▁vanoku	-6691
▁Chikumi	-6692
▁kumusha	-6693
▁manheru	-6694
▁quality	-6695
▁vanonzi	-6696
bvumirana	-6697
▁Tinogona	-6698
▁Zvokudya	-6699
▁anoramba	-6700
▁munununa	-6701
▁panyorwa	-6702
▁parutivi	-6703
▁inotangwa	-6704
▁nezvitima	-6705
▁vatengesi	-6706
▁zvaonekwa	-6707
▁anobatsira	-6708
▁kuratidzwa	-6709
▁kuwedzerwa	-6710
▁zvinobatsira	-6711
86	-6712
ZVO	-6713
bru	-6714
ssa	-6715
▁Of	-6716
pama	-6717
romu	-6718
tyle	-6719
vigi	-6720
visi	-6721
▁How	-6722
▁upi	-6723
lling	-6724
panga	-6725
tehwe	-6726
▁Unga	-6727
▁Vari	-6728
▁char	-6729
▁muve	-6730
▁Diana	-6731
▁Pamwe	-6732
▁ainzi	-6733
▁dziva	-6734
▁humwe	-6735
kodzera	-6736
shekeri	-6737
stagram	-6738
▁Tsvaga	-6739
▁kirasi	-6740
▁kupiwa	-6741
▁zvanda	-6742
essional	-6743
▁kutorwa	-6744
▁ndikati	-6745
▁nemazvo	-6746
rasikirwa	-6747
▁Kimbundu	-6748
▁Material	-6749
▁kuponesa	-6750
▁Kusvikira	-6751
▁Pakutanga	-6752
▁akabatana	-6753
▁gadziriro	-6754
▁kupindura	-6755
rondedzerwa	-6756
ONE	-6757
dis	-6758
fesa	-6759
pace	-6760
▁Dri	-6761
▁Mut	-6762
▁Ona	-6763
dzani	-6764
fundi	-6765
pinde	-6766
ronda	-6767
telli	-6768
▁York	-6769
▁dzai	-6770
▁tose	-6771
▁vata	-6772
enesis	-6773
▁nekun	-6774
▁weChi	-6775
Hebheru	-6776
inipisa	-6777
ongedzo	-6778
vhareji	-6779
▁Mukuru	-6780
▁weimba	-6781
madokero	-6782
▁Tattoos	-6783
▁muchiso	-6784
▁playing	-6785
tevedzeri	-6786
yengetero	-6787
zwisisika	-6788
▁Chokwadi	-6789
▁Republic	-6790
▁akanyora	-6791
▁chakaita	-6792
▁kundorwa	-6793
▁vachibva	-6794
▁zvinoitwa	-6795
▁sezvinoita	-6796
▁inoshandisa	-6797
▁kutarisirwa	-6798
▁dzamadzibaba	-6799
▁dzinovaraidza	-6800
34	-6801
LC	-6802
aly	-6803
ort	-6804
▁$6	-6805
▁2-	-6806
hane	-6807
hysi	-6808
noku	-6809
rino	-6810
stRi	-6811
▁Mhe	-6812
▁kuG	-6813
▁muD	-6814
▁wel	-6815
amati	-6816
mbodo	-6817
▁neve	-6818
ilding	-6819
shungu	-6820
▁Whole	-6821
▁dzemu	-6822
stRider	-6823
yoreswa	-6824
▁kuimba	-6825
▁ndinga	-6826
chiremba	-6827
tarisiro	-6828
zvokudya	-6829
▁Michael	-6830
▁anoziva	-6831
▁ndakati	-6832
▁zvigona	-6833
▁akaraira	-6834
▁matikiti	-6835
▁vakomana	-6836
▁yakakosha	-6837
▁zvinopfuura	-6838
Pro	-6839
kho	-6840
mha	-6841
ved	-6842
▁5,	-6843
▁HD	-6844
kiri	-6845
mory	-6846
▁Han	-6847
▁Pin	-6848
▁Sep	-6849
▁ste	-6850
Japan	-6851
aneja	-6852
ridhe	-6853
▁Mose	-6854
▁azvi	-6855
▁raro	-6856
▁reva	-6857
▁yese	-6858
▁ziso	-6859
dzirai	-6860
vhurwa	-6861
▁Email	-6862
▁hadzi	-6863
▁kukwe	-6864
▁nhovo	-6865
▁njere	-6866
▁urefu	-6867
▁yaaka	-6868
▁Hakuna	-6869
▁Mutemo	-6870
bvumirwa	-6871
▁Twitter	-6872
▁choushe	-6873
▁dzisina	-6874
renbolone	-6875
▁dzidziso	-6876
▁hurukuro	-6877
▁machinda	-6878
▁mudzimba	-6879
▁vashanyi	-6880
anganisira	-6881
▁hwehutano	-6882
▁kumarudzi	-6883
▁vakapinda	-6884
▁wongororo	-6885
▁tinofanira	-6886
▁Mifananidzo	-6887
▁zvinonhuwira	-6888
36	-6889
Al	-6890
IP	-6891
)''	-6892
lie	-6893
pal	-6894
sve	-6895
curi	-6896
dium	-6897
fare	-6898
godo	-6899
part	-6900
raka	-6901
soft	-6902
vene	-6903
▁Mai	-6904
▁dai	-6905
▁neT	-6906
ingan	-6907
vhuna	-6908
yanza	-6909
▁Ndai	-6910
▁Pamu	-6911
▁dzem	-6912
▁kubi	-6913
▁neVa	-6914
teveri	-6915
urirwa	-6916
▁Mucha	-6917
▁Rwizi	-6918
▁hwaro	-6919
fambiro	-6920
▁Ongoro	-6921
▁chiito	-6922
▁regumi	-6923
▁Samueri	-6924
▁Welcome	-6925
▁maronge	-6926
▁nokuzvi	-6927
▁pemvura	-6928
▁utariri	-6929
▁wakaipa	-6930
remekedza	-6931
▁Mushonga	-6932
itungamiri	-6933
manikidzwa	-6934
randakadzi	-6935
▁kushumira	-6936
▁Ndinokutendai	-6937
▁zvinogadzirwa	-6938
28	-6939
38	-6940
Vi	-6941
GIS	-6942
age	-6943
lee	-6944
oti	-6945
▁--	-6946
▁00	-6947
▁36	-6948
bhai	-6949
bhia	-6950
raki	-6951
ross	-6952
tova	-6953
ucha	-6954
▁Gwa	-6955
▁Out	-6956
▁fol	-6957
▁kuu	-6958
▁kuz	-6959
mboti	-6960
mvuri	-6961
nguru	-6962
randi	-6963
sting	-6964
verti	-6965
vhisi	-6966
▁Aust	-6967
▁Muse	-6968
umambo	-6969
yararo	-6970
▁Ndini	-6971
▁Ramba	-6972
▁mabwe	-6973
▁yokun	-6974
▁guruva	-6975
▁maruva	-6976
▁ndudzi	-6977
▁unenge	-6978
deredzwa	-6979
fambiswa	-6980
▁Mutambo	-6981
▁anogara	-6982
▁chikepe	-6983
▁chitsva	-6984
▁kuridza	-6985
▁kurwisa	-6986
▁sirivha	-6987
▁zvitoro	-6988
▁Kubvumbi	-6989
▁Vazhinji	-6990
▁navaviri	-6991
▁kunetseka	-6992
▁mafungiro	-6993
▁zvichiita	-6994
▁vanopfuura	-6995
▁zvinopiswa	-6996
▁kugadzirira	-6997
▁kuunganidza	-6998
▁mukugadzira	-6999
VD	-7000
-12	-7001
lay	-7002
ril	-7003
vie	-7004
▁KW	-7005
akon	-7006
ches	-7007
gozi	-7008
pers	-7009
▁Mit	-7010
Rwizi	-7011
ching	-7012
pital	-7013
stora	-7014
▁Cour	-7015
▁yawo	-7016
tevere	-7017
▁image	-7018
▁kwave	-7019
anzania	-7020
surance	-7021
▁ekunze	-7022
▁kurega	-7023
▁runako	-7024
▁source	-7025
▁murairo	-7026
▁village	-7027
Giriyadhi	-7028
▁Hardware	-7029
▁together	-7030
▁Australia	-7031
▁akakodzera	-7032
OT	-7033
Pe	-7034
New	-7035
del	-7036
▁AM	-7037
Ishe	-7038
anja	-7039
dege	-7040
geza	-7041
iswi	-7042
lawi	-7043
sima	-7044
sure	-7045
wing	-7046
▁Ara	-7047
▁Tai	-7048
▁mup	-7049
▁muu	-7050
▁neD	-7051
▁sur	-7052
koooo	-7053
murwa	-7054
thing	-7055
▁Moun	-7056
▁Play	-7057
▁head	-7058
▁zera	-7059
siyiwa	-7060
▁huchi	-7061
▁pezvo	-7062
▁sezvi	-7063
▁vezvi	-7064
sungano	-7065
▁Tendai	-7066
Soromoni	-7067
▁Associa	-7068
▁aritari	-7069
▁mudenga	-7070
▁nemisha	-7071
▁noMweya	-7072
▁pabonde	-7073
▁wedzera	-7074
ratidzira	-7075
▁Electric	-7076
▁mugwagwa	-7077
▁mumhanzi	-7078
▁musiyano	-7079
▁namazuva	-7080
▁Wholesale	-7081
▁makubhiti	-7082
▁navakadzi	-7083
▁rechipiri	-7084
▁inofanirwa	-7085
▁mashandiro	-7086
BC	-7087
PC	-7088
lm	-7089
'';	-7090
AKO	-7091
gal	-7092
lio	-7093
Fari	-7094
hivi	-7095
kesa	-7096
kora	-7097
kuyu	-7098
peji	-7099
siko	-7100
tude	-7101
▁Aqu	-7102
▁kuK	-7103
▁mub	-7104
▁neM	-7105
kiswa	-7106
lythe	-7107
osefa	-7108
rimwa	-7109
rough	-7110
▁Akan	-7111
▁Eria	-7112
▁Euro	-7113
▁vemu	-7114
bruary	-7115
cherwa	-7116
kumima	-7117
▁Funga	-7118
▁Kwema	-7119
▁Ndiwo	-7120
▁akaku	-7121
▁dzeva	-7122
▁nhamo	-7123
▁nyoro	-7124
▁rwavo	-7125
▁vhiri	-7126
▁which	-7127
website	-7128
▁mazino	-7129
▁upfumi	-7130
▁vawane	-7131
herlands	-7132
▁Hezekia	-7133
▁kuumbwa	-7134
▁magwaro	-7135
▁makumbo	-7136
▁vakandi	-7137
enotropin	-7138
paradzira	-7139
▁nezvazvo	-7140
▁tsanangu	-7141
Jerusarema	-7142
▁namarudzi	-7143
▁mudzidzisi	-7144
LL	-7145
Qu	-7146
adj	-7147
ple	-7148
akwe	-7149
hode	-7150
honi	-7151
▁Aya	-7152
▁Fri	-7153
▁Nei	-7154
▁Off	-7155
▁Rus	-7156
▁ita	-7157
▁neN	-7158
aking	-7159
hwaro	-7160
pamhi	-7161
pfupi	-7162
viron	-7163
▁Muta	-7164
▁Rese	-7165
France	-7166
kungwa	-7167
ongova	-7168
pfenyu	-7169
vuraya	-7170
▁Dress	-7171
▁James	-7172
▁kwaro	-7173
▁okuti	-7174
▁pakun	-7175
▁vaive	-7176
tumirei	-7177
urayiwa	-7178
▁mumase	-7179
▁Project	-7180
▁akanzwa	-7181
▁paMwari	-7182
▁risinga	-7183
▁vashoma	-7184
▁chivakwa	-7185
▁sechinhu	-7186
▁vakatora	-7187
▁vakawana	-7188
▁Education	-7189
▁vanotaura	-7190
▁rakasiyana	-7191
YI	-7192
sin	-7193
var	-7194
▁AD	-7195
cono	-7196
ishu	-7197
jeni	-7198
lini	-7199
ongi	-7200
rial	-7201
seri	-7202
turu	-7203
▁muI	-7204
▁neK	-7205
lease	-7206
there	-7207
▁Bata	-7208
▁Nomu	-7209
▁date	-7210
cember	-7211
ertifi	-7212
kamuri	-7213
▁Bvisa	-7214
▁Chamb	-7215
▁akako	-7216
▁dzese	-7217
▁pauno	-7218
▁tinga	-7219
▁waChi	-7220
kwanise	-7221
pindira	-7222
▁French	-7223
▁Turkey	-7224
▁family	-7225
▁kurova	-7226
▁nhabvu	-7227
buritswa	-7228
pupurira	-7229
▁Bowflex	-7230
▁kuchema	-7231
▁machira	-7232
▁matunhu	-7233
▁penyika	-7234
▁rakabva	-7235
▁vaAmoni	-7236
▁varwere	-7237
bhusaromu	-7238
▁Chikwata	-7239
▁Zvinonzi	-7240
▁anotanga	-7241
▁chisinga	-7242
▁dzokurwa	-7243
▁kugadzwa	-7244
▁vabereki	-7245
▁Copyright	-7246
▁zvakasikwa	-7247
UT	-7248
kg	-7249
▁\	-7250
ING	-7251
ITI	-7252
▁ob	-7253
onza	-7254
yeri	-7255
▁Hal	-7256
▁mbu	-7257
▁naB	-7258
▁neH	-7259
danda	-7260
ental	-7261
pfuva	-7262
wandi	-7263
▁book	-7264
▁sama	-7265
dzishe	-7266
shumba	-7267
▁Korea	-7268
▁dongo	-7269
▁famba	-7270
▁ngura	-7271
▁Joabhu	-7272
▁chenyu	-7273
erekedza	-7274
▁Magetsi	-7275
▁kushaya	-7276
▁wakandi	-7277
▁yendege	-7278
shiripiti	-7279
▁Kunyanya	-7280
▁Sciences	-7281
▁mumaguta	-7282
▁ndianiko	-7283
▁vanoziva	-7284
▁kukwirira	-7285
▁rinokosha	-7286
▁wechitatu	-7287
▁zvipiriso	-7288
▁Mukuwedzera	-7289
▁mashomanana	-7290
▁yekugadzira	-7291
67	-7292
ced	-7293
ell	-7294
ged	-7295
▁01	-7296
▁75	-7297
▁HA	-7298
back	-7299
burg	-7300
cket	-7301
dies	-7302
hemi	-7303
pter	-7304
▁Clo	-7305
▁Mer	-7306
▁War	-7307
▁lin	-7308
▁mat	-7309
▁neG	-7310
akiti	-7311
amine	-7312
bheni	-7313
lated	-7314
stone	-7315
▁cham	-7316
▁ndin	-7317
alanga	-7318
vakira	-7319
▁Analy	-7320
▁isiri	-7321
mbidzwa	-7322
▁Simuka	-7323
▁akadzi	-7324
▁hatina	-7325
▁kumisa	-7326
▁ukobvu	-7327
▁veimba	-7328
▁wainzi	-7329
▁Tinashe	-7330
▁Ukraine	-7331
▁inopiwa	-7332
▁kusimba	-7333
▁Kusiyana	-7334
▁chakanga	-7335
▁chidzidzo	-7336
▁kunaMwari	-7337
▁navaranda	-7338
▁vakaramba	-7339
▁chiwanikwa	-7340
▁mienzaniso	-7341
▁Mutungamiri	-7342
▁hwokugadzira	-7343
??	-7344
BS	-7345
URA	-7346
▁CD	-7347
▁Nu	-7348
fung	-7349
kani	-7350
ouse	-7351
sine	-7352
ziyo	-7353
▁Cat	-7354
▁NYE	-7355
▁PDF	-7356
▁waE	-7357
pedyo	-7358
place	-7359
ryama	-7360
tsivi	-7361
vinyi	-7362
xygen	-7363
zheni	-7364
▁2010	-7365
▁CSGO	-7366
▁semi	-7367
▁tepi	-7368
kwidza	-7369
miriri	-7370
ssword	-7371
terera	-7372
yeuchi	-7373
▁2018.	-7374
▁Chiko	-7375
▁navan	-7376
mutande	-7377
sterdam	-7378
teverwa	-7379
▁aJudha	-7380
▁chicha	-7381
▁rurimi	-7382
▁vhudzi	-7383
▁Pfungwa	-7384
▁goridhe	-7385
▁murombo	-7386
▁zvavaka	-7387
shamisika	-7388
tengesera	-7389
▁zvichibva	-7390
▁mumugwagwa	-7391
▁zvinobudirira	-7392
km	-7393
org	-7394
tre	-7395
▁PP	-7396
esti	-7397
hati	-7398
iner	-7399
onic	-7400
piwe	-7401
rapy	-7402
yire	-7403
▁Apg	-7404
▁Dze	-7405
▁Ind	-7406
▁Sky	-7407
▁Tsi	-7408
▁clo	-7409
▁mas	-7410
▁muG	-7411
▁stu	-7412
▁yeM	-7413
Bheti	-7414
bikwa	-7415
donhe	-7416
habhi	-7417
▁(201	-7418
▁Plus	-7419
▁enda	-7420
▁high	-7421
▁vago	-7422
dition	-7423
engeta	-7424
girazi	-7425
giriki	-7426
methyl	-7427
tamira	-7428
▁Hondo	-7429
▁Kamwe	-7430
▁Opera	-7431
▁anova	-7432
▁nyere	-7433
mberero	-7434
▁Bhuruu	-7435
▁Tarisa	-7436
dziridza	-7437
rechedza	-7438
▁Nenguva	-7439
▁nechinhu	-7440
▁hydraulic	-7441
▁kuparadza	-7442
yakagadzirwa	-7443
▁Zvigadzirwa	-7444
▁akakurumbira	-7445
akatipoteredza	-7446
js	-7447
”.	-7448
lip	-7449
oki	-7450
aris	-7451
cate	-7452
edhe	-7453
hamo	-7454
shop	-7455
sted	-7456
▁Big	-7457
▁Var	-7458
▁mab	-7459
▁opa	-7460
jinga	-7461
mbasi	-7462
▁Kuva	-7463
▁Type	-7464
▁undo	-7465
Sabata	-7466
ruvara	-7467
▁Acade	-7468
▁Patri	-7469
▁Spain	-7470
▁kwezv	-7471
▁munyu	-7472
▁other	-7473
▁ground	-7474
▁havasi	-7475
▁kukupa	-7476
▁kuunza	-7477
▁vanomu	-7478
▁varipo	-7479
hururuka	-7480
▁achibva	-7481
▁ndarama	-7482
▁zvigaro	-7483
▁zvinori	-7484
kanganiso	-7485
sarudzika	-7486
▁kuzivisa	-7487
▁muupenyu	-7488
▁namafuro	-7489
▁ngaarege	-7490
▁nomuromo	-7491
▁vakasara	-7492
▁Association	-7493
▁pachinzvimbo	-7494
32	-7495
HS	-7496
cil	-7497
gia	-7498
isu	-7499
old	-7500
rey	-7501
▁MB	-7502
ergy	-7503
reka	-7504
▁Cou	-7505
▁muK	-7506
▁muM	-7507
YANYA	-7508
akaka	-7509
ctive	-7510
ctora	-7511
kamba	-7512
pidhi	-7513
range	-7514
zendo	-7515
▁June	-7516
▁Mary	-7517
▁ZVIN	-7518
▁nets	-7519
▁uzvi	-7520
ambuko	-7521
bhengi	-7522
kirasi	-7523
nokuti	-7524
rarame	-7525
svitsa	-7526
▁Apple	-7527
▁Peter	-7528
▁Shang	-7529
▁rezve	-7530
▁zvemu	-7531
Jakobho	-7532
hebheru	-7533
pamberi	-7534
▁Nezuva	-7535
▁hofisi	-7536
▁rinopa	-7537
chengeti	-7538
virazuva	-7539
▁VaLenje	-7540
Bhaibheri	-7541
fananidza	-7542
kundikana	-7543
pakutanga	-7544
vakawanda	-7545
▁Mishonga	-7546
▁Research	-7547
▁chezvivi	-7548
▁chidimbu	-7549
▁namaviri	-7550
▁nokudaro	-7551
▁tarisiro	-7552
▁zvidimbu	-7553
▁Instagram	-7554
▁kuchenesa	-7555
▁Chikunguru	-7556
▁yakanyanya	-7557
▁kubatanidza	-7558
▁akatevedzana	-7559
▁kugadziriswa	-7560
▁unodzivirira	-7561
%.	-7562
46	-7563
AD	-7564
IV	-7565
px	-7566
mar	-7567
cker	-7568
kire	-7569
paka	-7570
ttle	-7571
vada	-7572
▁Fal	-7573
▁Ung	-7574
▁afa	-7575
▁muk	-7576
▁was	-7577
andei	-7578
cetam	-7579
dzire	-7580
hendi	-7581
mbuka	-7582
tendo	-7583
zaini	-7584
▁Full	-7585
▁aizo	-7586
▁kiyi	-7587
▁mabh	-7588
▁post	-7589
andiri	-7590
mereki	-7591
mwenje	-7592
ystems	-7593
▁Maita	-7594
▁chivi	-7595
▁kavha	-7596
▁George	-7597
▁Sweden	-7598
▁bvudzi	-7599
▁chinja	-7600
▁nokumu	-7601
▁rwechi	-7602
▁Mutauro	-7603
▁kwavaka	-7604
▁makanga	-7605
▁nemumwe	-7606
akemikari	-7607
hanzvadzi	-7608
pukunyuka	-7609
shangazhi	-7610
▁chikwama	-7611
▁mumuromo	-7612
▁mutsvene	-7613
▁nemashoko	-7614
▁nokutenda	-7615
▁Bhabhironi	-7616
▁yakanyorwa	-7617
shamwaridzana	-7618
▁dhipatimendi	-7619
▁zvinokonzera	-7620
▁zvinoenderana	-7621
96	-7622
App	-7623
ITA	-7624
dwe	-7625
gas	-7626
▁Py	-7627
-'''	-7628
cuss	-7629
popo	-7630
redi	-7631
zven	-7632
▁12.	-7633
▁ASI	-7634
▁any	-7635
▁mut	-7636
▁sti	-7637
aster	-7638
kweya	-7639
shumo	-7640
vanya	-7641
▁2012	-7642
▁Blue	-7643
▁Nhau	-7644
▁kuga	-7645
▁varo	-7646
hotera	-7647
poneso	-7648
sitoma	-7649
▁Panel	-7650
▁mazai	-7651
▁mhete	-7652
▁nhare	-7653
▁pasuo	-7654
▁zvava	-7655
rwisana	-7656
▁Ankara	-7657
▁kuguta	-7658
▁sikuta	-7659
dzidzira	-7660
▁Acetate	-7661
▁Gunyana	-7662
▁Plastic	-7663
▁mukombe	-7664
▁nesimbi	-7665
▁zvemari	-7666
▁Nekudaro	-7667
▁Nokudaro	-7668
▁Services	-7669
▁Vhidhiyo	-7670
▁kubvunza	-7671
▁munoziva	-7672
▁kutumirwa	-7673
▁rechitatu	-7674
shambadzira	-7675
itungamirira	-7676
▁Switzerland	-7677
▁epurasitiki	-7678
▁kubhururuka	-7679
▁achishandisa	-7680
Ray	-7681
ens	-7682
nia	-7683
urs	-7684
▁Za	-7685
gero	-7686
▁har	-7687
▁muL	-7688
▁yeS	-7689
amide	-7690
bhora	-7691
dzise	-7692
quare	-7693
siyan	-7694
tirwa	-7695
▁Boka	-7696
▁Join	-7697
▁Roku	-7698
▁chat	-7699
▁maga	-7700
▁para	-7701
▁pemu	-7702
▁rive	-7703
▁vaku	-7704
kedzwa	-7705
kurumi	-7706
▁Maria	-7707
▁chiru	-7708
▁ester	-7709
sarudzo	-7710
▁Dzidza	-7711
▁chinga	-7712
▁chiuru	-7713
▁kutamb	-7714
▁tinoda	-7715
▁unoita	-7716
▁uyezve	-7717
▁yababa	-7718
fukidzwa	-7719
ishamiso	-7720
▁Fitness	-7721
▁Nyanzvi	-7722
▁akamira	-7723
▁discuss	-7724
▁mapfupa	-7725
▁zvisiri	-7726
ratidzika	-7727
▁Tafadzwa	-7728
▁chirimwa	-7729
▁nemhosva	-7730
▁romwedzi	-7731
▁akapfuura	-7732
▁mapuranga	-7733
▁muUkraine	-7734
Yunivhesiti	-7735
▁Jerusarema	-7736
▁chisarudzo	-7737
akakomberedzwa	-7738
',	-7739
CE	-7740
CG	-7741
HT	-7742
im	-7743
art	-7744
aya	-7745
cot	-7746
dex	-7747
lim	-7748
nga	-7749
doko	-7750
gama	-7751
heyo	-7752
hire	-7753
more	-7754
▁Die	-7755
/2019	-7756
arium	-7757
dzosa	-7758
ptide	-7759
wedhi	-7760
▁Game	-7761
▁Yoku	-7762
▁ndey	-7763
ctober	-7764
ramine	-7765
rutivi	-7766
▁Table	-7767
▁gwaro	-7768
▁house	-7769
▁smart	-7770
ishongo	-7771
tambura	-7772
▁namano	-7773
▁pavaka	-7774
pupuriro	-7775
▁kudzing	-7776
▁naAroni	-7777
▁yasvika	-7778
▁Standard	-7779
▁chekuita	-7780
▁inofadza	-7781
▁mushandi	-7782
tungamirwa	-7783
▁VaSwahili	-7784
zvininipisa	-7785
▁mararamiro	-7786
▁yemishonga	-7787
▁mapfumbamwe	-7788
▁zvakavanzika	-7789
27	-7790
jee	-7791
tem	-7792
thy	-7793
▁1)	-7794
▁ID	-7795
▁Mh	-7796
HARA	-7797
ally	-7798
bira	-7799
case	-7800
chen	-7801
zovi	-7802
▁Ane	-7803
▁bet	-7804
▁fil	-7805
bhuka	-7806
fault	-7807
vanza	-7808
vhuro	-7809
ziwai	-7810
zvuru	-7811
▁2011	-7812
▁Amai	-7813
▁Jack	-7814
▁bato	-7815
▁vara	-7816
▁when	-7817
curity	-7818
donzvo	-7819
parara	-7820
rwadzo	-7821
viriro	-7822
▁Dzaka	-7823
▁izere	-7824
▁pamat	-7825
▁vhara	-7826
▁mafaro	-7827
▁naJesu	-7828
lication	-7829
unyanzvi	-7830
▁Kufamba	-7831
▁akavaka	-7832
▁ndinoku	-7833
▁zvamuno	-7834
bhadharwa	-7835
▁VaMambwe	-7836
▁pasirose	-7837
▁zvenyika	-7838
▁zvipfuwo	-7839
▁chinogona	-7840
▁Hyperbaric	-7841
▁akakwirira	-7842
▁Tsanangudzo	-7843
▁mumasekonzi	-7844
▁rwokumusoro	-7845
▁zvinoratidza	-7846
CS	-7847
OM	-7848
-30	-7849
Yao	-7850
dor	-7851
hoo	-7852
▁Ed	-7853
llow	-7854
pisi	-7855
sipo	-7856
taly	-7857
tisa	-7858
▁Bat	-7859
▁Bvu	-7860
▁Dou	-7861
▁ega	-7862
ctors	-7863
gency	-7864
shani	-7865
tains	-7866
urkey	-7867
▁Cham	-7868
▁Ivai	-7869
▁novu	-7870
▁rune	-7871
▁ruri	-7872
Farise	-7873
Manase	-7874
diriro	-7875
enomwe	-7876
irirwa	-7877
ponesi	-7878
▁ZVESE	-7879
▁kudai	-7880
▁micro	-7881
▁their	-7882
▁thumb	-7883
hashiya	-7884
mething	-7885
▁Pharma	-7886
▁Tapota	-7887
▁inhibi	-7888
▁nebasa	-7889
▁pavano	-7890
▁Central	-7891
▁Dzvanya	-7892
▁chiyero	-7893
▁pasinei	-7894
▁sayenzi	-7895
▁vachida	-7896
shongedza	-7897
sitorendi	-7898
vandudzwa	-7899
vertising	-7900
▁Dianabol	-7901
▁chizvarwa	-7902
▁insurance	-7903
▁mumutauro	-7904
▁inokwanisa	-7905
▁kutendeuka	-7906
▁Kushandiswa	-7907
▁Mufananidzo	-7908
▁dzakatevedzana	-7909
RL	-7910
asy	-7911
ped	-7912
ump	-7913
▁48	-7914
enza	-7915
rate	-7916
ruit	-7917
tope	-7918
▁202	-7919
▁Job	-7920
▁Mbe	-7921
▁fai	-7922
▁neC	-7923
▁reM	-7924
▁syn	-7925
areka	-7926
bhani	-7927
nguva	-7928
rashi	-7929
rowth	-7930
▁aita	-7931
▁mate	-7932
▁umwe	-7933
akwira	-7934
debele	-7935
livery	-7936
rayiro	-7937
sition	-7938
steron	-7939
▁Promo	-7940
▁cheap	-7941
▁dzaro	-7942
▁pamba	-7943
tsanura	-7944
▁Federa	-7945
▁Kuziva	-7946
▁turusi	-7947
▁wakaku	-7948
▁wakamu	-7949
▁wandei	-7950
▁yeimba	-7951
Internet	-7952
▁kubvuma	-7953
▁kuonana	-7954
▁muzvina	-7955
▁nechipi	-7956
▁vakaipa	-7957
▁kuchaita	-7958
chinyakare	-7959
▁Kutengesa	-7960
▁akanyorwa	-7961
▁zvifananidzo	-7962
▁chinoshandiswa	-7963
26	-7964
Po	-7965
hn	-7966
TEN	-7967
uma	-7968
▁sy	-7969
gabe	-7970
reru	-7971
sage	-7972
▁Del	-7973
▁Red	-7974
▁Ski	-7975
▁kuC	-7976
▁our	-7977
▁paE	-7978
▁pol	-7979
▁yeT	-7980
Press	-7981
chiva	-7982
initi	-7983
▁iine	-7984
▁nepa	-7985
pupura	-7986
sident	-7987
▁April	-7988
▁Enter	-7989
▁Laura	-7990
▁mwari	-7991
▁rinon	-7992
▁under	-7993
▁vushe	-7994
▁ichiri	-7995
▁kamera	-7996
▁mubato	-7997
▁yebasa	-7998
chishanu	-7999
▁Belgium	-8000
▁Kodzero	-8001
▁Munyika	-8002
▁achinge	-8003
▁country	-8004
▁kuchinj	-8005
▁kuuraya	-8006
▁muchero	-8007
butramine	-8008
paradzana	-8009
▁inotaura	-8010
▁ndichiti	-8011
cherekedza	-8012
▁muGermany	-8013
▁yakavakwa	-8014
▁customized	-8015
▁zvinoitika	-8016
▁chepamusoro	-8017
▁chakagadzirwa	-8018
▁mutungamiriri	-8019
▁kunyatsoshanda	-8020
HGH	-8021
cis	-8022
▁AI	-8023
kuno	-8024
orwa	-8025
ropi	-8026
ruku	-8027
sasa	-8028
tech	-8029
yima	-8030
▁CPA	-8031
▁Exe	-8032
▁Fur	-8033
▁Kar	-8034
▁bir	-8035
▁kuN	-8036
▁kuT	-8037
▁www	-8038
enene	-8039
ister	-8040
▁Life	-8041
▁dema	-8042
akakan	-8043
dedera	-8044
komana	-8045
remara	-8046
ropafa	-8047
▁Chaka	-8048
▁Hazvi	-8049
▁Isaka	-8050
▁Motor	-8051
▁cheni	-8052
▁Manufa	-8053
▁Single	-8054
▁kukuva	-8055
▁vasiri	-8056
pfenyuro	-8057
▁Chikoro	-8058
▁Corpora	-8059
▁inodiwa	-8060
▁kembasi	-8061
▁kuroora	-8062
▁kwekuti	-8063
▁mekunge	-8064
▁vharafu	-8065
formation	-8066
▁December	-8067
▁pamukova	-8068
▁Kunyangwe	-8069
▁kukumbira	-8070
▁kweAfrica	-8071
▁pasiwedhi	-8072
▁zvichinzi	-8073
▁Abhusaromu	-8074
▁vaporofita	-8075
▁kwakanyanya	-8076
▁zvinoshanda	-8077
irinemakumima	-8078
▁zvinokonzerwa	-8079
em	-8080
-20	-8081
Ndi	-8082
eli	-8083
ice	-8084
▁34	-8085
▁Sy	-8086
SIRA	-8087
bara	-8088
gust	-8089
mers	-8090
test	-8091
vava	-8092
vers	-8093
woko	-8094
▁Kit	-8095
▁Nai	-8096
▁cle	-8097
aniel	-8098
bhori	-8099
mbana	-8100
vhiri	-8101
wanya	-8102
yanyo	-8103
▁Ange	-8104
▁Mira	-8105
▁Sand	-8106
andare	-8107
anuary	-8108
▁Kudya	-8109
▁Ndika	-8110
▁Profi	-8111
▁Under	-8112
▁asing	-8113
▁nzizi	-8114
▁vadzi	-8115
▁Johane	-8116
▁rapera	-8117
ctionary	-8118
ustralia	-8119
▁inotora	-8120
▁kuhwina	-8121
▁mubairo	-8122
▁nehasha	-8123
▁vapenyu	-8124
▁wemunhu	-8125
▁zvekare	-8126
bhizinesi	-8127
chinyorwa	-8128
▁Industry	-8129
▁November	-8130
▁nepakati	-8131
▁anotevera	-8132
▁muAfurika	-8133
▁namashoko	-8134
▁namachinda	-8135
▁Chigadzirwa	-8136
▁nezvipiriso	-8137
▁kusagadzikana	-8138
,”	-8139
39	-8140
LS	-8141
RC	-8142
Sh	-8143
gua	-8144
mus	-8145
▁Os	-8146
cano	-8147
mene	-8148
reni	-8149
vhen	-8150
▁Bai	-8151
▁Inc	-8152
▁Jan	-8153
▁Lee	-8154
▁ada	-8155
▁dri	-8156
▁kuD	-8157
▁muZ	-8158
house	-8159
kumbi	-8160
tunha	-8161
wirwa	-8162
▁Cash	-8163
▁Chip	-8164
▁Poly	-8165
▁Visa	-8166
▁akak	-8167
▁nako	-8168
anyira	-8169
tifomu	-8170
zadzwa	-8171
▁Great	-8172
▁amene	-8173
▁chama	-8174
▁funga	-8175
▁zvemi	-8176
▁Curren	-8177
▁Distri	-8178
▁kumeso	-8179
▁kurima	-8180
▁mitatu	-8181
▁muimbi	-8182
▁ngazvi	-8183
▁padiki	-8184
apostora	-8185
▁kubatwa	-8186
▁namabwe	-8187
▁navamwe	-8188
▁ndirege	-8189
▁kunoitwa	-8190
▁mimhanzi	-8191
▁nehutano	-8192
▁zvinobva	-8193
tambanudza	-8194
▁Chinangwa	-8195
▁kukodzera	-8196
▁namashanu	-8197
paradzanisa	-8198
▁Management	-8199
▁Professional	-8200
zvokutengeserana	-8201
bri	-8202
olu	-8203
sul	-8204
ury	-8205
yen	-8206
▁8,	-8207
▁BA	-8208
▁DC	-8209
▁MS	-8210
Digo	-8211
arge	-8212
rota	-8213
▁Abh	-8214
▁Res	-8215
▁air	-8216
▁men	-8217
▁tek	-8218
rence	-8219
▁Card	-8220
▁Long	-8221
▁Nyan	-8222
▁Real	-8223
▁Sezv	-8224
▁Test	-8225
▁eChi	-8226
▁some	-8227
midzwa	-8228
panhau	-8229
wedera	-8230
▁nharo	-8231
▁zvomu	-8232
anguage	-8233
gwarira	-8234
paradze	-8235
▁inouya	-8236
▁bonuses	-8237
▁ichango	-8238
▁utsanzi	-8239
▁kudanana	-8240
perembudzi	-8241
▁Rumbidzai	-8242
▁ndinoziva	-8243
▁rakasvika	-8244
▁transposh	-8245
▁chidzitiro	-8246
▁vakarurama	-8247
▁rokutengesa	-8248
▁zvinoriumba	-8249
▁kutambudzika	-8250
▁pamuchinjikwa	-8251
ig	-8252
iz	-8253
BET	-8254
bre	-8255
cus	-8256
▁$5	-8257
▁3:	-8258
▁TO	-8259
▁kg	-8260
gulu	-8261
medu	-8262
rudo	-8263
suka	-8264
tein	-8265
tide	-8266
udze	-8267
▁11.	-8268
▁Sou	-8269
▁ati	-8270
▁day	-8271
▁naZ	-8272
gombe	-8273
mbiru	-8274
unzwa	-8275
zoita	-8276
▁Gold	-8277
▁Hati	-8278
▁Most	-8279
▁kano	-8280
▁mapu	-8281
▁waro	-8282
estern	-8283
guruve	-8284
pikisa	-8285
stanon	-8286
tsunga	-8287
vhenda	-8288
yaruka	-8289
▁jecha	-8290
▁musuo	-8291
▁ringa	-8292
▁vaite	-8293
ctorate	-8294
ringana	-8295
teereri	-8296
yaradzi	-8297
▁Blythe	-8298
▁Global	-8299
▁Mugore	-8300
▁Nekuti	-8301
▁Series	-8302
▁hotera	-8303
▁katatu	-8304
▁kereke	-8305
▁kupora	-8306
▁mahara	-8307
▁navaka	-8308
▁nehafu	-8309
▁nevana	-8310
▁nokuku	-8311
shington	-8312
tsetseka	-8313
▁kutadza	-8314
▁svikiro	-8315
pindirana	-8316
rumbidzwa	-8317
▁Ndezvipi	-8318
▁Ndichaku	-8319
▁Shenzhen	-8320
▁anowanzo	-8321
▁dzenyika	-8322
▁dzinenge	-8323
▁napakati	-8324
▁Ndinoziva	-8325
▁achitaura	-8326
▁exchanges	-8327
▁muBhaibheri	-8328
▁yekutengesa	-8329
▁zvakafanira	-8330
▁Yakagadzirwa	-8331
▁vakaverengwa	-8332
'.	-8333
85	-8334
UM	-8335
Sha	-8336
ben	-8337
▁my	-8338
Kara	-8339
lane	-8340
rain	-8341
vone	-8342
yura	-8343
▁800	-8344
▁Sel	-8345
▁non	-8346
chaka	-8347
kwake	-8348
mbiso	-8349
miswa	-8350
tenzi	-8351
unura	-8352
utano	-8353
▁Fish	-8354
▁Hava	-8355
▁Nama	-8356
▁Slot	-8357
▁nguo	-8358
▁seva	-8359
dzinde	-8360
hwindo	-8361
▁Archi	-8362
▁VaYao	-8363
▁chiro	-8364
rangana	-8365
svibisa	-8366
thereum	-8367
▁Canada	-8368
▁hwenyu	-8369
▁kunoku	-8370
Chirungu	-8371
dudzirwa	-8372
▁Railway	-8373
▁anotora	-8374
▁revanhu	-8375
▁website	-8376
▁Shipping	-8377
▁kushanya	-8378
▁kutsanya	-8379
▁mugungwa	-8380
▁rakakura	-8381
▁shandisa	-8382
▁shanduko	-8383
▁zvandino	-8384
fananidzwa	-8385
puratifomu	-8386
tsungirira	-8387
▁kurovedza	-8388
▁zvaakanga	-8389
▁Kuongorora	-8390
▁munaKristu	-8391
▁paIsiraeri	-8392
▁inotengeswa	-8393
▁kutsvakurudza	-8394
▁yakashandiswa	-8395
▁zvinonyangadza	-8396
49	-8397
TD	-8398
yg	-8399
fra	-8400
pcs	-8401
zou	-8402
▁5-	-8403
▁Hw	-8404
able	-8405
ford	-8406
heel	-8407
jere	-8408
semb	-8409
star	-8410
stle	-8411
vutu	-8412
▁Bud	-8413
▁Fil	-8414
▁Hun	-8415
▁Kat	-8416
▁Mbu	-8417
▁Ngo	-8418
▁Vin	-8419
▁uya	-8420
binet	-8421
cript	-8422
ongai	-8423
▁Apps	-8424
▁Java	-8425
▁Meta	-8426
▁Muto	-8427
▁Poli	-8428
▁Road	-8429
▁take	-8430
▁they	-8431
arirea	-8432
firimu	-8433
vigira	-8434
▁Shure	-8435
▁hweva	-8436
▁kuora	-8437
▁makwa	-8438
▁ndimi	-8439
▁tanga	-8440
▁tende	-8441
▁wezvi	-8442
hodesia	-8443
murenga	-8444
▁anozvi	-8445
▁carbon	-8446
▁chubhu	-8447
▁mudiki	-8448
▁nababa	-8449
▁vatema	-8450
▁zvacho	-8451
pfuurira	-8452
tarisiko	-8453
zambique	-8454
▁Austria	-8455
▁Product	-8456
▁emakore	-8457
▁gadzira	-8458
▁hazvisi	-8459
▁nenyama	-8460
▁unoziva	-8461
fungisisa	-8462
▁vakabuda	-8463
▁Amsterdam	-8464
▁chokusika	-8465
▁uchenjeri	-8466
▁Dictionary	-8467
▁mumwechete	-8468
▁rinotaurwa	-8469
▁sezvakanga	-8470
▁Zvechokwadi	-8471
▁kutaurirana	-8472
▁mapurasitiki	-8473
▁Kuchengetedza	-8474
AA	-8475
gg	-8476
▁—	-8477
TER	-8478
air	-8479
dii	-8480
▁2)	-8481
▁II	-8482
▁cm	-8483
▁el	-8484
enti	-8485
lica	-8486
mark	-8487
xide	-8488
▁Non	-8489
▁Reg	-8490
▁get	-8491
▁paP	-8492
bhazi	-8493
large	-8494
lized	-8495
yungu	-8496
▁July	-8497
▁Rose	-8498
▁Sale	-8499
chovha	-8500
cutive	-8501
dangwe	-8502
itauro	-8503
pambwa	-8504
ridine	-8505
sarura	-8506
tsitsi	-8507
yester	-8508
▁Click	-8509
▁Mhuri	-8510
▁Ndoku	-8511
▁amire	-8512
▁hwedu	-8513
▁zvido	-8514
bhuroni	-8515
gadzike	-8516
ungirwa	-8517
▁Kuwana	-8518
▁Ndinga	-8519
▁Tsamba	-8520
▁Vakamu	-8521
▁metres	-8522
▁mudiwa	-8523
▁paushe	-8524
▁unozvi	-8525
▁yavana	-8526
▁yepasi	-8527
rwadziwa	-8528
▁anoreva	-8529
▁kucheka	-8530
▁kumunhu	-8531
▁matongo	-8532
▁mavhiki	-8533
▁wamambo	-8534
▁zvamaka	-8535
tumireiwo	-8536
▁Kufanana	-8537
▁Ndatenda	-8538
▁download	-8539
▁kwevhiki	-8540
▁mafirimu	-8541
▁nomwedzi	-8542
▁vakabata	-8543
▁zvikwata	-8544
akakonzera	-8545
▁Mountains	-8546
▁zvokurapa	-8547
▁kurwadziwa	-8548
▁mhedzisiro	-8549
▁Chengetedza	-8550
▁Engineering	-8551
▁mazwifanana	-8552
▁Nditumireiwo	-8553
▁anotsanangura	-8554
▁kuchengetedzwa	-8555
Ex	-8556
La	-8557
lub	-8558
ppy	-8559
rub	-8560
sco	-8561
vey	-8562
▁38	-8563
▁6,	-8564
bora	-8565
firi	-8566
ould	-8567
tezo	-8568
tian	-8569
tura	-8570
▁10%	-8571
▁Hel	-8572
▁Roo	-8573
▁Wha	-8574
▁fin	-8575
▁mhu	-8576
▁ver	-8577
akana	-8578
batya	-8579
kunga	-8580
motsi	-8581
omesa	-8582
rohwa	-8583
shima	-8584
shira	-8585
wumbe	-8586
▁Kare	-8587
▁Ruth	-8588
▁firi	-8589
▁line	-8590
▁peva	-8591
▁vayo	-8592
goneka	-8593
minist	-8594
remera	-8595
tukezi	-8596
▁Endai	-8597
▁Premi	-8598
▁Ranga	-8599
▁akare	-8600
▁tangi	-8601
farirwa	-8602
hanhatu	-8603
▁Makomo	-8604
▁achaku	-8605
▁dzvene	-8606
▁emvura	-8607
▁huremu	-8608
▁mugomo	-8609
▁ukoshi	-8610
▁Izvozvo	-8611
▁Kaziwai	-8612
▁Private	-8613
▁akadaro	-8614
▁inogara	-8615
▁zviyero	-8616
▁ekutanga	-8617
▁muchinda	-8618
▁ndichamu	-8619
▁Makambani	-8620
▁aIsiraeri	-8621
▁zvandaona	-8622
▁inonakidza	-8623
▁kwaizvozvo	-8624
▁nokururama	-8625
▁zvinotyisa	-8626
▁kunoshamisa	-8627
▁kushambadza	-8628
▁kusimudzira	-8629
▁zvakaenzana	-8630
▁Pakupedzisira	-8631
▁dzakakurumbira	-8632
66	-8633
TH	-8634
sp	-8635
ath	-8636
khu	-8637
tum	-8638
▁4-	-8639
▁Us	-8640
▁eB	-8641
▁wi	-8642
bude	-8643
coun	-8644
head	-8645
kuya	-8646
kwan	-8647
puta	-8648
teka	-8649
tton	-8650
ween	-8651
yeka	-8652
▁Fre	-8653
▁Hen	-8654
▁muH	-8655
amiro	-8656
cheni	-8657
ciety	-8658
creen	-8659
pimwa	-8660
▁Mata	-8661
▁Star	-8662
▁Yedu	-8663
▁fire	-8664
▁into	-8665
▁kweB	-8666
▁land	-8667
▁mare	-8668
▁side	-8669
▁waJo	-8670
anurwa	-8671
ctions	-8672
listat	-8673
pombwe	-8674
▁Chewa	-8675
▁Heano	-8676
▁Photo	-8677
▁Spect	-8678
▁chomu	-8679
angande	-8680
ongedza	-8681
shafati	-8682
▁Bridge	-8683
▁Ruvara	-8684
▁Wakati	-8685
▁vakasa	-8686
▁VaChewa	-8687
▁zvirevo	-8688
▁Chiitiko	-8689
▁Fittings	-8690
▁Vashandi	-8691
dzivirirwa	-8692
okutengesa	-8693
▁chakaitwa	-8694
▁paaritari	-8695
▁something	-8696
▁yakadzika	-8697
▁Industrial	-8698
▁kurongedza	-8699
▁nemotokari	-8700
isanganisira	-8701
maodzanyemba	-8702
▁navanasikana	-8703
Fa	-8704
cyc	-8705
his	-8706
med	-8707
nam	-8708
orm	-8709
sal	-8710
▁$7	-8711
▁Ci	-8712
▁MO	-8713
▁UV	-8714
-200	-8715
ader	-8716
dala	-8717
name	-8718
rowa	-8719
ziya	-8720
zizi	-8721
▁0.5	-8722
▁180	-8723
▁360	-8724
▁BTC	-8725
▁Ben	-8726
▁Tag	-8727
▁naD	-8728
▁paK	-8729
Venda	-8730
bairo	-8731
bhoti	-8732
bvumo	-8733
feren	-8734
henyl	-8735
iseve	-8736
kubva	-8737
pfumo	-8738
pfura	-8739
▁Door	-8740
▁HERE	-8741
▁Kuka	-8742
▁Maxi	-8743
▁Nepo	-8744
▁Ngaa	-8745
▁Stre	-8746
▁body	-8747
▁gara	-8748
▁many	-8749
▁uswa	-8750
▁very	-8751
govana	-8752
onetsa	-8753
tarise	-8754
tsimba	-8755
upamhi	-8756
upport	-8757
vakisa	-8758
vanzwa	-8759
▁2017,	-8760
▁Japan	-8761
▁uchan	-8762
▁zviso	-8763
koshesa	-8764
mutauro	-8765
tsigiri	-8766
vhiyiwa	-8767
▁Gungwa	-8768
▁Spring	-8769
▁ataure	-8770
▁mutema	-8771
▁ndezve	-8772
▁nzendo	-8773
▁akapiwa	-8774
▁chekuti	-8775
▁munyaya	-8776
▁mutende	-8777
▁nehondo	-8778
▁nokuita	-8779
▁vanyori	-8780
▁varombo	-8781
▁yemvura	-8782
akondohwe	-8783
burikidza	-8784
ongoitika	-8785
▁Products	-8786
▁Shanghai	-8787
▁inoramba	-8788
▁inotanga	-8789
▁navarume	-8790
▁nemhando	-8791
▁vachiita	-8792
▁September	-8793
▁ZVAKANAKA	-8794
▁akazivisa	-8795
▁yemitambo	-8796
▁Chikumbiro	-8797
▁nevakawanda	-8798
akakomberedza	-8799
▁okupedzisira	-8800
▁pamhenderekedzo	-8801
1:	-8802
Pi	-8803
SS	-8804
Pal	-8805
nes	-8806
oro	-8807
ust	-8808
dire	-8809
fiti	-8810
heri	-8811
orth	-8812
sket	-8813
▁10,	-8814
▁Alu	-8815
▁Blu	-8816
▁Mad	-8817
▁her	-8818
▁kud	-8819
Yandi	-8820
chipa	-8821
credi	-8822
idzwa	-8823
sions	-8824
tukwa	-8825
tunga	-8826
▁Equi	-8827
▁This	-8828
▁VaLo	-8829
▁hard	-8830
▁mhan	-8831
▁zivo	-8832
Kurume	-8833
durura	-8834
tapira	-8835
zhonga	-8836
▁Count	-8837
▁Econo	-8838
▁Sezva	-8839
▁chipu	-8840
▁hazvo	-8841
▁kusha	-8842
▁mbiru	-8843
▁menyu	-8844
chigaro	-8845
tomatic	-8846
▁Amazon	-8847
▁Musoro	-8848
▁Russia	-8849
▁Techni	-8850
▁murima	-8851
akwanisi	-8852
▁Verenga	-8853
▁akamuka	-8854
▁default	-8855
▁gungano	-8856
▁rwemuti	-8857
▁vaMwari	-8858
▁vanozvi	-8859
▁yakabva	-8860
▁CarYandi	-8861
▁Mharidzo	-8862
▁Cypionate	-8863
▁bhiriyoni	-8864
▁kubvumira	-8865
▁kuzvipira	-8866
▁zvishongo	-8867
vutugadzike	-8868
▁Zvakakosha	-8869
▁kunobatsira	-8870
▁kusununguka	-8871
▁Musakanganwa	-8872
▁semuenzaniso	-8873
97	-8874
Ar	-8875
ZI	-8876
ex	-8877
IST	-8878
mes	-8879
orn	-8880
squ	-8881
urg	-8882
▁37	-8883
▁ap	-8884
2020	-8885
CGMP	-8886
dish	-8887
eshu	-8888
hove	-8889
jiva	-8890
tiza	-8891
weta	-8892
wisi	-8893
▁Her	-8894
▁ICO	-8895
▁Mul	-8896
dzima	-8897
gunwe	-8898
kodhi	-8899
olden	-8900
tembo	-8901
urayi	-8902
▁2009	-8903
▁3000	-8904
▁Alex	-8905
▁Chan	-8906
▁edza	-8907
▁kuto	-8908
▁mono	-8909
mbedza	-8910
▁Glass	-8911
▁Physi	-8912
▁namai	-8913
▁vaiti	-8914
dzvinyi	-8915
hanyeri	-8916
tadzisa	-8917
tambira	-8918
tarirwa	-8919
▁Coupon	-8920
▁arambe	-8921
▁kugura	-8922
▁matani	-8923
▁pamoyo	-8924
▁Academy	-8925
▁Betting	-8926
▁Express	-8927
▁Factory	-8928
▁compres	-8929
▁matende	-8930
▁mumhuri	-8931
▁pavhiki	-8932
pupurirwa	-8933
▁Unyanzvi	-8934
▁kunonoka	-8935
▁manzwiro	-8936
▁nedzimba	-8937
▁ruzhinji	-8938
▁vakanaka	-8939
▁weAsiria	-8940
▁yemazuva	-8941
▁zvipenyu	-8942
▁zvisikwa	-8943
▁Maminitsi	-8944
▁akazvarwa	-8945
▁maJehovha	-8946
▁samambure	-8947
▁Genotropin	-8948
▁akaberekwa	-8949
▁chekutanga	-8950
▁inoshamisa	-8951
▁kuparadzwa	-8952
▁kwakadziva	-8953
▁vadzidzisi	-8954
▁vakaungana	-8955
▁Chishandiswa	-8956
CHA	-8957
fin	-8958
glu	-8959
yal	-8960
-100	-8961
city	-8962
days	-8963
joto	-8964
manu	-8965
mbyg	-8966
muna	-8967
play	-8968
ripa	-8969
rity	-8970
yiko	-8971
zero	-8972
▁BSF	-8973
▁Get	-8974
▁Jet	-8975
▁Map	-8976
▁Sal	-8977
▁ing	-8978
▁ink	-8979
▁iva	-8980
▁mon	-8981
▁tho	-8982
▁yeP	-8983
DZIRA	-8984
Zvino	-8985
akava	-8986
andai	-8987
cious	-8988
dzino	-8989
gutsa	-8990
lizon	-8991
ruvhu	-8992
senga	-8993
▁Esau	-8994
▁Hamu	-8995
▁KANA	-8996
▁Make	-8997
▁Mano	-8998
▁havo	-8999
▁kweJ	-9000
▁neMa	-9001
▁riya	-9002
anenge	-9003
itirei	-9004
mhando	-9005
▁House	-9006
▁Isaya	-9007
▁chavo	-9008
▁iwoyo	-9009
▁ngaku	-9010
▁uchin	-9011
▁zvazv	-9012
angzhou	-9013
bhorosi	-9014
▁Armati	-9015
▁hwindo	-9016
▁nhanho	-9017
▁nokuna	-9018
▁vatsva	-9019
Rudhende	-9020
rukureta	-9021
▁Chipiri	-9022
▁Kuumbwa	-9023
▁Systems	-9024
▁Zvakare	-9025
▁hamunga	-9026
▁kudzika	-9027
▁mabhiri	-9028
▁nenzara	-9029
▁pachayo	-9030
▁panyaya	-9031
▁vafambi	-9032
▁yaJudha	-9033
dzikunura	-9034
▁Mhinduro	-9035
▁emagetsi	-9036
▁hwamanda	-9037
▁kuroorwa	-9038
▁kwakabva	-9039
▁mhandara	-9040
▁vakavuya	-9041
▁akaenzana	-9042
▁kwehomoni	-9043
▁rakatanga	-9044
▁turntable	-9045
▁Chekutanga	-9046
▁Kugadzirwa	-9047
▁androgenic	-9048
▁advertising	-9049
▁chakarurama	-9050
▁zvinonakidza	-9051
▁wakasununguka	-9052
▁zvichienzaniswa	-9053
PM	-9054
hl	-9055
hwu	-9056
ssy	-9057
▁).	-9058
▁5:	-9059
▁Ag	-9060
▁FA	-9061
▁FI	-9062
▁UN	-9063
DZWA	-9064
fect	-9065
vuso	-9066
▁Ali	-9067
▁Vjs	-9068
▁cal	-9069
▁fan	-9070
▁pad	-9071
dhine	-9072
ethyl	-9073
gital	-9074
inani	-9075
kwani	-9076
mited	-9077
▁Fund	-9078
▁Main	-9079
▁face	-9080
▁used	-9081
Yuropu	-9082
bhuruu	-9083
lement	-9084
orivhi	-9085
papiro	-9086
pedzwa	-9087
▁Award	-9088
▁iroro	-9089
▁kuoma	-9090
▁midzi	-9091
▁nyoka	-9092
canoate	-9093
dururwa	-9094
fundisi	-9095
yevedza	-9096
▁Murume	-9097
▁Robert	-9098
▁akaoma	-9099
▁chaiye	-9100
▁nameso	-9101
▁rukuru	-9102
▁shumba	-9103
▁uchaku	-9104
cription	-9105
gadzikwa	-9106
tsamwira	-9107
▁Kingdom	-9108
▁Tatenda	-9109
▁VaTonga	-9110
▁acetate	-9111
▁chibage	-9112
▁mutauri	-9113
▁nechiso	-9114
▁nembiri	-9115
▁richava	-9116
▁rwezasi	-9117
▁verenga	-9118
akanakira	-9119
pembenene	-9120
▁akakwira	-9121
▁akapedza	-9122
▁inosvika	-9123
▁makumima	-9124
▁muAfrica	-9125
▁ndokubva	-9126
▁Microsoft	-9127
▁President	-9128
▁Wordpress	-9129
▁wakakwana	-9130
▁chokutanga	-9131
▁kuchereche	-9132
▁rechinomwe	-9133
▁zvikonzero	-9134
bhabhatidzwa	-9135
▁Cherechedza	-9136
▁chinonyanya	-9137
▁vaFirisitia	-9138
▁kutsanangura	-9139
▁pavanakomana	-9140
▁yepamusorosoro	-9141
Bu	-9142
TU	-9143
vil	-9144
▁($	-9145
▁(6	-9146
▁NA	-9147
▁SS	-9148
izvi	-9149
mora	-9150
pano	-9151
puru	-9152
roid	-9153
zipa	-9154
▁Est	-9155
▁GPS	-9156
▁bio	-9157
amara	-9158
dhamu	-9159
lifor	-9160
mbure	-9161
mwari	-9162
potsa	-9163
▁Logo	-9164
▁Town	-9165
▁free	-9166
▁girl	-9167
▁kofi	-9168
▁mush	-9169
▁piri	-9170
▁plat	-9171
DZIDZA	-9172
diniko	-9173
erimwe	-9174
ridzwa	-9175
rwadza	-9176
ulture	-9177
▁'''''	-9178
▁Farai	-9179
▁Mhuka	-9180
▁Trade	-9181
▁Watch	-9182
▁anoku	-9183
▁being	-9184
▁hosha	-9185
▁mairi	-9186
▁nemin	-9187
▁river	-9188
▁there	-9189
▁vazvi	-9190
▁waShe	-9191
mbygden	-9192
nembiri	-9193
putsika	-9194
ratidzi	-9195
zunungu	-9196
▁Flight	-9197
▁Mitemo	-9198
▁Zigula	-9199
▁wavana	-9200
▁yavaka	-9201
horiyamu	-9202
kuvadzwa	-9203
vhizheni	-9204
▁Maconde	-9205
▁Mucheka	-9206
▁Nemhaka	-9207
▁Ratidza	-9208
▁Trading	-9209
▁garandi	-9210
▁kuchena	-9211
▁kukwana	-9212
▁mabhiza	-9213
▁mutongi	-9214
▁ndakaku	-9215
▁nehanya	-9216
▁netsoka	-9217
▁senzira	-9218
rongedzwa	-9219
▁Comments	-9220
▁Jonatani	-9221
▁Masteron	-9222
▁dhizaini	-9223
▁dzevanhu	-9224
▁inofamba	-9225
▁kudhinda	-9226
mburumbira	-9227
▁Machinery	-9228
▁kwehutano	-9229
▁pahuwandu	-9230
▁sezvavaka	-9231
▁kwakakwana	-9232
▁nemagariro	-9233
▁vashandisi	-9234
▁chinofanira	-9235
nokukurumidza	-9236
▁navaIsiraeri	-9237
▁zvokuyananisa	-9238
Fe	-9239
Hz	-9240
KO	-9241
gam	-9242
jia	-9243
uml	-9244
▁(7	-9245
▁65	-9246
▁mw	-9247
ariu	-9248
doma	-9249
mato	-9250
tata	-9251
▁!!!	-9252
▁''(	-9253
▁1.5	-9254
▁2.5	-9255
▁20%	-9256
▁30%	-9257
▁ANO	-9258
▁Bin	-9259
▁Hat	-9260
▁Hwe	-9261
▁KUN	-9262
▁cat	-9263
▁pri	-9264
▁thi	-9265
▁way	-9266
▁weB	-9267
▁yaM	-9268
Zvita	-9269
ganho	-9270
pandu	-9271
redhi	-9272
tsApp	-9273
ukira	-9274
wenga	-9275
▁Sign	-9276
▁Tool	-9277
▁aida	-9278
▁bepa	-9279
▁fore	-9280
▁plan	-9281
▁zasi	-9282
Chechi	-9283
ctoria	-9284
▁Akava	-9285
▁Honda	-9286
▁Muzvi	-9287
▁azere	-9288
▁neiko	-9289
munyika	-9290
unogona	-9291
▁Chechi	-9292
▁VaDigo	-9293
▁ZVIMWE	-9294
▁korona	-9295
▁miromo	-9296
▁shungu	-9297
▁tsaona	-9298
Karadhea	-9299
mhanyira	-9300
partment	-9301
yaradzwa	-9302
▁Station	-9303
▁Swahili	-9304
▁inobata	-9305
▁kabhoni	-9306
▁muchiti	-9307
▁mugomba	-9308
▁nekuita	-9309
▁pashoko	-9310
▁yeBantu	-9311
akarurama	-9312
▁Nightclu	-9313
▁Pakarepo	-9314
▁dzavanhu	-9315
▁kukudzwa	-9316
▁marwadzo	-9317
▁mumazuva	-9318
▁ndisinga	-9319
▁nenzombe	-9320
▁parwendo	-9321
▁pokugara	-9322
▁yamakomo	-9323
nemakumima	-9324
▁WordPress	-9325
▁vakataura	-9326
▁vechidiki	-9327
▁zvitsvene	-9328
▁reChishona	-9329
▁zvinofadza	-9330
▁denderedzwa	-9331
▁wechizanane	-9332
▁chinoshamisa	-9333
3)	-9334
CC	-9335
GE	-9336
dah	-9337
ffu	-9338
▁3)	-9339
▁7,	-9340
▁AS	-9341
kane	-9342
yani	-9343
▁Cal	-9344
▁Mal	-9345
▁naO	-9346
▁slo	-9347
Pauro	-9348
funge	-9349
garwa	-9350
mwoyo	-9351
okuru	-9352
yendi	-9353
yeuka	-9354
▁Mati	-9355
▁Rega	-9356
▁Step	-9357
▁Woku	-9358
▁food	-9359
Bhaari	-9360
isodzi	-9361
nesere	-9362
temera	-9363
▁dzina	-9364
▁murwi	-9365
▁muvhu	-9366
▁rucha	-9367
Efuremu	-9368
Genesis	-9369
yaradzo	-9370
▁Akaita	-9371
▁Thanks	-9372
▁Webcam	-9373
▁chaiko	-9374
▁hwechi	-9375
▁muchin	-9376
▁neboka	-9377
onhuwira	-9378
tsanurwa	-9379
▁account	-9380
▁akavata	-9381
▁chitubu	-9382
▁kurudzi	-9383
▁mumhepo	-9384
▁muvengi	-9385
▁nenguvo	-9386
▁wakazvi	-9387
gutsikana	-9388
yendisiti	-9389
▁Delivery	-9390
▁Pasirose	-9391
▁kukwikwi	-9392
▁kuzviita	-9393
▁namakore	-9394
▁yechando	-9395
▁zvaitika	-9396
▁akatarira	-9397
▁muchikamu	-9398
▁navaRevhi	-9399
▁nekambani	-9400
▁wakatanga	-9401
nepfumbamwe	-9402
tabhenakeri	-9403
vhiringidza	-9404
▁Kuvandudza	-9405
▁kuenzanisa	-9406
▁mumiririri	-9407
▁wakafanana	-9408
▁yekutsvaga	-9409
▁yakawedzera	-9410
▁zvokuvakisa	-9411
▁kwakavakirwa	-9412
2)	-9413
33	-9414
87	-9415
AR	-9416
Hi	-9417
kh	-9418
ats	-9419
bum	-9420
ctu	-9421
lyn	-9422
pes	-9423
▁4:	-9424
▁Ce	-9425
▁Op	-9426
▁TC	-9427
▁ms	-9428
gion	-9429
kwaz	-9430
lose	-9431
mics	-9432
mpty	-9433
ngwe	-9434
seji	-9435
wone	-9436
▁14.	-9437
▁194	-9438
▁Asa	-9439
▁CEO	-9440
▁Ehe	-9441
▁Gal	-9442
▁Lug	-9443
▁Ray	-9444
▁Tex	-9445
▁Tun	-9446
▁URL	-9447
▁Une	-9448
▁Uyo	-9449
▁flu	-9450
▁nge	-9451
▁ter	-9452
▁umu	-9453
Gadhi	-9454
dzamu	-9455
fudza	-9456
kidzi	-9457
mabwe	-9458
sites	-9459
▁2008	-9460
▁Isra	-9461
▁Moyo	-9462
▁Mutu	-9463
▁Sefa	-9464
▁adzo	-9465
▁area	-9466
▁kuwa	-9467
▁part	-9468
budise	-9469
dzorwa	-9470
jekiti	-9471
wisira	-9472
▁Stock	-9473
▁about	-9474
▁anomu	-9475
▁elect	-9476
▁ukuru	-9477
bhanoni	-9478
diridza	-9479
hanyira	-9480
neshanu	-9481
▁Golden	-9482
▁Kureba	-9483
▁huripo	-9484
▁kwaiva	-9485
▁muzita	-9486
▁ndidzo	-9487
▁nyanga	-9488
▁vachan	-9489
National	-9490
hurukuro	-9491
▁Control	-9492
▁akasika	-9493
▁dziripo	-9494
▁ichinzi	-9495
▁mokunge	-9496
▁muzinda	-9497
▁newaini	-9498
▁pambiru	-9499
▁wavanhu	-9500
unofanira	-9501
▁Aquarium	-9502
▁Medicine	-9503
▁bwaMwari	-9504
▁Jorodhani	-9505
▁haafaniri	-9506
▁inoyerera	-9507
▁kwemwedzi	-9508
▁madekwana	-9509
▁nevatengi	-9510
▁Trenbolone	-9511
▁chakakosha	-9512
▁kupararira	-9513
▁kusarudzwa	-9514
▁kwekutanga	-9515
▁valsiraeri	-9516
▁zvakadzama	-9517
▁Maodzanyemba	-9518
▁rwokugadzira	-9519
▁unoshandiswa	-9520
0,	-9521
TF	-9522
KOS	-9523
ase	-9524
fri	-9525
mia	-9526
vsk	-9527
▁1-	-9528
ashi	-9529
fini	-9530
giro	-9531
omba	-9532
peta	-9533
▁15.	-9534
▁Dar	-9535
▁Dol	-9536
▁Eli	-9537
▁Ori	-9538
▁VaH	-9539
▁ehu	-9540
▁mha	-9541
▁naP	-9542
▁neR	-9543
▁neb	-9544
▁rea	-9545
▁waZ	-9546
Siria	-9547
chiso	-9548
manje	-9549
merce	-9550
nenna	-9551
pfuta	-9552
reign	-9553
shuga	-9554
state	-9555
sunda	-9556
vince	-9557
wande	-9558
▁Inno	-9559
▁Meso	-9560
▁Muti	-9561
▁love	-9562
canner	-9563
chimbi	-9564
dengen	-9565
kurati	-9566
medura	-9567
rasika	-9568
ratini	-9569
tiriso	-9570
▁2018,	-9571
▁kwawo	-9572
▁rwava	-9573
▁table	-9574
▁waita	-9575
paridzi	-9576
pikirwa	-9577
ramiswa	-9578
▁Inzwai	-9579
▁Rental	-9580
▁kasino	-9581
▁mbatya	-9582
▁murefu	-9583
▁tikiti	-9584
▁zvombo	-9585
Gumiguru	-9586
Kubvumbi	-9587
endimita	-9588
lifornia	-9589
putsanya	-9590
▁Dzokera	-9591
▁akaiswa	-9592
▁haagoni	-9593
▁kunonzi	-9594
▁mijenya	-9595
▁mutorwa	-9596
▁nenyere	-9597
▁vakundi	-9598
angwanani	-9599
dziridzwa	-9600
netanhatu	-9601
▁SnapTube	-9602
▁Wireless	-9603
▁chiumbwa	-9604
▁dzisinga	-9605
▁kuvakafa	-9606
▁nemakore	-9607
▁pamusana	-9608
paradzirwa	-9609
▁chibayiro	-9610
▁namatanda	-9611
▁parizvino	-9612
▁vanotenda	-9613
▁Nightclubs	-9614
▁mahwendefa	-9615
▁zvemitambo	-9616
testosterone	-9617
▁Development	-9618
▁Netherlands	-9619
▁chiputiriso	-9620
▁rinokwanisa	-9621
▁zvishandiso	-9622
▁inodzivirira	-9623
▁wokutengesera	-9624
▁yekupedzisira	-9625
▁zvokugadzirwa	-9626
IA	-9627
xa	-9628
;''	-9629
AKU	-9630
ENT	-9631
ksi	-9632
tte	-9633
0.00	-9634
YAYA	-9635
cted	-9636
hafu	-9637
koni	-9638
rari	-9639
reat	-9640
sora	-9641
tava	-9642
well	-9643
wire	-9644
▁190	-9645
▁Hwa	-9646
▁Ken	-9647
▁Lou	-9648
▁Met	-9649
▁add	-9650
▁bwu	-9651
▁coo	-9652
▁eat	-9653
▁nee	-9654
▁vaM	-9655
svike	-9656
zinga	-9657
zonzi	-9658
▁Bvun	-9659
▁Lake	-9660
▁VANO	-9661
▁Yako	-9662
▁dzam	-9663
▁tive	-9664
▁weMu	-9665
▁woga	-9666
▁yeko	-9667
chekwa	-9668
rugare	-9669
tamisa	-9670
tering	-9671
thesis	-9672
tropic	-9673
unyoro	-9674
▁Cooki	-9675
▁Other	-9676
▁ekisi	-9677
▁hwemu	-9678
▁munga	-9679
▁utore	-9680
▁vaine	-9681
kwanisi	-9682
▁Mukati	-9683
▁dzakan	-9684
▁dzezvi	-9685
▁dzinza	-9686
▁kubika	-9687
▁kurege	-9688
▁kurota	-9689
▁kuvapo	-9690
▁mikuru	-9691
▁sikuru	-9692
▁vabati	-9693
ongorori	-9694
undation	-9695
▁Kinande	-9696
▁hydroch	-9697
▁mudumbu	-9698
▁puranga	-9699
▁vamambo	-9700
▁zvekuti	-9701
▁zvikoro	-9702
▁Dhanyeri	-9703
▁Mumakore	-9704
▁akafamba	-9705
▁asingadi	-9706
▁masvingo	-9707
▁mutsvuku	-9708
▁nitrogen	-9709
▁pakureba	-9710
▁pamakomo	-9711
▁paunenge	-9712
University	-9713
gadziridza	-9714
▁Zvirongwa	-9715
▁kuchikoro	-9716
▁nesirivha	-9717
▁Ministries	-9718
▁Ndinofunga	-9719
▁kushanduka	-9720
▁kuzvikudza	-9721
▁sezvandaka	-9722
▁kudzingiswa	-9723
▁kutengeserana	-9724
FF	-9725
ym	-9726
zz	-9727
HEA	-9728
INE	-9729
dri	-9730
lid	-9731
zia	-9732
▁3-	-9733
▁Zo	-9734
down	-9735
face	-9736
hiro	-9737
kemu	-9738
reen	-9739
sari	-9740
squo	-9741
tile	-9742
ziri	-9743
▁0.0	-9744
▁130	-9745
▁Mor	-9746
▁ODM	-9747
▁fla	-9748
▁imo	-9749
▁yeC	-9750
▁yeD	-9751
aneta	-9752
dyara	-9753
mhura	-9754
onera	-9755
puter	-9756
venox	-9757
▁Chat	-9758
▁Dare	-9759
▁Edza	-9760
▁Hama	-9761
▁Jera	-9762
▁Meya	-9763
▁aite	-9764
▁dare	-9765
▁long	-9766
▁mota	-9767
▁neka	-9768
▁Audio	-9769
▁Lenje	-9770
▁Mhepo	-9771
▁Skype	-9772
▁Usiku	-9773
▁kweJs	-9774
▁mhuru	-9775
▁mwene	-9776
▁nebwe	-9777
▁plant	-9778
▁using	-9779
Gunyana	-9780
Rubheni	-9781
dalafil	-9782
dzikisa	-9783
nenomwe	-9784
ngamiro	-9785
pedzisa	-9786
rayirwa	-9787
zikanwa	-9788
▁August	-9789
▁Mazita	-9790
▁Survey	-9791
▁kudana	-9792
▁kufema	-9793
▁unongo	-9794
ariussss	-9795
onakidza	-9796
zvisunga	-9797
▁Britain	-9798
▁Kikongo	-9799
▁Vatauri	-9800
▁chinoti	-9801
▁ramambo	-9802
▁yavanhu	-9803
▁WhatsApp	-9804
▁dzaMwari	-9805
▁kugovera	-9806
▁kumusika	-9807
▁ngochani	-9808
▁remitemo	-9809
▁rinorema	-9810
▁Executive	-9811
▁Tinotenda	-9812
▁Zvidzidzo	-9813
▁dzinogara	-9814
▁dzokudenga	-9815
▁vanofarira	-9816
▁yeChiBantu	-9817
▁kuMabvazuva	-9818
▁kugadzikana	-9819
▁kwechirwere	-9820
▁yakawanikwa	-9821
▁yepakutanga	-9822
▁zvakanakira	-9823
zvematongerwo	-9824
▁kunonyanyisa	-9825
▁wemizambiringa	-9826
Ni	-9827
als	-9828
tru	-9829
▁ND	-9830
▁PS	-9831
▁XL	-9832
body	-9833
cord	-9834
cuum	-9835
feri	-9836
goge	-9837
jing	-9838
pain	-9839
rare	-9840
vate	-9841
wood	-9842
zulu	-9843
▁(19	-9844
▁50%	-9845
▁Kud	-9846
▁nea	-9847
▁pfa	-9848
amani	-9849
batso	-9850
inary	-9851
itisa	-9852
kohwa	-9853
penga	-9854
proof	-9855
sumbu	-9856
wanga	-9857
▁Mate	-9858
▁Open	-9859
▁Pama	-9860
▁Puro	-9861
▁Semi	-9862
▁Uchi	-9863
▁iPad	-9864
▁moku	-9865
▁naMa	-9866
▁pepa	-9867
▁than	-9868
enduru	-9869
guruva	-9870
▁Brian	-9871
▁Grace	-9872
▁Ruoko	-9873
▁Speed	-9874
▁Ultra	-9875
▁Zvese	-9876
▁black	-9877
▁bonde	-9878
▁ngari	-9879
▁paano	-9880
▁raShe	-9881
▁rwuri	-9882
▁waaka	-9883
takurwa	-9884
varaira	-9885
vigirwa	-9886
zvenhau	-9887
▁Market	-9888
▁akambo	-9889
▁chaiva	-9890
▁chinji	-9891
berekera	-9892
mbongoro	-9893
sungirwa	-9894
vhunduka	-9895
▁African	-9896
▁Kutaura	-9897
▁October	-9898
▁munyoro	-9899
▁remvura	-9900
▁yekuita	-9901
vhenekera	-9902
▁February	-9903
▁Motokari	-9904
▁Yakakura	-9905
▁ndikaona	-9906
▁zvokwadi	-9907
ariussssss	-9908
dengenyeka	-9909
▁Enanthate	-9910
▁Kugadzira	-9911
▁kuyambuka	-9912
▁wakataura	-9913
▁Mudzidzisi	-9914
▁Washington	-9915
▁kukanganwa	-9916
▁yakaenzana	-9917
▁kurangarira	-9918
▁nehurumende	-9919
▁yekugadzirisa	-9920
")	-9921
55	-9922
="	-9923
AE	-9924
Lo	-9925
Com	-9926
MBA	-9927
ORO	-9928
flu	-9929
ild	-9930
kha	-9931
pia	-9932
▁GB	-9933
cean	-9934
mula	-9935
ranu	-9936
rown	-9937
vern	-9938
▁Kil	-9939
▁Mbo	-9940
▁Nat	-9941
▁Pra	-9942
▁swa	-9943
▁waH	-9944
▁weM	-9945
Ndino	-9946
cheme	-9947
dongo	-9948
fungo	-9949
itary	-9950
rodha	-9951
tance	-9952
wiswa	-9953
zvera	-9954
zvita	-9955
▁Arts	-9956
▁Gara	-9957
▁Rine	-9958
▁chip	-9959
▁goro	-9960
▁yoga	-9961
bhodhi	-9962
dzimwe	-9963
kukutu	-9964
netatu	-9965
roorwa	-9966
ruzivo	-9967
zvidza	-9968
▁Chiri	-9969
▁Embed	-9970
▁apera	-9971
▁bhazi	-9972
▁chits	-9973
▁inoku	-9974
▁kwese	-9975
▁mabvi	-9976
▁raaka	-9977
▁zvave	-9978
bhuramu	-9979
manomwe	-9980
tadzira	-9981
verengi	-9982
▁Martin	-9983
▁PayPal	-9984
▁Social	-9985
▁Supply	-9986
▁Tariro	-9987
▁hakusi	-9988
▁uchiti	-9989
oldenone	-9990
siyanisa	-9991
▁Charter	-9992
▁VaGungu	-9993
▁panyama	-9994
▁vakaona	-9995
▁vakunda	-9996
▁vehondo	-9997
▁zvingwa	-9998
shambidza	-9999
taridzika	-10000
zvimirira	-10001
▁Indaneti	-10002
▁Makumima	-10003
▁akakunda	-10004
▁akasimba	-10005
▁chinenge	-10006
▁mbongoro	-10007
▁patafura	-10008
▁steroids	-10009
▁yekurapa	-10010
makemikari	-10011
▁Vagadziri	-10012
▁hunyanzvi	-10013
▁nemidziyo	-10014
▁vakakwira	-10015
▁zvedzidzo	-10016
kurasikirwa	-10017
▁Nandrolone	-10018
▁okutengesa	-10019
▁Dariussssss	-10020
▁Kurasikirwa	-10021
▁akamutevera	-10022
▁yakavimbika	-10023
▁Semuenzaniso	-10024
▁mubatanidzwa	-10025
▁yekushandisa	-10026
▁zvinowedzera	-10027
▁nekugadzirisa	-10028
▁vanozivikanwa	-10029
▁wemakumimairi	-10030
▁Zvichienderana	-10031
▁madhipatimendi	-10032
Do	-10033
ENE	-10034
FAN	-10035
dic	-10036
mis	-10037
oul	-10038
tom	-10039
ugh	-10040
▁Vo	-10041
▁Xi	-10042
▁Yu	-10043
WANG	-10044
dzwi	-10045
kout	-10046
loro	-10047
muni	-10048
onye	-10049
peti	-10050
suma	-10051
zino	-10052
▁0.1	-10053
▁===	-10054
▁Bhu	-10055
▁Lus	-10056
▁Nhu	-10057
▁enz	-10058
▁fre	-10059
▁reZ	-10060
▁wit	-10061
Amori	-10062
akisi	-10063
amuka	-10064
ander	-10065
bviri	-10066
cover	-10067
dhiso	-10068
dhiya	-10069
rubhi	-10070
tegra	-10071
▁Dana	-10072
▁Jeri	-10073
▁away	-10074
▁flat	-10075
▁meta	-10076
▁paro	-10077
ambiri	-10078
tendwa	-10079
tsanga	-10080
verter	-10081
wanira	-10082
▁River	-10083
▁Vachi	-10084
▁chawo	-10085
▁large	-10086
▁pevhu	-10087
▁rezvi	-10088
▁vaita	-10089
▁video	-10090
panyika	-10091
▁Kubata	-10092
▁Kuvaka	-10093
▁Memory	-10094
▁deposi	-10095
▁inzira	-10096
▁kutapu	-10097
▁kwaaka	-10098
▁mitoro	-10099
▁okunze	-10100
▁pajira	-10101
▁rezuva	-10102
▁vakapa	-10103
▁yatino	-10104
▁yemari	-10105
gumburwa	-10106
teritori	-10107
▁Charles	-10108
▁Chirevo	-10109
▁Kusvika	-10110
▁Pasinei	-10111
▁Western	-10112
▁achiona	-10113
▁chifuki	-10114
▁control	-10115
▁fashoni	-10116
▁kufadza	-10117
▁kwaJesu	-10118
▁mumusha	-10119
▁pamusha	-10120
▁redunhu	-10121
▁through	-10122
▁vaigona	-10123
komborero	-10124
▁Security	-10125
▁Zviitiko	-10126
▁akapfuma	-10127
▁anosvika	-10128
▁dzakaita	-10129
▁hazvinga	-10130
▁kuenzana	-10131
▁nenyasha	-10132
▁tinoziva	-10133
furidzirwa	-10134
yamavhuvhu	-10135
▁yenzvimbo	-10136
▁zvemukati	-10137
▁hwakawanda	-10138
▁inotsigira	-10139
▁zvikumbiro	-10140
▁Yunivhesiti	-10141
▁Zvinotevera	-10142
▁inotonhorera	-10143
▁zvakaisvonaka	-10144
▁yemizambiringa	-10145
▁yekuchengetedza	-10146
CK	-10147
HP	-10148
-50	-10149
bic	-10150
imi	-10151
mor	-10152
mum	-10153
▁$4	-10154
▁RO	-10155
▁cu	-10156
Yaka	-10157
anti	-10158
bank	-10159
ency	-10160
fumi	-10161
itei	-10162
liam	-10163
phic	-10164
pofu	-10165
pose	-10166
pple	-10167
riso	-10168
tent	-10169
vest	-10170
ways	-10171
▁29,	-10172
▁ATM	-10173
▁Set	-10174
▁Sum	-10175
▁UNO	-10176
▁VaF	-10177
▁ape	-10178
▁bhu	-10179
▁tur	-10180
kanwe	-10181
olone	-10182
razil	-10183
renzi	-10184
▁Aids	-10185
▁Book	-10186
▁Kuda	-10187
▁Part	-10188
▁Tour	-10189
▁fosi	-10190
▁manu	-10191
▁rela	-10192
budiri	-10193
dhiani	-10194
gumira	-10195
hemian	-10196
lution	-10197
pisira	-10198
▁Ameni	-10199
▁Baila	-10200
▁Bhara	-10201
▁Credi	-10202
▁Ndiro	-10203
▁Smart	-10204
▁donje	-10205
▁haazi	-10206
▁nyora	-10207
▁rsquo	-10208
▁rwema	-10209
EMAHARA	-10210
dzorera	-10211
pfaidzo	-10212
resheni	-10213
▁Mavara	-10214
▁Server	-10215
▁Square	-10216
▁husiku	-10217
▁kugeza	-10218
▁kuudza	-10219
▁kuvuya	-10220
▁nevano	-10221
zvinyima	-10222
▁Francis	-10223
▁Muchena	-10224
▁chaicho	-10225
▁nechoku	-10226
▁zvawaka	-10227
dzingiswa	-10228
▁Detector	-10229
▁Websites	-10230
▁androgen	-10231
▁bookmake	-10232
▁kukuvara	-10233
▁vatariri	-10234
▁wakaiswa	-10235
▁zvekudya	-10236
▁Ichokwadi	-10237
▁kuburitsa	-10238
▁kuvimbika	-10239
▁vaifanira	-10240
▁zvakazara	-10241
▁anoshamisa	-10242
▁kuenderera	-10243
▁nehurongwa	-10244
▁nokubwinya	-10245
▁rinofanira	-10246
▁rweUkraine	-10247
▁Kugadzirisa	-10248
▁akachenjera	-10249
▁nemigumisiro	-10250
▁papuratifomu	-10251
▁somuenzaniso	-10252
▁zvibvumirano	-10253
4)	-10254
.''	-10255
IDS	-10256
Mun	-10257
bot	-10258
cum	-10259
lix	-10260
▁9,	-10261
▁Ox	-10262
▁SP	-10263
auti	-10264
dika	-10265
gine	-10266
gree	-10267
hena	-10268
inde	-10269
inia	-10270
sten	-10271
tsvo	-10272
▁Iro	-10273
▁Low	-10274
▁Vir	-10275
▁mbo	-10276
▁neI	-10277
▁paT	-10278
▁pay	-10279
▁twa	-10280
▁weT	-10281
▁yeE	-10282
choto	-10283
oneki	-10284
shoro	-10285
sotho	-10286
tasvi	-10287
▁1500	-10288
▁Easy	-10289
▁Itai	-10290
▁Love	-10291
▁Maku	-10292
▁feni	-10293
▁like	-10294
▁modu	-10295
▁vasa	-10296
dhadhi	-10297
pfunga	-10298
rivacy	-10299
▁Board	-10300
▁Chete	-10301
▁Jobho	-10302
▁Mhoro	-10303
▁Money	-10304
▁Small	-10305
▁chayo	-10306
▁conne	-10307
▁embed	-10308
▁gonyo	-10309
▁ndere	-10310
Ndebele	-10311
estival	-10312
omerera	-10313
ridzira	-10314
rovedza	-10315
viriswa	-10316
yorerwo	-10317
zwisisi	-10318
▁Bvudzi	-10319
▁Change	-10320
▁Dzimba	-10321
▁Yuropu	-10322
▁anoona	-10323
▁kutema	-10324
▁maduku	-10325
▁muzive	-10326
▁reimba	-10327
▁unobva	-10328
▁zvaiva	-10329
tateguru	-10330
▁Bhahari	-10331
▁Chikuru	-10332
▁Profile	-10333
▁Rikoooo	-10334
▁namaoko	-10335
▁nemhuka	-10336
▁padenga	-10337
▁vupenyu	-10338
▁Kutumira	-10339
▁akauraya	-10340
▁kwavanhu	-10341
▁mudonzvo	-10342
▁okutanga	-10343
▁pagungwa	-10344
▁richibva	-10345
▁Automatic	-10346
▁Hurumende	-10347
▁bvumidzwa	-10348
▁yehupenyu	-10349
▁Holmbygden	-10350
▁akagadzira	-10351
▁ichangobva	-10352
▁mainjiniya	-10353
▁mugumisiro	-10354
▁yakabatana	-10355
▁dzinopfuura	-10356
▁pachihofisi	-10357
▁dzokubhejera	-10358
▁makirogiramu	-10359
▁dzinongoitika	-10360
▁kuyunivhesiti	-10361
":	-10362
EL	-10363
GB	-10364
EMO	-10365
tau	-10366
uke	-10367
vic	-10368
▁DJ	-10369
band	-10370
cell	-10371
cond	-10372
disa	-10373
hosi	-10374
indu	-10375
kete	-10376
lers	-10377
rick	-10378
rish	-10379
vent	-10380
▁20.	-10381
▁Bir	-10382
▁Can	-10383
▁Cut	-10384
▁Dan	-10385
▁Pas	-10386
▁Pet	-10387
▁Sil	-10388
▁UCL	-10389
▁cli	-10390
▁neZ	-10391
▁weE	-10392
▁yeK	-10393
World	-10394
andan	-10395
geria	-10396
homba	-10397
judha	-10398
kondo	-10399
onaya	-10400
udzai	-10401
zirwa	-10402
zodza	-10403
▁CHIK	-10404
▁Chib	-10405
▁Food	-10406
▁Foot	-10407
▁From	-10408
▁Hong	-10409
▁Kamu	-10410
▁Timo	-10411
▁Work	-10412
▁YAKA	-10413
▁good	-10414
▁nero	-10415
▁pabu	-10416
akange	-10417
ancial	-10418
dzikin	-10419
gumisa	-10420
isheni	-10421
rinani	-10422
▁Child	-10423
▁Codes	-10424
▁Dunhu	-10425
▁Pinda	-10426
▁Price	-10427
▁Sarah	-10428
▁Usati	-10429
▁bhiza	-10430
▁fungi	-10431
▁hwayo	-10432
▁intra	-10433
▁katsi	-10434
▁kuipa	-10435
▁metro	-10436
▁pairi	-10437
manyika	-10438
shikana	-10439
▁Nhengo	-10440
▁Nyanja	-10441
▁Satani	-10442
▁hurefu	-10443
▁kutsva	-10444
▁madiki	-10445
▁mubasa	-10446
▁muboka	-10447
▁musina	-10448
▁nemiti	-10449
▁peCGMP	-10450
▁simuka	-10451
akandira	-10452
▁Cookies	-10453
▁January	-10454
▁Kukosha	-10455
▁Phlizon	-10456
▁Sangano	-10457
▁Swedish	-10458
▁VaVenda	-10459
Mupumburu	-10460
ishandise	-10461
▁Paunenge	-10462
▁VaHerero	-10463
▁chitsuwa	-10464
▁makamuri	-10465
▁mapurisa	-10466
▁neshungu	-10467
▁yomukati	-10468
▁kukuvadza	-10469
▁muchawana	-10470
▁nendarira	-10471
▁pachikuva	-10472
▁receptors	-10473
▁zvaakaita	-10474
▁Inowanikwa	-10475
▁akasangana	-10476
▁kuChirungu	-10477
▁nechirwere	-10478
▁pfapfaidzo	-10479
▁yepamutemo	-10480
▁zvakashata	-10481
▁zvendarama	-10482
tambanudzira	-10483
▁kwakafanana	-10484
▁yokupedzisira	-10485
▁kuMaodzanyemba	-10486
▁nokurondedzerwa	-10487
:2	-10488
GS	-10489
IG	-10490
RS	-10491
bur	-10492
cri	-10493
dge	-10494
die	-10495
huh	-10496
jai	-10497
kes	-10498
nit	-10499
pus	-10500
zza	-10501
▁EU	-10502
ITWA	-10503
anza	-10504
ched	-10505
endo	-10506
ense	-10507
lery	-10508
life	-10509
lion	-10510
phan	-10511
pire	-10512
royi	-10513
stro	-10514
wuto	-10515
xury	-10516
ziro	-10517
▁000	-10518
▁11,	-10519
▁700	-10520
▁Mas	-10521
▁Mup	-10522
▁kuw	-10523
▁mad	-10524
▁nep	-10525
▁paM	-10526
▁put	-10527
▁reE	-10528
▁yaA	-10529
akiro	-10530
bhasi	-10531
demba	-10532
ineri	-10533
lable	-10534
leeve	-10535
mbowo	-10536
onald	-10537
renji	-10538
sirwa	-10539
trans	-10540
▁Chen	-10541
▁Dura	-10542
▁Kusa	-10543
▁Pira	-10544
▁Port	-10545
▁ZUVA	-10546
▁baya	-10547
▁masi	-10548
▁mupe	-10549
▁muse	-10550
▁nepo	-10551
▁pame	-10552
▁same	-10553
ambara	-10554
kereke	-10555
rative	-10556
▁Color	-10557
▁Links	-10558
▁chief	-10559
▁irege	-10560
▁nemba	-10561
▁small	-10562
daidzwa	-10563
▁Castle	-10564
▁Easter	-10565
▁League	-10566
▁Valent	-10567
▁kamuri	-10568
▁matavi	-10569
▁miriwo	-10570
▁neguta	-10571
▁nemira	-10572
▁pasuru	-10573
▁tsanga	-10574
amagetsi	-10575
kurirana	-10576
▁Vashona	-10577
▁achango	-10578
▁akakura	-10579
▁hupfumi	-10580
▁ichibva	-10581
▁kusango	-10582
▁kutsiva	-10583
▁musango	-10584
▁nyowani	-10585
▁rubatso	-10586
▁sandara	-10587
▁vakaisa	-10588
▁yenguva	-10589
bhoritari	-10590
▁Coinbase	-10591
▁kubhadha	-10592
▁kuputika	-10593
▁mahwindo	-10594
▁mumusika	-10595
▁nezvinon	-10596
▁pamabasa	-10597
▁ruponeso	-10598
▁vanoenda	-10599
▁yezvinhu	-10600
▁Parizvino	-10601
▁batanidza	-10602
▁dzokugara	-10603
▁mumatunhu	-10604
▁mutembere	-10605
▁yendarama	-10606
Mwanakomana	-10607
▁Munyaradzi	-10608
▁unokwanisa	-10609
▁wechinomwe	-10610
▁nekuwedzera	-10611
▁inokurudzira	-10612
▁rwamabvazuva	-10613
▁yepaIndaneti	-10614
▁chakanakisisa	-10615
▁zvokushandisa	-10616
▁wemazanamatatu	-10617
▁zvakagadzirirwa	-10618
74	-10619
89	-10620
Ad	-10621
Da	-10622
PF	-10623
bar	-10624
bio	-10625
cin	-10626
kok	-10627
mat	-10628
mei	-10629
rug	-10630
sey	-10631
ski	-10632
unu	-10633
▁33	-10634
▁64	-10635
▁Cu	-10636
▁ST	-10637
amun	-10638
gova	-10639
hong	-10640
hood	-10641
huni	-10642
pion	-10643
reke	-10644
ston	-10645
tana	-10646
tant	-10647
than	-10648
▁Act	-10649
▁Lit	-10650
▁Phi	-10651
▁Psy	-10652
▁Sub	-10653
▁glu	-10654
▁kuI	-10655
▁neF	-10656
bindu	-10657
chard	-10658
dehwe	-10659
gonyo	-10660
hengi	-10661
mhepo	-10662
pende	-10663
penzi	-10664
pfuri	-10665
yedza	-10666
▁Plan	-10667
▁Wood	-10668
▁file	-10669
▁site	-10670
Josefa	-10671
amende	-10672
dhakwa	-10673
ererai	-10674
ffuser	-10675
foroma	-10676
ganisa	-10677
pfuuri	-10678
shingi	-10679
tsvaki	-10680
zimusi	-10681
zuvano	-10682
▁confi	-10683
▁hwuno	-10684
▁naivo	-10685
▁pache	-10686
▁paiva	-10687
chidiki	-10688
ersonal	-10689
izvozvi	-10690
vhurika	-10691
▁Middle	-10692
▁Pasina	-10693
▁chiuno	-10694
▁kurara	-10695
▁kurira	-10696
▁napama	-10697
▁nemaka	-10698
▁things	-10699
▁vakaku	-10700
budirire	-10701
kambaira	-10702
mberedza	-10703
▁Kubvira	-10704
▁Kutenga	-10705
▁Tawanda	-10706
▁kunhivi	-10707
▁kwebasa	-10708
▁kwemari	-10709
▁mavambo	-10710
▁nemombe	-10711
▁netambo	-10712
▁nousiku	-10713
▁vaigara	-10714
▁vanondi	-10715
tendeseka	-10716
yenzaniso	-10717
zvokurapa	-10718
▁Ndakanga	-10719
▁Shandong	-10720
▁chinoita	-10721
▁kutarira	-10722
▁mumatope	-10723
▁vateveri	-10724
▁Electroni	-10725
▁Technical	-10726
▁anonyanya	-10727
▁inobereka	-10728
▁kunotenga	-10729
▁vanosvika	-10730
▁chechipiri	-10731
▁Manufacture	-10732
▁kutevedzera	-10733
▁zvokutemera	-10734
▁mazambiringa	-10735
▁namadzimambo	-10736
▁ngaakuitirei	-10737
▁dzevakurukuri	-10738
▁vatungamiriri	-10739
▁zananemakumima	-10740
:1	-10741
NS	-10742
Ng	-10743
RX	-10744
”,	-10745
-15	-10746
DZO	-10747
Dzi	-10748
hle	-10749
iwa	-10750
mwi	-10751
rro	-10752
▁55	-10753
▁AN	-10754
▁ON	-10755
WANI	-10756
amin	-10757
date	-10758
jeti	-10759
kate	-10760
kaya	-10761
ming	-10762
ners	-10763
roji	-10764
tels	-10765
▁Geo	-10766
▁Mis	-10767
▁Sch	-10768
▁Wid	-10769
▁him	-10770
▁paG	-10771
amino	-10772
angho	-10773
dzina	-10774
hanga	-10775
kondi	-10776
pfava	-10777
rango	-10778
shera	-10779
uropi	-10780
zerwa	-10781
▁Bern	-10782
▁Fast	-10783
▁Maga	-10784
▁Pana	-10785
▁Pipe	-10786
▁Simu	-10787
▁Tips	-10788
▁Uyai	-10789
▁crea	-10790
▁muMa	-10791
▁naJe	-10792
▁star	-10793
▁uhwu	-10794
anding	-10795
mental	-10796
panish	-10797
rurimi	-10798
tsinye	-10799
tsvuka	-10800
turiki	-10801
ziyamu	-10802
zodzwa	-10803
▁Brand	-10804
▁Dzino	-10805
▁Hotel	-10806
▁mugwa	-10807
▁nendi	-10808
▁vacho	-10809
▁yekun	-10810
gadzire	-10811
mirates	-10812
mitauro	-10813
onaland	-10814
zarurwa	-10815
▁Studio	-10816
▁imhuka	-10817
▁kumuka	-10818
▁mhizha	-10819
▁ngaave	-10820
▁nokusa	-10821
▁yamaka	-10822
▁yegore	-10823
akwayana	-10824
shandise	-10825
▁Nokumwe	-10826
▁akawira	-10827
▁inokura	-10828
▁kweropa	-10829
▁murwere	-10830
▁ranhasi	-10831
▁rutsoka	-10832
▁tisinga	-10833
▁unogara	-10834
▁wemhuka	-10835
andakanga	-10836
hunyanzvi	-10837
rambidzwa	-10838
tsaurirwa	-10839
▁Nakidzwa	-10840
▁Thailand	-10841
▁kufanira	-10842
▁kunodiwa	-10843
▁mubhedha	-10844
▁vakamira	-10845
▁yeKenani	-10846
▁zvirimwa	-10847
▁zvishanu	-10848
▁Equipment	-10849
▁achifamba	-10850
▁dzinogona	-10851
▁inopfuura	-10852
▁mumutambo	-10853
▁musimboti	-10854
▁rakasimba	-10855
▁Foundation	-10856
▁Munofanira	-10857
▁inokonzera	-10858
▁inotodzana	-10859
▁kuMadokero	-10860
▁madhigirii	-10861
▁rakafanana	-10862
▁Description	-10863
▁nekugadzira	-10864
chengetedzeka	-10865
▁chokufambisa	-10866
▁pakatarisana	-10867
▁wokupedzisira	-10868
▁kukurukurirana	-10869
,,	-10870
Pu	-10871
And	-10872
akh	-10873
ths	-10874
twe	-10875
wel	-10876
yes	-10877
▁$8	-10878
▁06	-10879
▁1/	-10880
▁99	-10881
▁CF	-10882
▁TA	-10883
''';	-10884
ants	-10885
iita	-10886
male	-10887
▁24.	-10888
▁nor	-10889
▁reB	-10890
▁tai	-10891
▁weZ	-10892
KOSHA	-10893
anzwi	-10894
chisi	-10895
gomba	-10896
holic	-10897
▁Fire	-10898
▁Grey	-10899
▁Ropa	-10900
▁Stra	-10901
▁Yese	-10902
▁dutu	-10903
▁nesh	-10904
▁tech	-10905
Giriki	-10906
akanda	-10907
ambezi	-10908
bhangi	-10909
chelor	-10910
stance	-10911
undira	-10912
weight	-10913
▁Guide	-10914
▁Nezve	-10915
▁achis	-10916
▁acids	-10917
▁aende	-10918
▁chiga	-10919
▁first	-10920
▁fruit	-10921
▁kukwi	-10922
▁misha	-10923
▁naEri	-10924
▁tipei	-10925
▁zvaro	-10926
America	-10927
akirasi	-10928
angango	-10929
dhirowa	-10930
ratidze	-10931
▁Cotton	-10932
▁Double	-10933
▁Kuenda	-10934
▁Upenyu	-10935
▁animal	-10936
▁inguva	-10937
▁maggot	-10938
▁majaya	-10939
▁mitezo	-10940
▁patsva	-10941
▁peimba	-10942
▁rainzi	-10943
▁rinova	-10944
▁rukoko	-10945
▁webasa	-10946
▁yakave	-10947
▁yasara	-10948
▁zvokun	-10949
WANGWANI	-10950
gondohwe	-10951
lization	-10952
rusvingo	-10953
▁Ravenox	-10954
▁Society	-10955
▁Tarisai	-10956
▁inhengo	-10957
▁kwezita	-10958
▁nemweya	-10959
▁panenge	-10960
▁piritsi	-10961
▁uchinge	-10962
▁wandaka	-10963
▁Ongorora	-10964
▁Password	-10965
▁Shamwari	-10966
▁Zvipfeko	-10967
▁achinzwa	-10968
▁anofamba	-10969
▁chivimbo	-10970
▁kutsauka	-10971
▁kuwanika	-10972
▁mabhanga	-10973
▁namabasa	-10974
▁rwakanga	-10975
makumimana	-10976
▁kuzadzisa	-10977
▁nenyanzvi	-10978
▁unobereka	-10979
▁vanowanzo	-10980
▁zvibayiro	-10981
▁akawedzera	-10982
▁inogadzira	-10983
▁kubatsirwa	-10984
▁muChishona	-10985
▁rakanyorwa	-10986
▁kushingaira	-10987
▁CHIKWANGWANI	-10988
▁humburumbira	-10989
▁vachibhejera	-10990
▁akabatanidzwa	-10991
▁hydrochloride	-10992
▁yekudzivirira	-10993
▁chinotenderera	-10994
▁kunosanganisira	-10995
64	-10996
fy	-10997
Air	-10998
cky	-10999
▁JH	-11000
Tech	-11001
YIKA	-11002
chel	-11003
dhia	-11004
dota	-11005
feve	-11006
fore	-11007
lala	-11008
lama	-11009
lour	-11010
room	-11011
teki	-11012
waya	-11013
▁220	-11014
▁70%	-11015
▁Bal	-11016
▁His	-11017
▁Law	-11018
▁VAN	-11019
▁naK	-11020
▁sol	-11021
▁sul	-11022
▁swe	-11023
▁una	-11024
▁uva	-11025
fungu	-11026
habvu	-11027
iling	-11028
shuva	-11029
ylene	-11030
▁Hero	-11031
▁IZVO	-11032
▁WiFi	-11033
▁buri	-11034
▁furo	-11035
▁home	-11036
▁kong	-11037
▁kweT	-11038
▁waMa	-11039
▁well	-11040
▁wire	-11041
hambwe	-11042
licone	-11043
manuel	-11044
ngland	-11045
yerere	-11046
zukuru	-11047
▁About	-11048
▁Beach	-11049
▁Bless	-11050
▁Prote	-11051
▁Tanga	-11052
▁gwara	-11053
▁kutsi	-11054
▁mauto	-11055
▁ndezv	-11056
▁rwomu	-11057
autiful	-11058
bhurari	-11059
inopasi	-11060
reazari	-11061
rindira	-11062
yunyuta	-11063
▁Akanga	-11064
▁Energy	-11065
▁Ezhiya	-11066
▁Samuel	-11067
▁VaLozi	-11068
▁Vacuum	-11069
▁achiva	-11070
▁dzinde	-11071
▁faibha	-11072
▁hutsva	-11073
▁kurema	-11074
▁masero	-11075
▁mother	-11076
▁mutswe	-11077
▁nefuma	-11078
▁nemoyo	-11079
▁paguta	-11080
▁tinopa	-11081
▁vamire	-11082
▁yavano	-11083
Midhiani	-11084
ongorore	-11085
ruramisa	-11086
▁Digital	-11087
▁Vatengi	-11088
▁anoitwa	-11089
▁cabinet	-11090
▁chapupu	-11091
▁inoenda	-11092
▁kudyiwa	-11093
▁kupenda	-11094
▁madziro	-11095
▁sokunge	-11096
▁uchaona	-11097
akanakisa	-11098
shonaland	-11099
▁Chirwere	-11100
▁Vasikana	-11101
▁chinobva	-11102
▁kutyaira	-11103
▁mukurapa	-11104
▁negungwa	-11105
▁nemabasa	-11106
▁pachinhu	-11107
▁pamakore	-11108
mavirazuva	-11109
ramangwana	-11110
▁Kubatsira	-11111
▁chinodiwa	-11112
▁inotaurwa	-11113
▁inowanika	-11114
▁muhupenyu	-11115
▁mumitambo	-11116
▁nokuchema	-11117
▁yechitatu	-11118
▁yekutenga	-11119
▁Commission	-11120
▁akadzokera	-11121
▁ehurumende	-11122
▁sezvakaita	-11123
▁vakanyorwa	-11124
▁vakasimuka	-11125
▁chishandiso	-11126
▁kusanganisa	-11127
▁nemasangano	-11128
▁kufungidzira	-11129
▁zvikanganiso	-11130
▁kumahombekombe	-11131
IU	-11132
PI	-11133
Ara	-11134
cca	-11135
dyu	-11136
ese	-11137
lad	-11138
pur	-11139
uts	-11140
▁(8	-11141
▁FT	-11142
bari	-11143
biki	-11144
fier	-11145
gest	-11146
puka	-11147
ssic	-11148
yats	-11149
zoku	-11150
▁(1)	-11151
▁19.	-11152
▁Bul	-11153
▁DZI	-11154
▁Eku	-11155
▁Eve	-11156
▁NDI	-11157
▁Tru	-11158
▁ere	-11159
▁lea	-11160
▁paR	-11161
▁shi	-11162
/2018	-11163
9.99€	-11164
Isaka	-11165
angle	-11166
dence	-11167
dzano	-11168
space	-11169
vhiya	-11170
vhuni	-11171
▁Acti	-11172
▁Masa	-11173
▁Muka	-11174
▁Over	-11175
▁Qing	-11176
▁Semu	-11177
▁VaMa	-11178
▁Week	-11179
▁kira	-11180
▁kopi	-11181
▁naka	-11182
▁paso	-11183
▁rich	-11184
▁roga	-11185
▁temp	-11186
▁walk	-11187
bolism	-11188
father	-11189
kwende	-11190
munity	-11191
panese	-11192
plural	-11193
terere	-11194
ternal	-11195
yamuro	-11196
▁Large	-11197
▁Manda	-11198
▁Style	-11199
▁after	-11200
▁ekuti	-11201
▁hongu	-11202
▁ibhii	-11203
▁pazvo	-11204
▁ugere	-11205
▁vaizo	-11206
▁vakak	-11207
Vashona	-11208
anirana	-11209
chetere	-11210
dhanilo	-11211
dziviri	-11212
edhekia	-11213
▁Kudzai	-11214
▁Mugabe	-11215
▁Museum	-11216
▁Office	-11217
▁Street	-11218
▁dosage	-11219
▁dzinga	-11220
▁harina	-11221
▁kweiyo	-11222
▁maneja	-11223
▁mwando	-11224
▁ndechi	-11225
▁ukomba	-11226
▁varimi	-11227
▁wakava	-11228
donhedza	-11229
pfekedza	-11230
teverera	-11231
▁Patrick	-11232
▁Privacy	-11233
▁VaGanda	-11234
▁kuraira	-11235
▁mazinga	-11236
▁musimba	-11237
▁mutsika	-11238
▁nemimwe	-11239
▁pakudya	-11240
▁ratidza	-11241
▁zvitema	-11242
dhinezari	-11243
▁Administ	-11244
▁Chivanhu	-11245
▁Currency	-11246
▁Ethereum	-11247
▁Japanese	-11248
▁Mutsvuku	-11249
▁akatasva	-11250
▁budiriro	-11251
▁kuderera	-11252
▁kurukura	-11253
▁mukamuri	-11254
▁namaguta	-11255
▁namakwai	-11256
▁nhanhatu	-11257
▁sezvaano	-11258
▁vedzimba	-11259
▁yakadaro	-11260
chisarudzo	-11261
purogiramu	-11262
▁Transposh	-11263
▁chisangan	-11264
▁muchimiro	-11265
▁mutorongo	-11266
▁netsvimbo	-11267
▁yakananga	-11268
dzitateguru	-11269
shandisirwo	-11270
zvirumbidza	-11271
zvishandisa	-11272
▁nezvipfuwo	-11273
▁nezvokwadi	-11274
▁paruzhinji	-11275
▁rwakapetwa	-11276
▁vakatevera	-11277
▁wemakumima	-11278
▁kuChamhembe	-11279
▁kunowedzera	-11280
▁muchinjikwa	-11281
▁vakapindura	-11282
▁zvikurukuru	-11283
▁akadanidzira	-11284
▁ekupedzisira	-11285
▁yakagadziriswa	-11286
▁yakakomberedzwa	-11287
cc	-11288
,''	-11289
600	-11290
gna	-11291
rds	-11292
rel	-11293
tas	-11294
von	-11295
▁47	-11296
▁MH	-11297
▁MP	-11298
▁RU	-11299
▁ny	-11300
Tari	-11301
adho	-11302
ason	-11303
card	-11304
etsa	-11305
gola	-11306
inya	-11307
isho	-11308
kona	-11309
lika	-11310
reri	-11311
thew	-11312
wose	-11313
zolo	-11314
zura	-11315
▁30,	-11316
▁Ahi	-11317
▁Avo	-11318
▁Hit	-11319
▁Oli	-11320
▁cut	-11321
▁key	-11322
▁neV	-11323
▁pai	-11324
▁pra	-11325
▁yeH	-11326
HANDI	-11327
ITIKA	-11328
amisa	-11329
cause	-11330
dande	-11331
gamba	-11332
itike	-11333
kumba	-11334
rashe	-11335
rista	-11336
sungo	-11337
tonda	-11338
uraye	-11339
vande	-11340
weden	-11341
▁Back	-11342
▁Head	-11343
▁days	-11344
▁mame	-11345
▁mato	-11346
▁nave	-11347
▁ruka	-11348
▁vemi	-11349
akango	-11350
ambiro	-11351
gering	-11352
inetso	-11353
mbirai	-11354
raidzo	-11355
redzwa	-11356
siteri	-11357
unoita	-11358
▁Earth	-11359
▁Marke	-11360
▁Pauno	-11361
▁Terms	-11362
▁Trust	-11363
▁avana	-11364
▁eimba	-11365
▁gomba	-11366
▁munin	-11367
▁mutsa	-11368
▁neuro	-11369
▁ramai	-11370
▁shuga	-11371
caserin	-11372
enjerai	-11373
gadzika	-11374
konzere	-11375
taridza	-11376
▁Argent	-11377
▁Centre	-11378
▁Chrome	-11379
▁Dzidzo	-11380
▁Motors	-11381
▁Shamba	-11382
▁Tsitsi	-11383
▁mukova	-11384
▁ndebvu	-11385
▁ndirwo	-11386
▁nokupa	-11387
▁parame	-11388
▁svondo	-11389
▁vachis	-11390
▁vavana	-11391
▁wababa	-11392
▁wegumi	-11393
▁wemari	-11394
iridzira	-11395
kanganwa	-11396
kurukota	-11397
simbaose	-11398
tsamwisa	-11399
urumende	-11400
wandirwa	-11401
▁Chamber	-11402
▁VaKongo	-11403
▁chikuva	-11404
▁chitupa	-11405
▁mitsara	-11406
▁pakurwa	-11407
▁pamambo	-11408
▁pangozi	-11409
▁umbozha	-11410
▁vachaku	-11411
▁wetende	-11412
dhudhudhu	-11413
kwanisika	-11414
zivikanwe	-11415
▁Abhuramu	-11416
▁chakadai	-11417
▁havagoni	-11418
▁mapapiro	-11419
▁nemakumi	-11420
▁pamaguta	-11421
▁rezinesi	-11422
rondedzero	-11423
▁Financial	-11424
▁aivigirwa	-11425
▁enanthate	-11426
▁inonyatso	-11427
▁kwakadaro	-11428
▁rinowanzo	-11429
▁vaIsraeri	-11430
▁vakafamba	-11431
▁vanofamba	-11432
▁yakakwira	-11433
▁zvarairwa	-11434
▁Abhimereki	-11435
▁Dambudziko	-11436
▁Production	-11437
▁mapurofesa	-11438
▁ndangariro	-11439
▁nemamiriro	-11440
▁rinotevera	-11441
▁zvikwereti	-11442
dandemutande	-11443
▁kusunungura	-11444
▁naDhavhidhi	-11445
▁vatungamiri	-11446
▁rokuongorora	-11447
▁vakachenjera	-11448
bhukadhinezari	-11449
▁yakasununguka	-11450
▁vanosanganisira	-11451
6)	-11452
RP	-11453
RT	-11454
Un	-11455
om	-11456
Con	-11457
Shi	-11458
ace	-11459
ail	-11460
dao	-11461
eds	-11462
ret	-11463
sic	-11464
tyl	-11465
▁RE	-11466
XBET	-11467
bani	-11468
gaba	-11469
gain	-11470
hera	-11471
hino	-11472
keti	-11473
mbeu	-11474
rian	-11475
ront	-11476
sian	-11477
some	-11478
tren	-11479
undo	-11480
▁(20	-11481
▁110	-11482
▁18.	-11483
▁Bag	-11484
▁HCL	-11485
▁Koo	-11486
▁MOQ	-11487
▁Sco	-11488
▁Vak	-11489
▁asa	-11490
▁mbi	-11491
▁new	-11492
▁weK	-11493
Dhani	-11494
brica	-11495
chazo	-11496
dheni	-11497
elect	-11498
erife	-11499
isana	-11500
lysis	-11501
minum	-11502
revei	-11503
rices	-11504
risti	-11505
runga	-11506
sters	-11507
vharo	-11508
zvaro	-11509
▁Here	-11510
▁Muma	-11511
▁VaGi	-11512
▁giya	-11513
▁godo	-11514
▁kufe	-11515
▁mama	-11516
▁mine	-11517
▁pawo	-11518
▁pole	-11519
▁rain	-11520
▁sero	-11521
angara	-11522
garisa	-11523
gwenzi	-11524
itirai	-11525
jekesa	-11526
jipita	-11527
jitari	-11528
phrine	-11529
vudzai	-11530
▁Faith	-11531
▁Idzva	-11532
▁Ndiko	-11533
▁Point	-11534
▁Thank	-11535
▁mundo	-11536
▁murau	-11537
▁nevhu	-11538
▁super	-11539
▁tsono	-11540
anagore	-11541
bration	-11542
kodzero	-11543
tsemuka	-11544
▁Malawi	-11545
▁Nekuda	-11546
▁Please	-11547
▁Sports	-11548
▁mbishi	-11549
▁mumoto	-11550
▁musana	-11551
▁risati	-11552
tsiridza	-11553
▁Kucheka	-11554
▁Muruoko	-11555
▁Program	-11556
▁Samsung	-11557
▁hadzina	-11558
▁kuvhura	-11559
▁mucheri	-11560
▁neSouth	-11561
▁peptide	-11562
▁renyika	-11563
▁vachimu	-11564
▁vasvika	-11565
amiriyoni	-11566
kurumidze	-11567
orcaserin	-11568
▁Language	-11569
▁migwagwa	-11570
▁muforoma	-11571
▁mumwedzi	-11572
▁receptor	-11573
▁unopinza	-11574
▁yegungwa	-11575
▁zvetsika	-11576
munication	-11577
sanangurwa	-11578
▁Haufaniri	-11579
▁Kurumidza	-11580
▁richireva	-11581
▁vachinzwa	-11582
▁yakasvika	-11583
chengeterwa	-11584
▁Department	-11585
▁kushandira	-11586
▁oparesheni	-11587
▁yakavambwa	-11588
▁Directorate	-11589
▁nechepakati	-11590
▁tinokwanisa	-11591
▁dzinowanikwa	-11592
▁kugamuchirwa	-11593
▁yakasimbiswa	-11594
▁nomufananidzo	-11595
5)	-11596
68	-11597
IF	-11598
SE	-11599
Ye	-11600
df	-11601
ön	-11602
-3-	-11603
250	-11604
anj	-11605
azi	-11606
cla	-11607
dit	-11608
lit	-11609
omi	-11610
▁02	-11611
▁44	-11612
▁FS	-11613
▁Ok	-11614
▁WE	-11615
▁id	-11616
HURI	-11617
RIRA	-11618
Wabo	-11619
hemu	-11620
ruma	-11621
tist	-11622
udzo	-11623
unzi	-11624
urse	-11625
utsi	-11626
▁189	-11627
▁Cam	-11628
▁Mub	-11629
▁Uku	-11630
▁bar	-11631
▁dhe	-11632
▁hea	-11633
▁maa	-11634
▁sin	-11635
▁uni	-11636
▁war	-11637
mpera	-11638
ringi	-11639
yiswa	-11640
▁Land	-11641
▁Ndin	-11642
▁game	-11643
▁kweA	-11644
▁wepa	-11645
akirwa	-11646
esango	-11647
perera	-11648
▁Conta	-11649
▁Musha	-11650
▁Ngava	-11651
▁Nyamu	-11652
▁Phone	-11653
▁Plane	-11654
▁Shiri	-11655
▁Times	-11656
▁Vimba	-11657
▁magne	-11658
▁unomu	-11659
ipisisa	-11660
ishanda	-11661
paradzi	-11662
shaikwa	-11663
tinhira	-11664
▁Erisha	-11665
▁Jizera	-11666
▁Pasika	-11667
▁Svondo	-11668
▁Tsvuku	-11669
▁achimu	-11670
▁conver	-11671
▁gather	-11672
▁kuneta	-11673
▁naBaba	-11674
▁nyanza	-11675
▁pamoto	-11676
▁vanopa	-11677
▁waJeho	-11678
aranyika	-11679
izvoizvo	-11680
rerekera	-11681
shimaeri	-11682
▁Certifi	-11683
▁England	-11684
▁Gamuchi	-11685
▁Huwandu	-11686
▁Italian	-11687
▁akaitwa	-11688
▁akasiya	-11689
▁kuchava	-11690
▁kunenge	-11691
▁kurenje	-11692
▁kuyeuka	-11693
▁makandi	-11694
▁mupanda	-11695
▁ndisina	-11696
▁rakaoma	-11697
▁traffic	-11698
▁wakabva	-11699
Hebhuroni	-11700
bhaibheri	-11701
▁Enterpri	-11702
▁Festival	-11703
▁Shanduro	-11704
▁Spectrum	-11705
▁Tenerife	-11706
▁akasikwa	-11707
▁maturusi	-11708
▁rwaMwari	-11709
▁zvinetso	-11710
▁zvivakwa	-11711
dhanilodha	-11712
▁Munopinda	-11713
▁chirukiso	-11714
▁sechikamu	-11715
akanganiswa	-11716
▁Chiratidzo	-11717
▁anowedzera	-11718
▁chitendero	-11719
▁hwakasimba	-11720
▁chakafanana	-11721
▁kuchengetwa	-11722
▁noushamwari	-11723
▁vasingagoni	-11724
▁chinoratidza	-11725
▁chisanganiso	-11726
▁kubatanidzwa	-11727
▁navapirisiti	-11728
▁navaporofita	-11729
▁vaBhenjamini	-11730
▁chokushandisa	-11731
DO	-11732
PO	-11733
-11	-11734
300	-11735
dal	-11736
llo	-11737
oth	-11738
svu	-11739
▁HB	-11740
▁HS	-11741
▁ji	-11742
ICMO	-11743
Mari	-11744
dern	-11745
haya	-11746
lima	-11747
umbu	-11748
utsa	-11749
yava	-11750
▁13.	-11751
▁15,	-11752
▁Ban	-11753
▁Boo	-11754
▁But	-11755
▁Fla	-11756
▁Lan	-11757
▁Tan	-11758
▁ain	-11759
▁ato	-11760
▁geo	-11761
▁kuL	-11762
▁two	-11763
▁win	-11764
ASraw	-11765
color	-11766
hongo	-11767
kwaka	-11768
llers	-11769
oxide	-11770
ranwa	-11771
tadzi	-11772
▁Info	-11773
▁Iron	-11774
▁Mapa	-11775
▁ambo	-11776
▁comm	-11777
▁kumb	-11778
▁pink	-11779
▁play	-11780
▁soro	-11781
▁undi	-11782
adhoki	-11783
bayiwa	-11784
okosha	-11785
soropo	-11786
titude	-11787
tsvake	-11788
tyaira	-11789
▁Akamu	-11790
▁Chiku	-11791
▁Itsva	-11792
▁Music	-11793
▁Nyore	-11794
▁Saint	-11795
▁Tenzi	-11796
▁fenzi	-11797
▁kukan	-11798
▁muche	-11799
▁ndava	-11800
▁ngaru	-11801
▁optic	-11802
▁ruchi	-11803
▁waano	-11804
▁yezve	-11805
akaroti	-11806
dzivisi	-11807
tsiviwa	-11808
umbirwo	-11809
▁Rwendo	-11810
▁Simoni	-11811
▁contro	-11812
▁gorofu	-11813
▁mugari	-11814
▁nenyun	-11815
▁uchiri	-11816
▁ufambe	-11817
▁unyoro	-11818
▁vakako	-11819
chadenga	-11820
chembera	-11821
tarisisa	-11822
▁Council	-11823
▁Kuronga	-11824
▁Marudzi	-11825
▁akamupa	-11826
▁kanenge	-11827
▁kongiri	-11828
▁mekudya	-11829
▁muhombe	-11830
▁pachedu	-11831
▁petsoka	-11832
▁redhiyo	-11833
▁waivako	-11834
▁yorudzi	-11835
▁zvisati	-11836
▁Chishanu	-11837
▁Kupfuura	-11838
▁Rinopasi	-11839
▁chengete	-11840
▁chovushe	-11841
▁kunamata	-11842
▁kuyaruka	-11843
▁munzanga	-11844
▁pemakore	-11845
▁pezvinhu	-11846
▁rwevanhu	-11847
▁uwedzere	-11848
▁wapfuura	-11849
▁Boldenone	-11850
▁Christian	-11851
▁kumatunhu	-11852
▁matarenda	-11853
▁ndinogona	-11854
▁akaratidza	-11855
▁dzinofamba	-11856
▁dzinokosha	-11857
▁mumigwagwa	-11858
▁yakatangwa	-11859
▁zvakakomba	-11860
▁Kudzivirira	-11861
▁nekutengesa	-11862
▁akagamuchira	-11863
▁pakutengeserana	-11864
%)	-11865
--	-11866
61	-11867
wl	-11868
▁@	-11869
IRI	-11870
MBO	-11871
bei	-11872
mid	-11873
rge	-11874
sol	-11875
tex	-11876
▁Mc	-11877
▁eS	-11878
▁zo	-11879
2000	-11880
bble	-11881
cast	-11882
engo	-11883
goku	-11884
hout	-11885
koto	-11886
rant	-11887
rush	-11888
scow	-11889
ubai	-11890
viet	-11891
view	-11892
▁(2)	-11893
▁13,	-11894
▁22.	-11895
▁25,	-11896
▁Blo	-11897
▁Cel	-11898
▁Hip	-11899
▁Joy	-11900
▁Led	-11901
▁NAS	-11902
▁VaW	-11903
▁ado	-11904
▁pho	-11905
▁reA	-11906
▁weG	-11907
CHARX	-11908
ONESA	-11909
amero	-11910
funda	-11911
ition	-11912
konde	-11913
mbisa	-11914
simbe	-11915
stein	-11916
tails	-11917
yadha	-11918
▁Baro	-11919
▁Care	-11920
▁Kore	-11921
▁Kwen	-11922
▁Mumu	-11923
▁Mute	-11924
▁Nemi	-11925
▁mepu	-11926
▁open	-11927
▁show	-11928
▁stra	-11929
angkok	-11930
bhedhi	-11931
dhizha	-11932
futari	-11933
itambo	-11934
pindwa	-11935
ritish	-11936
▁Cheku	-11937
▁Holms	-11938
▁Moses	-11939
▁Pachi	-11940
▁Portu	-11941
▁Press	-11942
▁Speci	-11943
▁Tread	-11944
▁chisi	-11945
▁fence	-11946
▁great	-11947
▁hucha	-11948
▁nashe	-11949
▁paBhe	-11950
▁slots	-11951
▁where	-11952
chindwe	-11953
inoroji	-11954
kwerete	-11955
poreswa	-11956
ranyika	-11957
zviziva	-11958
▁Public	-11959
▁Sangho	-11960
▁VaWabo	-11961
▁chairo	-11962
▁marefu	-11963
▁mikova	-11964
▁object	-11965
▁riripo	-11966
▁welded	-11967
currency	-11968
shambira	-11969
▁Browser	-11970
▁Gadzira	-11971
▁Mitauro	-11972
▁Zvikuru	-11973
▁anowana	-11974
▁chiripo	-11975
▁chiropa	-11976
▁muchida	-11977
▁muhomwe	-11978
▁mumwaka	-11979
▁rinhiko	-11980
gamuchire	-11981
▁Botswana	-11982
▁Chemical	-11983
▁Lighting	-11984
▁akachema	-11985
▁chengeta	-11986
▁chichava	-11987
▁children	-11988
▁kuzarura	-11989
▁mhangura	-11990
▁ndakazvi	-11991
▁ndomumwe	-11992
▁noupenyu	-11993
▁yeAfrika	-11994
▁yeupenyu	-11995
▁ZVINOGONA	-11996
▁chiziviso	-11997
▁inhibitor	-11998
▁kunoitika	-11999
▁pamutsipa	-12000
▁pearitari	-12001
▁vachienda	-12002
▁vakatenda	-12003
▁yechikoro	-12004
▁Federation	-12005
▁akaparadza	-12006
▁kunofanira	-12007
▁kuwirirana	-12008
▁kwemashoko	-12009
▁mapuroteni	-12010
▁mumamiriro	-12011
▁munhukadzi	-12012
▁nezvakaipa	-12013
▁nokukudzwa	-12014
▁asingasviki	-12015
▁wechigumine	-12016
▁zvazvingava	-12017
shandirapamwe	-12018
▁murandakadzi	-12019
44	-12020
MD	-12021
Ano	-12022
MAI	-12023
SAT	-12024
gwi	-12025
lum	-12026
lym	-12027
ned	-12028
plo	-12029
rer	-12030
ula	-12031
ume	-12032
▁5%	-12033
▁EN	-12034
▁GA	-12035
▁Ur	-12036
▁YE	-12037
bane	-12038
coln	-12039
dity	-12040
doro	-12041
gers	-12042
lete	-12043
mist	-12044
ruki	-12045
self	-12046
soni	-12047
tice	-12048
yona	-12049
zeti	-12050
▁(10	-12051
▁28,	-12052
▁Boy	-12053
▁Dra	-12054
▁Fix	-12055
▁Its	-12056
▁Jer	-12057
▁LTD	-12058
▁paH	-12059
'''''	-12060
akani	-12061
enice	-12062
forms	-12063
isara	-12064
kwako	-12065
meter	-12066
oushe	-12067
pinyi	-12068
pombi	-12069
ranzi	-12070
rumwe	-12071
rundu	-12072
tumba	-12073
webhu	-12074
zaria	-12075
▁Bhen	-12076
▁Joel	-12077
▁Many	-12078
▁Moni	-12079
▁Nema	-12080
▁Tele	-12081
▁VAKA	-12082
▁aone	-12083
▁bhaa	-12084
▁look	-12085
▁mavo	-12086
aniswa	-12087
dhonia	-12088
sembly	-12089
tivity	-12090
tsausa	-12091
upfumi	-12092
▁Games	-12093
▁Haana	-12094
▁Kuchi	-12095
▁Linen	-12096
▁Roman	-12097
▁Three	-12098
▁Tichi	-12099
▁avaka	-12100
▁awane	-12101
▁begin	-12102
▁promo	-12103
▁waive	-12104
Chayina	-12105
kwegura	-12106
nemotsi	-12107
zurudza	-12108
▁APICMO	-12109
▁Buddha	-12110
▁Daniel	-12111
▁Kupisa	-12112
▁Policy	-12113
▁Tinopa	-12114
▁donhwe	-12115
▁dzacho	-12116
▁mugumo	-12117
▁napaku	-12118
▁raJesu	-12119
▁rakati	-12120
akanyora	-12121
turikira	-12122
▁Holland	-12123
▁VaGwere	-12124
▁Vakanga	-12125
▁anopiwa	-12126
▁bhajeti	-12127
▁kuSouth	-12128
▁kurohwa	-12129
▁kusinga	-12130
▁kuzadza	-12131
▁muminda	-12132
▁mumvuri	-12133
▁pazvose	-12134
▁pedenga	-12135
▁worudzi	-12136
Rebhanoni	-12137
▁Abhineri	-12138
▁Kwakaita	-12139
▁Yakazara	-12140
▁chinjika	-12141
▁kuparara	-12142
▁mapurani	-12143
▁mazororo	-12144
▁pakuguma	-12145
▁pegungwa	-12146
▁ramakumi	-12147
yananisira	-12148
▁Bhizinesi	-12149
▁Vakawanda	-12150
▁Zvinogona	-12151
▁akashanda	-12152
▁dzeEurope	-12153
▁kuswedera	-12154
▁kwakaitwa	-12155
▁mamirioni	-12156
▁mubatsiri	-12157
▁mumitauro	-12158
▁paIjipiti	-12159
▁pakutaura	-12160
▁vahedheni	-12161
▁wakaramba	-12162
zvakanyorwa	-12163
▁emakambani	-12164
▁muchengeti	-12165
▁ndiwedzere	-12166
▁smartphone	-12167
▁kwemishonga	-12168
▁masendimita	-12169
▁vanosarudza	-12170
▁Matambudziko	-12171
▁wakawandirwa	-12172
▁ichangopfuura	-12173
▁nemifananidzo	-12174
▁rokupedzisira	-12175
▁inofungidzirwa	-12176
▁kumaodzanyembae	-12177
YU	-12178
uk	-12179
UMX	-12180
bro	-12181
cry	-12182
dox	-12183
efa	-12184
iye	-12185
rem	-12186
▁#7	-12187
▁39	-12188
▁KA	-12189
▁SR	-12190
▁dh	-12191
▁eA	-12192
▁sk	-12193
HURE	-12194
beth	-12195
eces	-12196
gana	-12197
kafu	-12198
kuni	-12199
mals	-12200
mesa	-12201
mond	-12202
nolo	-12203
rese	-12204
rime	-12205
span	-12206
voni	-12207
▁14,	-12208
▁22,	-12209
▁Cob	-12210
▁Don	-12211
▁Jin	-12212
▁Rin	-12213
▁URI	-12214
▁cry	-12215
▁use	-12216
▁uta	-12217
anada	-12218
child	-12219
dhori	-12220
gondo	-12221
henga	-12222
hungu	-12223
kenza	-12224
runda	-12225
rutsa	-12226
sheri	-12227
stall	-12228
▁Aero	-12229
▁Band	-12230
▁Digo	-12231
▁Fort	-12232
▁Giri	-12233
▁Golf	-12234
▁Hazv	-12235
▁Mode	-12236
▁Nico	-12237
▁Self	-12238
▁Snow	-12239
▁chim	-12240
▁giro	-12241
▁ingi	-12242
▁sand	-12243
▁vati	-12244
▁vemo	-12245
mbassy	-12246
pomera	-12247
shande	-12248
uthori	-12249
vanced	-12250
zvimwe	-12251
▁Brown	-12252
▁Order	-12253
▁Packa	-12254
▁Sales	-12255
▁VaFwe	-12256
▁amino	-12257
▁benzi	-12258
▁green	-12259
▁hausi	-12260
▁maiti	-12261
▁muoti	-12262
▁neipi	-12263
▁nezvo	-12264
▁produ	-12265
▁state	-12266
▁varwi	-12267
▁white	-12268
▁zving	-12269
chayina	-12270
temerwa	-12271
vandira	-12272
▁Berlin	-12273
▁Carbon	-12274
▁Lusaka	-12275
▁Muviri	-12276
▁Oxygen	-12277
▁dzaiva	-12278
▁kudivi	-12279
▁kwekun	-12280
▁makiki	-12281
▁pezuva	-12282
▁travel	-12283
▁unhani	-12284
▁vasara	-12285
▁vusiku	-12286
▁wakafa	-12287
hwendefa	-12288
vimbiswa	-12289
yetsimba	-12290
▁Muranda	-12291
▁Nenzira	-12292
▁Zvapera	-12293
▁dzakati	-12294
▁mabviro	-12295
▁mutsipa	-12296
▁necheku	-12297
▁neshiri	-12298
▁vachati	-12299
▁vakatya	-12300
▁vatongi	-12301
kuratidza	-12302
zivikanwi	-12303
▁Bohemian	-12304
▁Catholic	-12305
▁Emirates	-12306
▁Ndichava	-12307
▁Personal	-12308
▁Province	-12309
▁akakosha	-12310
▁inopinda	-12311
▁inotorwa	-12312
▁kukwezva	-12313
▁nomurume	-12314
▁pamuromo	-12315
▁sezvizvi	-12316
▁waKristu	-12317
▁yakapiwa	-12318
propionate	-12319
ratidzirwa	-12320
sungirirwa	-12321
▁Analytics	-12322
▁kumukadzi	-12323
▁kwechinhu	-12324
▁mashekeri	-12325
▁platforms	-12326
▁runyararo	-12327
▁vachaziva	-12328
▁vakwanise	-12329
turikidzana	-12330
▁akafukidza	-12331
▁dzakarukwa	-12332
▁muchidimbu	-12333
▁ndechekuti	-12334
▁nezvokudya	-12335
▁Jehoshafati	-12336
▁Zvishandiso	-12337
▁hwakasiyana	-12338
▁kudzokorora	-12339
▁pakugadzira	-12340
▁tsanangudzo	-12341
▁vanowanikwa	-12342
▁Kukarukureta	-12343
▁chakavanzika	-12344
▁inobatanidza	-12345
▁inokurumidza	-12346
▁Specification	-12347
▁zvekushandisa	-12348
!"	-12349
DP	-12350
EE	-12351
LO	-12352
!!!	-12353
-17	-12354
Ino	-12355
ONG	-12356
ela	-12357
glo	-12358
php	-12359
wor	-12360
▁BC	-12361
▁OK	-12362
▁ea	-12363
Vaka	-12364
acha	-12365
atin	-12366
feso	-12367
idhi	-12368
ille	-12369
inai	-12370
irwa	-12371
kuda	-12372
kuma	-12373
ouya	-12374
piya	-12375
resa	-12376
sels	-12377
tail	-12378
told	-12379
turo	-12380
xida	-12381
zmir	-12382
▁12,	-12383
▁16.	-12384
▁2.0	-12385
▁20,	-12386
▁900	-12387
▁GIS	-12388
▁Gir	-12389
▁KWA	-12390
▁Vie	-12391
▁bra	-12392
▁ish	-12393
▁tro	-12394
amisi	-12395
aring	-12396
bhiri	-12397
chato	-12398
chini	-12399
ckets	-12400
erari	-12401
fodhi	-12402
ities	-12403
jiang	-12404
onesa	-12405
pango	-12406
rurwa	-12407
shamo	-12408
svina	-12409
tsana	-12410
uruka	-12411
wheel	-12412
yuchi	-12413
▁Disc	-12414
▁Gift	-12415
▁Kuma	-12416
▁Meri	-12417
▁Mine	-12418
▁code	-12419
▁dire	-12420
▁effe	-12421
▁hypo	-12422
▁life	-12423
▁repa	-12424
gonesa	-12425
okunze	-12426
putira	-12427
sabata	-12428
▁Ching	-12429
▁Gadzi	-12430
▁Kweku	-12431
▁Yeuka	-12432
▁aniko	-12433
▁banga	-12434
▁epasi	-12435
▁field	-12436
▁kunhu	-12437
▁mavha	-12438
▁mhiko	-12439
▁pfumo	-12440
▁rwose	-12441
▁sadza	-12442
▁vhiza	-12443
▁world	-12444
▁zveva	-12445
cotland	-12446
fashoni	-12447
ference	-12448
ganiswa	-12449
mission	-12450
piritsi	-12451
taurira	-12452
vanzira	-12453
wanikwe	-12454
yadzisa	-12455
▁Kereke	-12456
▁Mazino	-12457
▁Ndeipi	-12458
▁Ruzivo	-12459
▁Winter	-12460
▁anondi	-12461
▁hainga	-12462
▁mabhii	-12463
▁madeko	-12464
▁mutuvi	-12465
▁mwadhi	-12466
▁ngadzi	-12467
▁nhumbu	-12468
▁pakona	-12469
▁reguta	-12470
▁yakare	-12471
Pasirose	-12472
enzanisi	-12473
hangande	-12474
ramisira	-12475
vhiringi	-12476
▁Kanjera	-12477
▁Kupinda	-12478
▁Qingdao	-12479
▁girobhu	-12480
▁kududza	-12481
▁kukanda	-12482
▁muchava	-12483
▁nendege	-12484
▁porudzi	-12485
▁rakaita	-12486
▁totaura	-12487
andanyama	-12488
kateboard	-12489
mbichimbi	-12490
▁Sustanon	-12491
▁achirema	-12492
▁akahwina	-12493
▁avhareji	-12494
▁chisungo	-12495
▁dzinoita	-12496
▁fakaroti	-12497
▁naKristu	-12498
▁paminiti	-12499
▁panjodzi	-12500
▁waMozisi	-12501
▁zvindori	-12502
akakamurwa	-12503
▁ChiGerman	-12504
▁VaGiryama	-12505
▁masevhisi	-12506
▁musarudzo	-12507
▁namakumbo	-12508
dzvinyirira	-12509
▁California	-12510
▁Kutengeswa	-12511
▁Rangarirai	-12512
▁Simbarashe	-12513
▁achangobva	-12514
▁akasimbisa	-12515
▁kwesayenzi	-12516
▁nokutsamwa	-12517
▁rwaJehovha	-12518
▁rwechipiri	-12519
▁wepamusoro	-12520
▁zvaJehovha	-12521
▁zvemichina	-12522
▁akasarudzwa	-12523
▁kudzidziswa	-12524
▁kupatsanura	-12525
▁kushandurwa	-12526
▁mutevedzeri	-12527
▁chifananidzo	-12528
▁nokunyengera	-12529
▁vanachiremba	-12530
▁zvishongedzo	-12531
▁inogadziriswa	-12532
▁padandemutande	-12533
▁kushamwaridzana	-12534
3-	-12535
57	-12536
PH	-12537
io	-12538
-1)	-12539
-18	-12540
3-5	-12541
alk	-12542
ngo	-12543
rew	-12544
▁ES	-12545
▁Er	-12546
▁MD	-12547
▁MT	-12548
▁Mr	-12549
▁Od	-12550
Jeri	-12551
John	-12552
engu	-12553
enia	-12554
kami	-12555
kano	-12556
ladi	-12557
poto	-12558
pres	-12559
prop	-12560
quid	-12561
tube	-12562
urie	-12563
vise	-12564
xico	-12565
yasi	-12566
▁15%	-12567
▁650	-12568
▁Far	-12569
▁Iwo	-12570
▁Pal	-12571
▁Swa	-12572
▁Two	-12573
▁cur	-12574
▁des	-12575
▁gay	-12576
▁naT	-12577
▁ney	-12578
▁nye	-12579
▁see	-12580
▁suo	-12581
▁weP	-12582
Coins	-12583
TAURA	-12584
TENDA	-12585
akimu	-12586
amban	-12587
amela	-12588
andwa	-12589
chira	-12590
drawa	-12591
dyira	-12592
hanyi	-12593
hinzi	-12594
osesi	-12595
▁2007	-12596
▁Bush	-12597
▁Much	-12598
▁Siri	-12599
▁bazi	-12600
▁euro	-12601
▁hedu	-12602
▁kuza	-12603
▁kweS	-12604
▁neMu	-12605
▁nefo	-12606
▁nere	-12607
▁ripi	-12608
▁ruva	-12609
▁tere	-12610
▁weVa	-12611
Edhomu	-12612
bvunzi	-12613
cyclic	-12614
indira	-12615
okunda	-12616
risana	-12617
rwendo	-12618
shebha	-12619
trends	-12620
zabeth	-12621
▁Empty	-12622
▁Forum	-12623
▁Hydro	-12624
▁chava	-12625
▁fundo	-12626
▁imomo	-12627
▁nehun	-12628
▁pendi	-12629
▁point	-12630
▁rwedu	-12631
▁vaone	-12632
akidzwe	-12633
akwashe	-12634
ameroon	-12635
kororwa	-12636
ultural	-12637
vungana	-12638
▁Vakuru	-12639
▁atorwa	-12640
▁become	-12641
▁dangwe	-12642
▁kubasa	-12643
▁miseve	-12644
▁muedzo	-12645
▁namana	-12646
▁router	-12647
▁veguta	-12648
ambridge	-12649
ngurudza	-12650
poterera	-12651
tevedzwa	-12652
▁Mitambo	-12653
▁Richard	-12654
▁VaWanga	-12655
▁Zvikamu	-12656
▁between	-12657
▁browser	-12658
▁fenicha	-12659
▁mumwoyo	-12660
▁ndokumu	-12661
▁nemaoko	-12662
▁nomwoyo	-12663
▁oupenyu	-12664
▁pevanhu	-12665
▁tarenda	-12666
▁vakadya	-12667
▁vatumwa	-12668
▁welcome	-12669
servation	-12670
shanyirwa	-12671
vakashure	-12672
▁Mibvunzo	-12673
▁Ongororo	-12674
▁Victoria	-12675
▁chirongo	-12676
▁kumwedzi	-12677
▁kuyerera	-12678
▁mizhinji	-12679
▁pamupata	-12680
▁vakafara	-12681
simudzirwa	-12682
▁Hydraulic	-12683
▁Kurwisana	-12684
▁anotaurwa	-12685
▁kufukidza	-12686
▁kugoverwa	-12687
▁kuviriswa	-12688
▁nemitambo	-12689
▁rakakosha	-12690
▁vanofunga	-12691
▁vokutanga	-12692
▁yekambani	-12693
fananidzira	-12694
▁Developers	-12695
▁Purogiramu	-12696
▁kuChingezi	-12697
▁makasitoma	-12698
▁rimwechete	-12699
zvidzivirira	-12700
▁Kuburikidza	-12701
▁Kwemagariro	-12702
▁mhirizhonga	-12703
▁wamadzibaba	-12704
▁yakabudiswa	-12705
▁yemakambani	-12706
▁akaberekerwa	-12707
▁akaunganidza	-12708
▁chinobatsira	-12709
▁muunganidzwa	-12710
▁rakagadzirwa	-12711
▁rorusununguko	-12712
31	-12713
98	-12714
FL	-12715
ic	-12716
pm	-12717
400	-12718
Dhi	-12719
FSX	-12720
bes	-12721
bor	-12722
khi	-12723
rie	-12724
sso	-12725
tta	-12726
▁MG	-12727
Mate	-12728
Zuva	-12729
bazi	-12730
fora	-12731
hosa	-12732
kuko	-12733
pfun	-12734
ripi	-12735
rowd	-12736
taur	-12737
tavi	-12738
wiss	-12739
▁18,	-12740
▁Add	-12741
▁Bil	-12742
▁Box	-12743
▁Gen	-12744
▁Ine	-12745
▁LCD	-12746
▁LLC	-12747
▁Mes	-12748
▁Sun	-12749
▁bat	-12750
▁ich	-12751
▁spa	-12752
▁yeN	-12753
Inter	-12754
anept	-12755
banda	-12756
ctile	-12757
cting	-12758
jecha	-12759
kanya	-12760
landi	-12761
mbeze	-12762
pound	-12763
vumba	-12764
water	-12765
zorwa	-12766
▁Base	-12767
▁Down	-12768
▁Liam	-12769
▁PANO	-12770
▁Pati	-12771
▁Rome	-12772
▁Solu	-12773
▁VaKa	-12774
▁acti	-12775
▁bere	-12776
▁huku	-12777
▁info	-12778
▁kind	-12779
▁main	-12780
▁meth	-12781
▁sava	-12782
▁udza	-12783
▁what	-12784
Ezhiya	-12785
Umambo	-12786
dhonza	-12787
fukura	-12788
mhosva	-12789
yorero	-12790
▁Gmail	-12791
▁Mbiri	-12792
▁Round	-12793
▁achan	-12794
▁bvisa	-12795
▁cheva	-12796
▁group	-12797
▁haazo	-12798
▁kubhe	-12799
▁paShe	-12800
▁pacho	-12801
▁train	-12802
▁uripo	-12803
▁vadzo	-12804
Kalanga	-12805
bvunzwa	-12806
ditions	-12807
kondari	-12808
onyorwa	-12809
ungudza	-12810
wakaipa	-12811
zvingwa	-12812
▁Lights	-12813
▁Maguta	-12814
▁Organi	-12815
▁Serial	-12816
▁kureme	-12817
▁matema	-12818
▁norudo	-12819
▁pakupa	-12820
▁unondi	-12821
▁vababa	-12822
Bhashani	-12823
Chishanu	-12824
Nafutari	-12825
aneptine	-12826
hamasiko	-12827
huritani	-12828
ingapore	-12829
▁Gallery	-12830
▁Natural	-12831
▁Support	-12832
▁kuoneka	-12833
▁kuurawa	-12834
▁munaShe	-12835
▁munzeve	-12836
▁pakuita	-12837
▁remunhu	-12838
▁vanomwe	-12839
▁wechina	-12840
▁zvoreva	-12841
batanidzo	-12842
ngurudzwa	-12843
▁Emmanuel	-12844
▁Kutsvaga	-12845
▁Mugovera	-12846
▁Tanzania	-12847
▁akagadza	-12848
▁chinguva	-12849
▁deposits	-12850
▁isapinda	-12851
▁kuendesa	-12852
▁nderimwe	-12853
▁rwezvema	-12854
▁vaakanga	-12855
stallation	-12856
▁Nharaunda	-12857
▁handigoni	-12858
▁nesayenzi	-12859
▁yevakadzi	-12860
▁Chokutanga	-12861
▁chartering	-12862
▁chirikadzi	-12863
▁kuderedzwa	-12864
▁kudyidzana	-12865
▁kusvibiswa	-12866
▁vanoshanda	-12867
▁anoenderana	-12868
▁dzakabatana	-12869
▁hutachiwana	-12870
▁inoenderana	-12871
▁kutungamira	-12872
▁kwakasiyana	-12873
▁waDhavhidhi	-12874
▁zvitengeswa	-12875
makumimanomwe	-12876
▁akapoteredza	-12877
▁kudhanilodha	-12878
▁kuparadzirwa	-12879
▁kwaJorodhani	-12880
▁neramangwana	-12881
▁kugadziridzwa	-12882
▁vakagadzirira	-12883
3:	-12884
DD	-12885
EA	-12886
On	-12887
bb	-12888
fg	-12889
nc	-12890
ue	-12891
RWA	-12892
Uye	-12893
bac	-12894
fes	-12895
fla	-12896
flo	-12897
rmo	-12898
sea	-12899
swi	-12900
thu	-12901
ulf	-12902
xin	-12903
▁("	-12904
▁CB	-12905
▁SO	-12906
Ford	-12907
ckel	-12908
dhai	-12909
ists	-12910
koma	-12911
poro	-12912
rata	-12913
soja	-12914
teke	-12915
turn	-12916
zuro	-12917
▁450	-12918
▁Bon	-12919
▁Hos	-12920
▁Ice	-12921
▁Isi	-12922
▁Mug	-12923
▁Pam	-12924
▁Que	-12925
▁Sea	-12926
▁Thi	-12927
▁bur	-12928
▁reG	-12929
▁swi	-12930
▁tru	-12931
▁yak	-12932
atino	-12933
mbers	-12934
posit	-12935
usiku	-12936
▁1200	-12937
▁Crea	-12938
▁Jean	-12939
▁Jehu	-12940
▁MUTS	-12941
▁Pose	-12942
▁Site	-12943
▁bird	-12944
▁blog	-12945
▁equi	-12946
▁haru	-12947
▁kusi	-12948
▁link	-12949
▁pehu	-12950
▁simu	-12951
▁toti	-12952
▁ukan	-12953
cially	-12954
dzisai	-12955
ishong	-12956
kuvara	-12957
misira	-12958
▁2016,	-12959
▁2019,	-12960
▁2019.	-12961
▁Ahazi	-12962
▁Being	-12963
▁Itari	-12964
▁Maawa	-12965
▁Ocean	-12966
▁Store	-12967
▁Tende	-12968
▁Total	-12969
▁YEMUT	-12970
▁akura	-12971
▁cheki	-12972
▁conta	-12973
▁dumbu	-12974
▁earth	-12975
▁floor	-12976
▁gadza	-12977
▁grain	-12978
▁mimba	-12979
▁panga	-12980
▁uriri	-12981
Chindau	-12982
bhuruni	-12983
nerimwe	-12984
tsinhan	-12985
▁Mosesi	-12986
▁Rugare	-12987
▁Search	-12988
▁Tapiwa	-12989
▁Taurai	-12990
▁kutuka	-12991
▁kuyera	-12992
▁miedzo	-12993
▁pamura	-12994
▁ukaona	-12995
▁umambo	-12996
▁vaende	-12997
▁vakari	-12998
▁yezuva	-12999
bvumirwi	-13000
jekiseni	-13001
kisijeni	-13002
muscular	-13003
raramisa	-13004
ruboshwe	-13005
vakomana	-13006
▁Barotse	-13007
▁Chigaro	-13008
▁Lincoln	-13009
▁Muvhuro	-13010
▁Physics	-13011
▁Rabhani	-13012
▁Scanner	-13013
▁Special	-13014
▁VaNyoro	-13015
▁Yenyika	-13016
▁Zvivako	-13017
▁brother	-13018
▁hachina	-13019
▁kutongo	-13020
▁mufudzi	-13021
▁mundiro	-13022
▁norumwe	-13023
▁pacharo	-13024
▁somumwe	-13025
▁tattoos	-13026
▁uchaita	-13027
▁vaAroni	-13028
▁yevedza	-13029
erobhoamu	-13030
vakamberi	-13031
▁Aluminum	-13032
▁Ministry	-13033
▁Rhodesia	-13034
▁achiziva	-13035
▁hwenyika	-13036
▁kutongwa	-13037
▁masvomhu	-13038
▁mudungwe	-13039
▁mukupera	-13040
▁nemaviri	-13041
▁pamativi	-13042
▁pyridine	-13043
▁vaifamba	-13044
▁wedangwe	-13045
kanganiswa	-13046
▁Kusarudza	-13047
▁ndichaita	-13048
▁nomurairo	-13049
▁rakavakwa	-13050
▁unoshanda	-13051
▁vhoriyamu	-13052
▁zvakadini	-13053
▁zvakakura	-13054
akakonzerwa	-13055
▁Chikonzero	-13056
▁Yepamusoro	-13057
▁ZVINOKOSHA	-13058
▁akasarudza	-13059
▁kwenzvimbo	-13060
▁zviratidzi	-13061
▁Information	-13062
▁akashandisa	-13063
▁inoratidzwa	-13064
▁raDhavhidhi	-13065
▁vakadzokera	-13066
▁zvinotaurwa	-13067
▁Yakanakisisa	-13068
▁pakukurukura	-13069
▁vakandodzika	-13070
▁nomwanakomana	-13071
▁vaitungamirira	-13072
▁zvinotarisirwa	-13073
▁vanozvishandisa	-13074
4-	-13075
?.	-13076
PP	-13077
lı	-13078
sm	-13079
▁!	-13080
BAT	-13081
CAD	-13082
Kun	-13083
ala	-13084
fly	-13085
gel	-13086
gma	-13087
kov	-13088
mhe	-13089
pre	-13090
tur	-13091
ude	-13092
▁42	-13093
▁AT	-13094
▁CC	-13095
▁IT	-13096
▁QC	-13097
.000	-13098
NUMX	-13099
amic	-13100
dago	-13101
ktop	-13102
lele	-13103
lley	-13104
mith	-13105
ptop	-13106
shoo	-13107
sire	-13108
sity	-13109
sors	-13110
spho	-13111
toon	-13112
toto	-13113
wiza	-13114
▁16,	-13115
▁3.5	-13116
▁Ada	-13117
▁FDA	-13118
▁KUB	-13119
▁Men	-13120
▁Oil	-13121
▁Way	-13122
▁Yen	-13123
▁cla	-13124
▁est	-13125
▁muW	-13126
▁now	-13127
▁top	-13128
▁vaH	-13129
ambwa	-13130
ambya	-13131
bhusi	-13132
fadzo	-13133
faira	-13134
kunde	-13135
minya	-13136
shuma	-13137
spiro	-13138
stant	-13139
vider	-13140
yikwa	-13141
zolol	-13142
zvida	-13143
▁('''	-13144
▁1999	-13145
▁Area	-13146
▁Firi	-13147
▁Hall	-13148
▁Near	-13149
▁VaNy	-13150
▁Xbox	-13151
▁does	-13152
▁iron	-13153
▁mema	-13154
▁noum	-13155
▁paMi	-13156
▁pain	-13157
▁reMu	-13158
▁vain	-13159
▁yeMa	-13160
▁yeru	-13161
Nokuti	-13162
anduka	-13163
dariki	-13164
hanani	-13165
putswa	-13166
singwi	-13167
tamini	-13168
teresa	-13169
trader	-13170
ungary	-13171
▁2014,	-13172
▁2017.	-13173
▁Kuisa	-13174
▁Mwaka	-13175
▁awana	-13176
▁chati	-13177
▁egore	-13178
▁frame	-13179
▁ikava	-13180
▁kunye	-13181
▁noupi	-13182
▁pavai	-13183
▁photo	-13184
▁rambi	-13185
▁short	-13186
▁tribe	-13187
▁unova	-13188
▁zvoga	-13189
Kukadzi	-13190
chikamu	-13191
lection	-13192
nolojia	-13193
tsvaira	-13194
vanenge	-13195
▁Direct	-13196
▁Harare	-13197
▁Kutora	-13198
▁Posted	-13199
▁Switch	-13200
▁Venice	-13201
▁angava	-13202
▁kadiki	-13203
▁mbudzi	-13204
▁mhodzi	-13205
▁nemana	-13206
▁papeji	-13207
▁patino	-13208
▁regula	-13209
▁retatu	-13210
▁seizvi	-13211
▁tinoti	-13212
▁tirege	-13213
▁venhau	-13214
▁yavose	-13215
▁yevana	-13216
▁zvauri	-13217
dzidzise	-13218
mhanyisa	-13219
rimidine	-13220
tegrated	-13221
zvinatsa	-13222
▁Account	-13223
▁Kuwanda	-13224
▁Nyowani	-13225
▁Vatambi	-13226
▁akaudza	-13227
▁animals	-13228
▁anoenda	-13229
▁certifi	-13230
▁chigayo	-13231
▁chivako	-13232
▁colspan	-13233
▁hutongi	-13234
▁kungava	-13235
▁kupinza	-13236
▁machena	-13237
▁mavhiri	-13238
▁mujinga	-13239
▁mupfumi	-13240
▁mutumbi	-13241
▁muvambi	-13242
▁nenyaya	-13243
▁nokutya	-13244
▁pachine	-13245
▁protein	-13246
▁tichava	-13247
▁vachamu	-13248
▁zvataka	-13249
▁zvitupa	-13250
akiromita	-13251
svibirira	-13252
tambudzwa	-13253
tanozolol	-13254
ushamwari	-13255
▁BitCoins	-13256
▁District	-13257
▁Minister	-13258
▁akabvisa	-13259
▁akavigwa	-13260
▁akwegura	-13261
▁inokwana	-13262
▁kuputira	-13263
▁mazanama	-13264
▁netsitsi	-13265
▁pachangu	-13266
▁zvingava	-13267
tenderedza	-13268
vandudzika	-13269
witzerland	-13270
▁Biography	-13271
▁achipinda	-13272
▁chinoitwa	-13273
▁hazvirevi	-13274
▁kudzorera	-13275
▁kurongeka	-13276
▁kurwisana	-13277
▁kwemafuta	-13278
▁nechiyero	-13279
▁nepfungwa	-13280
▁nezviviri	-13281
▁paKarenda	-13282
▁sezvamaka	-13283
▁vamabhiza	-13284
▁weIjipiti	-13285
yengeterera	-13286
▁akakumbira	-13287
▁kwehuwandu	-13288
▁navanununa	-13289
▁rondedzero	-13290
▁tsananguro	-13291
▁weZimbabwe	-13292
▁chengetedzo	-13293
▁kwepamusoro	-13294
▁pakakwirira	-13295
▁rakabudiswa	-13296
▁nezvigadziko	-13297
▁wakaisvonaka	-13298
▁rinozivikanwa	-13299
▁yakasarudzika	-13300
▁rwezvemabhengi	-13301
▁nezvechisarudzo	-13302
))	-13303
6-	-13304
ux	-13305
0.0	-13306
AND	-13307
FUN	-13308
Tra	-13309
iyi	-13310
meo	-13311
mho	-13312
nis	-13313
rau	-13314
ror	-13315
uch	-13316
uth	-13317
▁NO	-13318
▁Sc	-13319
▁Wu	-13320
anol	-13321
anwa	-13322
bers	-13323
besa	-13324
chat	-13325
cked	-13326
daka	-13327
eing	-13328
fety	-13329
hina	-13330
jasi	-13331
mako	-13332
rake	-13333
rava	-13334
rero	-13335
riko	-13336
sava	-13337
tene	-13338
tire	-13339
towo	-13340
viro	-13341
yati	-13342
yisi	-13343
zamu	-13344
zire	-13345
▁21,	-13346
▁350	-13347
▁380	-13348
▁CHI	-13349
▁Dor	-13350
▁Kam	-13351
▁Nou	-13352
▁Sen	-13353
▁Tro	-13354
▁Wai	-13355
▁XXL	-13356
▁cap	-13357
▁fit	-13358
▁ned	-13359
▁old	-13360
▁red	-13361
▁ski	-13362
▁wak	-13363
Quick	-13364
adrol	-13365
anani	-13366
bheka	-13367
bhini	-13368
caeli	-13369
dhoni	-13370
ellow	-13371
ginal	-13372
kamwa	-13373
kandi	-13374
mbama	-13375
media	-13376
phics	-13377
yonga	-13378
▁0.9.	-13379
▁Anon	-13380
▁CHIN	-13381
▁Case	-13382
▁Lord	-13383
▁Muso	-13384
▁Neni	-13385
▁YAKO	-13386
▁Year	-13387
▁also	-13388
▁andi	-13389
▁coun	-13390
▁kuse	-13391
▁maho	-13392
▁pani	-13393
▁pure	-13394
▁them	-13395
amberi	-13396
copter	-13397
ground	-13398
iteiko	-13399
jairwa	-13400
kwikwi	-13401
onaldo	-13402
purazi	-13403
rudzai	-13404
sainzi	-13405
shamhu	-13406
zivise	-13407
zviisa	-13408
▁Court	-13409
▁Cross	-13410
▁Denga	-13411
▁Hello	-13412
▁cross	-13413
▁endai	-13414
▁iguta	-13415
▁ndiwe	-13416
▁ndoga	-13417
▁paten	-13418
▁pfuti	-13419
akakora	-13420
ctional	-13421
gumbura	-13422
mborera	-13423
nzvimbo	-13424
temberi	-13425
yonhatu	-13426
▁Ahabhi	-13427
▁Pirato	-13428
▁Rating	-13429
▁Tinoda	-13430
▁ZVINHU	-13431
▁Ziyoni	-13432
▁chaaka	-13433
▁emhuri	-13434
▁kuveza	-13435
▁mafuro	-13436
▁napasi	-13437
▁number	-13438
▁proces	-13439
▁urombo	-13440
▁yellow	-13441
akwanise	-13442
kunakira	-13443
sketball	-13444
zetidine	-13445
▁British	-13446
▁Channel	-13447
▁Esiteri	-13448
▁Furanzi	-13449
▁Matthew	-13450
▁Payment	-13451
▁Perfect	-13452
▁Premium	-13453
▁William	-13454
▁kupfura	-13455
▁kurehwa	-13456
▁kweguta	-13457
▁mushumo	-13458
▁ndeyeku	-13459
▁ndikaku	-13460
▁paJudha	-13461
▁padding	-13462
▁paganda	-13463
▁takanga	-13464
▁verudzi	-13465
▁vorudzi	-13466
▁yandino	-13467
ehobhoamu	-13468
mperature	-13469
sanangura	-13470
zwisisiki	-13471
▁Blessing	-13472
▁Chambers	-13473
▁Mamiriro	-13474
▁Ndakaona	-13475
▁Nyeredzi	-13476
▁akatorwa	-13477
▁cheshuga	-13478
▁dzesango	-13479
▁gurukota	-13480
▁kutengwa	-13481
▁mameseji	-13482
▁muKristu	-13483
▁vasungwa	-13484
▁yakawana	-13485
▁zvinomwe	-13486
rangaridzo	-13487
▁Beautiful	-13488
▁Kuverenga	-13489
▁achisvika	-13490
▁akamedura	-13491
▁anofarira	-13492
▁ekisipoti	-13493
▁kukoshesa	-13494
▁nezvikamu	-13495
▁pakutenda	-13496
▁penzvimbo	-13497
▁rakapotsa	-13498
▁synthesis	-13499
▁unotaurwa	-13500
▁vachagara	-13501
▁vakadzoka	-13502
▁waJakobho	-13503
▁yesungano	-13504
▁zvinoumba	-13505
▁Materitori	-13506
▁akubatsire	-13507
▁mucherikwa	-13508
▁teknolojia	-13509
▁yakanyatso	-13510
▁Chaizvoizvo	-13511
▁kukundikana	-13512
▁kuratidzira	-13513
▁kusingaperi	-13514
▁nehanzvadzi	-13515
▁yakavakirwa	-13516
▁inosanganisa	-13517
▁sezvinobvira	-13518
▁womuenzaniso	-13519
▁kukwikwidzana	-13520
▁kuchengetedzeka	-13521
!)	-13522
63	-13523
FD	-13524
ML	-13525
.).	-13526
ANI	-13527
Mon	-13528
Nge	-13529
cob	-13530
ech	-13531
imu	-13532
nic	-13533
nor	-13534
nut	-13535
rts	-13536
sts	-13537
yle	-13538
yme	-13539
▁$1	-13540
▁4)	-13541
▁56	-13542
▁CJ	-13543
1.00	-13544
Pere	-13545
VENE	-13546
ctic	-13547
dara	-13548
ison	-13549
lade	-13550
rite	-13551
rway	-13552
sson	-13553
tary	-13554
unge	-13555
▁Ado	-13556
▁Bei	-13557
▁Bre	-13558
▁Cur	-13559
▁DVD	-13560
▁Dhe	-13561
▁EUR	-13562
▁KUP	-13563
▁Pfu	-13564
▁Sul	-13565
▁own	-13566
▁spo	-13567
▁weH	-13568
▁yeV	-13569
andau	-13570
llari	-13571
mbove	-13572
pedze	-13573
pembe	-13574
pingu	-13575
urich	-13576
verse	-13577
verwa	-13578
virus	-13579
vumbi	-13580
▁2006	-13581
▁Fair	-13582
▁Gala	-13583
▁Half	-13584
▁Ingo	-13585
▁Name	-13586
▁Tire	-13587
▁give	-13588
▁kuhu	-13589
▁majo	-13590
▁peri	-13591
▁ring	-13592
▁size	-13593
▁timu	-13594
▁were	-13595
engesi	-13596
girozi	-13597
jeriya	-13598
ormone	-13599
person	-13600
ponese	-13601
rovera	-13602
▁1,000	-13603
▁Akako	-13604
▁Alpha	-13605
▁Bursa	-13606
▁Cable	-13607
▁Magic	-13608
▁Nyora	-13609
▁Tinga	-13610
▁Zvipo	-13611
▁kanhi	-13612
▁kusve	-13613
▁thing	-13614
▁vaaka	-13615
▁yadzo	-13616
andanga	-13617
anogona	-13618
bhiyoni	-13619
fambiso	-13620
pomerwa	-13621
russels	-13622
shumire	-13623
taridzi	-13624
tellite	-13625
yiminya	-13626
zivisai	-13627
▁Hatina	-13628
▁Kurapa	-13629
▁Luxury	-13630
▁Mutsva	-13631
▁achamu	-13632
▁achati	-13633
▁aigara	-13634
▁atanga	-13635
▁firita	-13636
▁inongo	-13637
▁kuhama	-13638
▁kuzova	-13639
▁mapato	-13640
▁munoti	-13641
▁pakuva	-13642
▁pegomo	-13643
▁somato	-13644
▁vakura	-13645
batikana	-13646
negumine	-13647
suruvari	-13648
terehemu	-13649
▁Bharaki	-13650
▁Kunyora	-13651
▁Zambezi	-13652
▁chezuva	-13653
▁dioxide	-13654
▁inoitwa	-13655
▁kuputsa	-13656
▁kwavano	-13657
▁mavanga	-13658
▁padanho	-13659
▁service	-13660
▁varidzi	-13661
▁vatadzi	-13662
▁wemvura	-13663
▁zvikepe	-13664
▁Bachelor	-13665
▁Customer	-13666
▁Football	-13667
▁Patience	-13668
▁Position	-13669
▁Yakanaka	-13670
▁kuEurope	-13671
▁magazini	-13672
▁silicone	-13673
▁vanotora	-13674
▁wagering	-13675
▁zvikaita	-13676
▁zvisungo	-13677
▁Aerospace	-13678
▁Paradhiso	-13679
▁akatakura	-13680
▁akatevera	-13681
▁chiyamuro	-13682
▁inotakura	-13683
▁kuchikuva	-13684
▁kudziyisa	-13685
▁kunakidza	-13686
▁kuponeswa	-13687
▁kwemuviri	-13688
▁ndechimwe	-13689
▁rakawanda	-13690
▁vakauraya	-13691
▁MuZimbabwe	-13692
▁Vakasimuka	-13693
▁kuChiShona	-13694
▁kumbobvira	-13695
▁kwakasimba	-13696
▁marongerwo	-13697
▁muChirungu	-13698
▁vakapfuura	-13699
▁wokudhinda	-13700
▁yemakwikwi	-13701
▁zvichienda	-13702
▁aizivikanwa	-13703
▁kushamisika	-13704
▁kwemakungwa	-13705
▁pakombiyuta	-13706
▁rinotodzana	-13707
▁yakaratidza	-13708
▁yekufambisa	-13709
▁zvepamusoro	-13710
▁zvinogoneka	-13711
▁akagadzirira	-13712
▁nokuchengeta	-13713
▁paUniversity	-13714
▁wakachenjera	-13715
▁zvemapuranga	-13716
▁aitungamirira	-13717
▁hwakatsetseka	-13718
▁intramuscular	-13719
▁nomukurumbira	-13720
▁akaturikidzana	-13721
▁inozivikanwawo	-13722
▁yokuchengetera	-13723
2-	-13724
;)	-13725
EC	-13726
En	-13727
Ts	-13728
af	-13729
rw	-13730
VID	-13731
You	-13732
llu	-13733
nie	-13734
not	-13735
nzi	-13736
opa	-13737
sus	-13738
upi	-13739
zho	-13740
▁HU	-13741
▁NY	-13742
▁RA	-13743
▁RF	-13744
▁SD	-13745
Heti	-13746
abhi	-13747
crea	-13748
enjo	-13749
guti	-13750
idhe	-13751
jani	-13752
onel	-13753
pang	-13754
pimo	-13755
puwa	-13756
rest	-13757
riki	-13758
roka	-13759
rumu	-13760
siyi	-13761
uron	-13762
vide	-13763
wers	-13764
woma	-13765
▁(3)	-13766
▁Abu	-13767
▁Fer	-13768
▁Mab	-13769
▁VaR	-13770
▁azo	-13771
▁bwe	-13772
▁cir	-13773
▁kuH	-13774
▁naN	-13775
▁sco	-13776
▁wan	-13777
WANDA	-13778
chipo	-13779
hinda	-13780
indow	-13781
ising	-13782
llets	-13783
onder	-13784
rengo	-13785
ringe	-13786
shion	-13787
tedza	-13788
tseka	-13789
urura	-13790
vhiye	-13791
wenya	-13792
yerwa	-13793
▁1980	-13794
▁5000	-13795
▁Abra	-13796
▁Aiwa	-13797
▁Flat	-13798
▁Fosi	-13799
▁Jero	-13800
▁Kutu	-13801
▁Mesh	-13802
▁Miri	-13803
▁Soft	-13804
▁arun	-13805
▁azvo	-13806
▁cash	-13807
▁hune	-13808
▁kweG	-13809
▁naHa	-13810
▁pemi	-13811
▁ruku	-13812
▁ruwa	-13813
▁self	-13814
Jeriko	-13815
aironi	-13816
dyarwa	-13817
garire	-13818
idhoni	-13819
inendi	-13820
kanzwa	-13821
kariya	-13822
kurara	-13823
lizing	-13824
mirana	-13825
pupuri	-13826
pwanya	-13827
tsamba	-13828
▁Album	-13829
▁Dombo	-13830
▁Human	-13831
▁Mutsa	-13832
▁Naomi	-13833
▁VANHU	-13834
▁anzwa	-13835
▁dande	-13836
▁eBook	-13837
▁every	-13838
▁kusho	-13839
▁pauri	-13840
▁ugare	-13841
▁vauye	-13842
▁yeiyo	-13843
▁zvawo	-13844
dzikama	-13845
kandira	-13846
sikirwo	-13847
tibhora	-13848
zvipira	-13849
▁......	-13850
▁Flower	-13851
▁Kikuyu	-13852
▁Nsenga	-13853
▁Untold	-13854
▁Valley	-13855
▁flower	-13856
▁kugomo	-13857
▁migove	-13858
▁musati	-13859
▁ndaiva	-13860
▁pameso	-13861
▁pezita	-13862
▁uchati	-13863
▁vaibva	-13864
▁wamaka	-13865
▁zvadzo	-13866
Madokero	-13867
dhorobha	-13868
simudzwa	-13869
software	-13870
▁Bharamu	-13871
▁Efuremu	-13872
▁Mallari	-13873
▁Outdoor	-13874
▁akavuya	-13875
▁another	-13876
▁emhando	-13877
▁haringa	-13878
▁kumhara	-13879
▁kuvamba	-13880
▁kuyerwa	-13881
▁mandiri	-13882
▁muParis	-13883
▁mufambi	-13884
▁mumaawa	-13885
▁nengoro	-13886
▁neshanu	-13887
▁padombo	-13888
▁program	-13889
▁tichiti	-13890
▁ushingi	-13891
▁vakarwa	-13892
▁wasvika	-13893
▁wevanhu	-13894
▁zviende	-13895
gadziriso	-13896
kunyorera	-13897
▁Chengeta	-13898
▁Koowheel	-13899
▁Pharmacy	-13900
▁Zvinoita	-13901
▁akabatwa	-13902
▁chaMwari	-13903
▁hydrogen	-13904
▁kuMiddle	-13905
▁kuUnited	-13906
▁kumakomo	-13907
▁muFrance	-13908
▁muRussia	-13909
▁mukwende	-13910
▁mumupata	-13911
▁namapoka	-13912
▁nemafuta	-13913
▁neungano	-13914
▁nezvaaka	-13915
▁nhandare	-13916
▁norurimi	-13917
▁pamisoro	-13918
▁pazororo	-13919
▁reChechi	-13920
▁vachiona	-13921
▁vakapiwa	-13922
▁vakatiza	-13923
▁vakavaka	-13924
▁workshop	-13925
▁zvevanhu	-13926
▁zvitsuwa	-13927
akanganisa	-13928
hepfenyuro	-13929
ishongrish	-13930
▁Musangano	-13931
▁akabvunza	-13932
▁chitsvene	-13933
▁kufambira	-13934
▁kunokosha	-13935
▁kutambura	-13936
▁nokuwanda	-13937
▁nomucheka	-13938
▁pamashoko	-13939
▁shandiswa	-13940
▁vanabolic	-13941
▁vanoramba	-13942
▁wekambani	-13943
▁yehuwandu	-13944
vhenganiswa	-13945
▁Tinofanira	-13946
▁anofanirwa	-13947
▁chinyakare	-13948
▁kutarisana	-13949
▁kwokutanga	-13950
▁vakazvarwa	-13951
▁vanotsvaka	-13952
▁yakazaruka	-13953
▁yokumusoro	-13954
Maodzanyemba	-13955
▁Kudzokorora	-13956
▁Sibutramine	-13957
▁YEMUTengesi	-13958
▁anokonzerwa	-13959
▁namakwayana	-13960
▁nhepfenyuro	-13961
▁panosangana	-13962
▁chimbichimbi	-13963
▁kunokonzerwa	-13964
▁pavaIsiraeri	-13965
▁vakasarudzwa	-13966
▁masayendisiti	-13967
▁Yakagadzirirwa	-13968
82	-13969
84	-13970
It	-13971
RH	-13972
VO	-13973
if	-13974
MUS	-13975
TIN	-13976
amh	-13977
fic	-13978
ppe	-13979
rap	-13980
rri	-13981
tup	-13982
usi	-13983
▁->	-13984
▁PO	-13985
▁VC	-13986
▁VI	-13987
▁ui	-13988
▁um	-13989
1960	-13990
2.00	-13991
DHEA	-13992
anai	-13993
arly	-13994
doka	-13995
jack	-13996
lace	-13997
llet	-13998
loni	-13999
mote	-14000
mupa	-14001
phin	-14002
rimo	-14003
roku	-14004
tsve	-14005
tswe	-14006
vora	-14007
yers	-14008
▁24,	-14009
▁Bes	-14010
▁Bor	-14011
▁FOR	-14012
▁Kal	-14013
▁Nha	-14014
▁Now	-14015
▁Old	-14016
▁Put	-14017
▁Sus	-14018
▁THE	-14019
▁Uti	-14020
▁Yao	-14021
▁bre	-14022
▁dia	-14023
▁equ	-14024
▁reH	-14025
Mambo	-14026
RUDZA	-14027
amber	-14028
banze	-14029
hydra	-14030
itiki	-14031
mance	-14032
medza	-14033
metho	-14034
ngiso	-14035
ology	-14036
relin	-14037
renal	-14038
tanwa	-14039
urces	-14040
▁4000	-14041
▁Haku	-14042
▁Made	-14043
▁Mara	-14044
▁Mono	-14045
▁Newe	-14046
▁Team	-14047
▁Tere	-14048
▁Uite	-14049
▁espe	-14050
▁foot	-14051
▁jasi	-14052
▁jaya	-14053
▁male	-14054
▁mane	-14055
▁mime	-14056
▁naZe	-14057
▁nohu	-14058
▁opti	-14059
▁path	-14060
▁vait	-14061
▁zvaa	-14062
Kohati	-14063
anglio	-14064
enjere	-14065
fferen	-14066
ishoko	-14067
kasira	-14068
kurisa	-14069
merica	-14070
pfekwa	-14071
pfudzi	-14072
simasi	-14073
tarire	-14074
teresi	-14075
▁2016.	-14076
▁Dream	-14077
▁Happy	-14078
▁Inzwa	-14079
▁Kenya	-14080
▁Model	-14081
▁Nechi	-14082
▁Nheyo	-14083
▁Phili	-14084
▁Villa	-14085
▁aenda	-14086
▁anavo	-14087
▁bhuru	-14088
▁cover	-14089
▁grass	-14090
▁isuwo	-14091
▁mhere	-14092
▁mumhu	-14093
▁ndiva	-14094
▁neiyo	-14095
▁remba	-14096
▁wauno	-14097
dzikira	-14098
idheoni	-14099
ralized	-14100
tendere	-14101
urukati	-14102
wakanga	-14103
yambiri	-14104
ziwumbe	-14105
▁Custom	-14106
▁Friday	-14107
▁Garden	-14108
▁Hacker	-14109
▁Kugara	-14110
▁Yekare	-14111
▁curren	-14112
▁mazamu	-14113
▁mbambo	-14114
▁murudo	-14115
▁naAbhi	-14116
▁prices	-14117
▁tablet	-14118
▁yaMako	-14119
biravira	-14120
credible	-14121
hwamanda	-14122
mishonga	-14123
stralian	-14124
zvakaita	-14125
▁Deposit	-14126
▁Embassy	-14127
▁Kudenga	-14128
▁Kuramba	-14129
▁Mission	-14130
▁Samaria	-14131
▁anonzwa	-14132
▁hatinga	-14133
▁matsime	-14134
▁micheka	-14135
▁ndakava	-14136
▁ndokuti	-14137
▁nedehwe	-14138
▁nenzeve	-14139
▁nerudzi	-14140
▁panhovo	-14141
▁semvura	-14142
▁vapedza	-14143
▁yemberi	-14144
▁yemhuka	-14145
▁yokunge	-14146
gamuchiri	-14147
konzeresa	-14148
kurukurwa	-14149
ratidziro	-14150
struction	-14151
vakidzani	-14152
▁Florence	-14153
▁Kuchinja	-14154
▁Kutakura	-14155
▁Provider	-14156
▁Tracking	-14157
▁Username	-14158
▁aifanira	-14159
▁anotenda	-14160
▁chenyika	-14161
▁dzemvura	-14162
▁haangavi	-14163
▁kusimuka	-14164
▁kuturika	-14165
▁kuvakuru	-14166
▁kwesimba	-14167
▁madzimai	-14168
▁mubereko	-14169
▁ndecheku	-14170
▁nemurume	-14171
▁nenyunje	-14172
▁ongorora	-14173
▁sikuruwa	-14174
▁vaKristu	-14175
▁wakakura	-14176
▁yekugara	-14177
▁yekuwana	-14178
▁yemuviri	-14179
remekedzwa	-14180
suruvarisa	-14181
yengedzera	-14182
zvemutauro	-14183
▁Elizabeth	-14184
▁Kwemakore	-14185
▁akabudisa	-14186
▁batanidzo	-14187
▁kusimudza	-14188
▁pakavanda	-14189
▁pamadziro	-14190
▁vaJehovha	-14191
▁vakwegura	-14192
▁zvoupfumi	-14193
▁Akapindura	-14194
▁Manyiminya	-14195
▁Mienzaniso	-14196
▁achimhanya	-14197
▁achishanda	-14198
▁incredible	-14199
▁inivhesiti	-14200
▁inoderedza	-14201
▁propionate	-14202
▁yemotokari	-14203
▁zvenaironi	-14204
zvinonhuwira	-14205
▁Vanotengesa	-14206
▁akagadzirwa	-14207
▁amadzimambo	-14208
▁chinotevera	-14209
▁kumanikidza	-14210
▁kuparadzira	-14211
▁mubhizimisi	-14212
▁muzvirongwa	-14213
▁nemakambani	-14214
▁promotional	-14215
▁vachitsvaka	-14216
▁vakaroorana	-14217
▁vanoratidza	-14218
▁Kugadziriswa	-14219
▁anogamuchira	-14220
▁kutsungirira	-14221
▁nokuputsanya	-14222
▁zvekutengesa	-14223
▁Semuyenzaniso	-14224
▁nematambudziko	-14225
▁pakutsvakurudza	-14226
%,	-14227
1)	-14228
1-	-14229
2"	-14230
8)	-14231
:4	-14232
DC	-14233
MC	-14234
MM	-14235
PR	-14236
YM	-14237
Aka	-14238
CDD	-14239
OSE	-14240
Sho	-14241
VAC	-14242
ata	-14243
cid	-14244
hal	-14245
sca	-14246
tye	-14247
uti	-14248
yar	-14249
yor	-14250
zhu	-14251
▁//	-14252
▁WA	-14253
168.	-14254
TION	-14255
Word	-14256
ated	-14257
fied	-14258
hang	-14259
humo	-14260
jisi	-14261
kopo	-14262
moti	-14263
reek	-14264
rora	-14265
safi	-14266
tery	-14267
uswa	-14268
vity	-14269
zima	-14270
▁21.	-14271
▁API	-14272
▁Bay	-14273
▁Din	-14274
▁Eva	-14275
▁Fra	-14276
▁KTM	-14277
▁Les	-14278
▁Ped	-14279
▁Rho	-14280
▁Sai	-14281
▁Tal	-14282
▁blo	-14283
▁bus	-14284
▁paB	-14285
▁paa	-14286
▁pou	-14287
▁set	-14288
Judah	-14289
craft	-14290
dhuze	-14291
ength	-14292
field	-14293
hambo	-14294
mbuzi	-14295
pirit	-14296
quito	-14297
tumbu	-14298
ville	-14299
▁(200	-14300
▁Indi	-14301
▁Ipai	-14302
▁Mwan	-14303
▁TCDD	-14304
▁Vaya	-14305
▁aaka	-14306
▁adap	-14307
▁best	-14308
▁bhan	-14309
▁form	-14310
▁hono	-14311
▁ihwo	-14312
▁joko	-14313
▁kusu	-14314
▁ngai	-14315
▁pura	-14316
▁resi	-14317
▁weMa	-14318
2.168.	-14319
amibia	-14320
dhekai	-14321
donhwe	-14322
irikia	-14323
isease	-14324
ishuwa	-14325
kireni	-14326
limber	-14327
minium	-14328
rukisa	-14329
torial	-14330
tsonga	-14331
varimi	-14332
zareta	-14333
zariro	-14334
▁Chips	-14335
▁Dhabi	-14336
▁Excel	-14337
▁Heino	-14338
▁Tambo	-14339
▁human	-14340
▁muiti	-14341
▁muone	-14342
▁ndich	-14343
▁ndimu	-14344
▁ramba	-14345
▁rombo	-14346
▁veChi	-14347
Amerika	-14348
Jebhusi	-14349
andinga	-14350
cellent	-14351
chingwa	-14352
drawals	-14353
goridhe	-14354
munyori	-14355
patitis	-14356
zorodza	-14357
▁Bhaari	-14358
▁Engine	-14359
▁Hotels	-14360
▁Mahara	-14361
▁Uwandu	-14362
▁achizo	-14363
▁distri	-14364
▁genera	-14365
▁husina	-14366
▁ichave	-14367
▁kunaya	-14368
▁neizvi	-14369
▁nzanga	-14370
▁rapiwa	-14371
▁rekare	-14372
▁spidhi	-14373
▁vasing	-14374
▁wokuti	-14375
▁yakava	-14376
▁yapera	-14377
▁zviito	-14378
Rinopasi	-14379
goverana	-14380
homanana	-14381
iswahiri	-14382
suruvara	-14383
yisalama	-14384
zviitira	-14385
▁Akaenda	-14386
▁GoQuick	-14387
▁Kutamba	-14388
▁Limited	-14389
▁Rugwaro	-14390
▁akamisa	-14391
▁akazara	-14392
▁anodiwa	-14393
▁chikara	-14394
▁chirimo	-14395
▁forodha	-14396
▁hachisi	-14397
▁haigoni	-14398
▁inoreva	-14399
▁kurwara	-14400
▁madhora	-14401
▁michini	-14402
▁muurayi	-14403
▁naJudha	-14404
▁nemimba	-14405
▁nezvipo	-14406
▁nokunwa	-14407
▁pamunhu	-14408
▁parwizi	-14409
▁rechina	-14410
▁rwavana	-14411
▁without	-14412
▁zviedza	-14413
shambadza	-14414
singazivi	-14415
turikirwa	-14416
yeuchidzo	-14417
▁Handinga	-14418
▁Modhekai	-14419
▁akavaisa	-14420
▁bhodhoro	-14421
▁esirivha	-14422
▁inodhura	-14423
▁inyanzvi	-14424
▁kurongwa	-14425
▁mibayiro	-14426
▁muHarare	-14427
▁muhutano	-14428
▁namatatu	-14429
▁pasocial	-14430
▁rakapera	-14431
▁vatyairi	-14432
▁zviteshi	-14433
ishandiswe	-14434
▁Chiarabhu	-14435
▁Decanoate	-14436
▁akatsamwa	-14437
▁chinoumba	-14438
▁kuchinjwa	-14439
▁navaJudha	-14440
▁nokutaura	-14441
▁rwaManase	-14442
▁vaIjipiti	-14443
▁vakaurawa	-14444
▁yakasikwa	-14445
▁zvinotora	-14446
▁Australian	-14447
▁Metatrader	-14448
▁Mozambique	-14449
▁Protection	-14450
▁anotodzana	-14451
▁anotsigira	-14452
▁chengarava	-14453
▁chifukidzo	-14454
▁kusimbiswa	-14455
▁kwakaitika	-14456
▁mhemberero	-14457
▁muchadenga	-14458
▁muchikwata	-14459
▁nomurayiro	-14460
▁voruzhinji	-14461
▁zvawanikwa	-14462
▁Corporation	-14463
▁Ezvemutauro	-14464
▁kunowanikwa	-14465
▁mabhiriyoni	-14466
▁wokuUkraine	-14467
▁zvakanakisa	-14468
▁zvichiitika	-14469
▁chinowanikwa	-14470
▁dandemutande	-14471
▁dzinonakidza	-14472
▁kukudziridza	-14473
▁kusanganiswa	-14474
▁nezvakarukwa	-14475
▁vakashamiswa	-14476
▁akagadzirirwa	-14477
▁Cryptocurrency	-14478
▁dzinoshandiswa	-14479
▁pakutambudzika	-14480
▁vakachengeteka	-14481
▁inivhesitimendi	-14482
4:	-14483
IB	-14484
SO	-14485
rc	-14486
sc	-14487
ug	-14488
-2-	-14489
800	-14490
IRE	-14491
Wit	-14492
aba	-14493
bed	-14494
dar	-14495
fts	-14496
hib	-14497
kna	-14498
rak	-14499
uyi	-14500
▁CV	-14501
▁OR	-14502
▁PU	-14503
▁Ré	-14504
▁if	-14505
2017	-14506
HUKU	-14507
Kore	-14508
TCDD	-14509
Time	-14510
cher	-14511
dzer	-14512
fish	-14513
gins	-14514
kiya	-14515
rees	-14516
rena	-14517
rent	-14518
rous	-14519
rumi	-14520
seke	-14521
suku	-14522
teya	-14523
vani	-14524
zora	-14525
▁Cir	-14526
▁Eno	-14527
▁HIV	-14528
▁Kay	-14529
▁Kon	-14530
▁Mir	-14531
▁Nan	-14532
▁Oku	-14533
▁Plu	-14534
▁Tha	-14535
▁Tsa	-14536
▁Zvo	-14537
▁ara	-14538
▁boo	-14539
▁ele	-14540
▁eth	-14541
▁mid	-14542
▁raA	-14543
▁res	-14544
South	-14545
akara	-14546
amari	-14547
anjin	-14548
arimi	-14549
conde	-14550
dzvan	-14551
gence	-14552
gular	-14553
inawa	-14554
lates	-14555
minal	-14556
shore	-14557
tered	-14558
wirai	-14559
▁Body	-14560
▁FIFA	-14561
▁Guys	-14562
▁Iine	-14563
▁Mark	-14564
▁Mike	-14565
▁Show	-14566
▁Sund	-14567
▁come	-14568
▁demo	-14569
▁iite	-14570
▁left	-14571
▁meno	-14572
▁paGi	-14573
▁soil	-14574
▁uise	-14575
▁vafa	-14576
angamu	-14577
chloro	-14578
iitawo	-14579
ndrome	-14580
ronike	-14581
umatic	-14582
zinisi	-14583
▁APane	-14584
▁Clini	-14585
▁Ganda	-14586
▁Grand	-14587
▁Ikoko	-14588
▁KAIST	-14589
▁Kungo	-14590
▁Milan	-14591
▁Ndimi	-14592
▁Ndiwe	-14593
▁Swiss	-14594
▁Tools	-14595
▁ekare	-14596
▁hupfu	-14597
▁mvere	-14598
▁vakai	-14599
▁whole	-14600
akamuri	-14601
angular	-14602
ination	-14603
onatani	-14604
yaringi	-14605
zambiki	-14606
zaspiro	-14607
▁Esther	-14608
▁Island	-14609
▁Negore	-14610
▁Toyota	-14611
▁Tumira	-14612
▁anazvo	-14613
▁around	-14614
▁girini	-14615
▁kunoda	-14616
▁makosi	-14617
▁misasa	-14618
▁mitsva	-14619
▁pazera	-14620
▁ruvoko	-14621
▁wavaka	-14622
▁yainzi	-14623
mergency	-14624
risimasi	-14625
▁Environ	-14626
▁Mutumwa	-14627
▁akareba	-14628
▁akarova	-14629
▁angango	-14630
▁hakunga	-14631
▁ichiita	-14632
▁inonaya	-14633
▁kicheni	-14634
▁kuvonga	-14635
▁mucheka	-14636
▁ndikava	-14637
▁nemwana	-14638
▁nezvivi	-14639
▁patsoka	-14640
▁pezvaka	-14641
▁tingati	-14642
▁uchandi	-14643
▁unobata	-14644
▁vatendi	-14645
▁vimbiso	-14646
▁wakaisa	-14647
▁yemunhu	-14648
▁yesimbi	-14649
ongedzera	-14650
pfungaira	-14651
▁Distribu	-14652
▁Hospital	-14653
▁MUTSVENE	-14654
▁Rhashiya	-14655
▁akapfeka	-14656
▁building	-14657
▁dzinonzi	-14658
▁eAfurika	-14659
▁kubhengi	-14660
▁kuchovha	-14661
▁kushungu	-14662
▁kuzodana	-14663
▁namazita	-14664
▁ndakaona	-14665
▁nemazita	-14666
▁pekugara	-14667
▁purofiti	-14668
▁unotaura	-14669
▁vakatuma	-14670
▁yehutano	-14671
mvuramabwe	-14672
udzosingwi	-14673
zunguzirwa	-14674
▁Argentina	-14675
▁Corporate	-14676
▁Marketing	-14677
▁Mukutaura	-14678
▁Operation	-14679
▁akararama	-14680
▁chibereko	-14681
▁chinamato	-14682
▁configura	-14683
▁dziviriro	-14684
▁kududzira	-14685
▁kumucheto	-14686
▁kuparidza	-14687
▁kupfuvura	-14688
▁mupumburu	-14689
▁muzvikamu	-14690
▁neminondo	-14691
▁unotevera	-14692
▁vezvenhau	-14693
▁wakachena	-14694
▁wakasvika	-14695
▁yakasviba	-14696
▁yokuedzwa	-14697
▁zvataurwa	-14698
▁zvinonaka	-14699
▁zvokuimba	-14700
▁Integrated	-14701
▁Kubhadhara	-14702
▁Kudakwashe	-14703
▁Musateresa	-14704
▁Zvinokosha	-14705
▁chakasimba	-14706
▁especially	-14707
▁havafaniri	-14708
▁kwevakadzi	-14709
▁mavharuvhu	-14710
▁rinonyanya	-14711
▁rokumusoro	-14712
▁vakasiyana	-14713
▁zvinodhura	-14714
paradzaniswa	-14715
▁Achigadzira	-14716
▁Application	-14717
▁Zvakarurama	-14718
▁akaigadzira	-14719
▁chengetedza	-14720
▁chokurukisa	-14721
▁dzishandise	-14722
▁kurambidzwa	-14723
▁vaDhavhidhi	-14724
▁yokutengesa	-14725
▁Buddhatrends	-14726
▁akakurumidza	-14727
▁musanganiswa	-14728
▁nokushandisa	-14729
▁wakagadzirwa	-14730
▁yekubhadhara	-14731
▁zvakajairika	-14732
▁akazviratidza	-14733
▁nezvinonhuwira	-14734
▁pamahombekombe	-14735
▁rakagadzirirwa	-14736
LI	-14737
YS	-14738
hr	-14739
ia	-14740
ot	-14741
~~	-14742
-16	-14743
Asi	-14744
God	-14745
VAN	-14746
hur	-14747
iny	-14748
kie	-14749
put	-14750
sex	-14751
tto	-14752
▁Ob	-14753
TEVE	-14754
bala	-14755
bote	-14756
duka	-14757
feva	-14758
gasi	-14759
guay	-14760
gure	-14761
hiti	-14762
inch	-14763
kulu	-14764
kupi	-14765
lled	-14766
meka	-14767
mill	-14768
sper	-14769
tala	-14770
tepe	-14771
thon	-14772
udhi	-14773
unze	-14774
yusa	-14775
zoti	-14776
▁-->	-14777
▁1-2	-14778
▁Cen	-14779
▁Eco	-14780
▁Fol	-14781
▁III	-14782
▁Ide	-14783
▁Mid	-14784
▁Mud	-14785
▁SMS	-14786
▁Xin	-14787
▁eng	-14788
▁kuU	-14789
▁kua	-14790
▁log	-14791
▁nit	-14792
▁reD	-14793
▁reK	-14794
Nguni	-14795
Small	-14796
amond	-14797
burwa	-14798
eries	-14799
fariz	-14800
firam	-14801
folio	-14802
hindi	-14803
hwiro	-14804
isira	-14805
mbiya	-14806
munyu	-14807
nanga	-14808
pengo	-14809
ption	-14810
svall	-14811
yenga	-14812
zveku	-14813
▁Ages	-14814
▁Kuko	-14815
▁Lyon	-14816
▁Reso	-14817
▁Rope	-14818
▁Stan	-14819
▁Vuye	-14820
▁auto	-14821
▁goko	-14822
▁inje	-14823
▁kuzv	-14824
▁live	-14825
▁mina	-14826
▁mini	-14827
▁misa	-14828
▁nowa	-14829
▁rect	-14830
▁sick	-14831
▁tsva	-14832
▁woru	-14833
▁yezv	-14834
▁zvak	-14835
Mbudzi	-14836
XCHARX	-14837
angala	-14838
dzunga	-14839
kunaya	-14840
logist	-14841
mareki	-14842
reruka	-14843
ritain	-14844
tecoin	-14845
terior	-14846
torage	-14847
ungira	-14848
▁Chisa	-14849
▁Chiso	-14850
▁Congo	-14851
▁KUDZI	-14852
▁Kadhi	-14853
▁Lucia	-14854
▁Mathe	-14855
▁Parts	-14856
▁Plant	-14857
▁Rodri	-14858
▁Royal	-14859
▁Steam	-14860
▁Tonga	-14861
▁chiti	-14862
▁dzive	-14863
▁inzwa	-14864
▁kenza	-14865
▁kusvu	-14866
▁naBha	-14867
▁oxide	-14868
▁paChi	-14869
▁panel	-14870
▁prepa	-14871
▁rwoga	-14872
▁those	-14873
▁zingi	-14874
▁zvawa	-14875
Bhahari	-14876
DZISIRA	-14877
dzvanya	-14878
panyama	-14879
putirwa	-14880
rashika	-14881
torerwa	-14882
tuitary	-14883
vanyori	-14884
vedzera	-14885
waniswa	-14886
▁Anavar	-14887
▁Genera	-14888
▁Marsha	-14889
▁Orange	-14890
▁amambo	-14891
▁angled	-14892
▁chaive	-14893
▁experi	-14894
▁inzwai	-14895
▁jongwe	-14896
▁kuruka	-14897
▁kutara	-14898
▁mapazi	-14899
▁mukoti	-14900
▁pehama	-14901
▁separa	-14902
▁shinda	-14903
▁yeropa	-14904
Istanbul	-14905
bhanhire	-14906
mization	-14907
sarurama	-14908
▁Adapter	-14909
▁Dzivisa	-14910
▁Hormone	-14911
▁Luganda	-14912
▁Mutsara	-14913
▁Ndinoti	-14914
▁Umbundu	-14915
▁Varanda	-14916
▁achinzi	-14917
▁echando	-14918
▁emuviri	-14919
▁kuShona	-14920
▁muJapan	-14921
▁pachava	-14922
▁unowana	-14923
▁weSiria	-14924
▁wokwake	-14925
▁zvabuda	-14926
▁zvikara	-14927
estamende	-14928
ishandura	-14929
kombiyuta	-14930
yangarika	-14931
▁Building	-14932
▁Champion	-14933
▁Director	-14934
▁Northern	-14935
▁Zedhekia	-14936
▁Zvitsuwa	-14937
▁akamuisa	-14938
▁anoronga	-14939
▁azvikuya	-14940
▁inongova	-14941
▁kuitirwa	-14942
▁kwezvivi	-14943
▁madzishe	-14944
▁mumhanyi	-14945
▁nemuromo	-14946
▁nokuziva	-14947
▁ramakore	-14948
▁vakawira	-14949
▁wakapiwa	-14950
fanotaurwa	-14951
▁Chidzidzo	-14952
▁Ndinogona	-14953
▁anoonekwa	-14954
▁bookmaker	-14955
▁polyester	-14956
▁uchitamba	-14957
▁vateereri	-14958
ishuwarenzi	-14959
▁Madzimambo	-14960
▁anokonzera	-14961
▁inosimbisa	-14962
▁muPirisita	-14963
▁muThailand	-14964
▁nekushanda	-14965
▁anogadzirwa	-14966
▁application	-14967
▁chinoshanda	-14968
▁kubiridzira	-14969
▁nezvibereko	-14970
kusanganisira	-14971
▁Dhipatimendi	-14972
▁avaFirisitia	-14973
▁kupatsanurwa	-14974
▁mabheyaringi	-14975
▁mapurogiramu	-14976
▁nechigadziko	-14977
▁nomuporofita	-14978
▁zvaunofanira	-14979
▁nokudzidziswa	-14980
▁vakadanidzira	-14981
▁zvisakarurama	-14982
henylpropionate	-14983
)?	-14984
3%	-14985
42	-14986
56	-14987
Hy	-14988
RM	-14989
kt	-14990
-01	-14991
Boc	-14992
Ini	-14993
bly	-14994
gis	-14995
gne	-14996
irs	-14997
lem	-14998
vol	-14999
▁".	-15000
▁66	-15001
▁PM	-15002
▁RC	-15003
▁TM	-15004
▁ml	-15005
PANA	-15006
[...]
